{
  "version": "1.0",
  "truncation": null,
  "padding": null,
  "added_tokens": [
    {
      "id": 0,
      "content": "<pad>",
      "single_word": false,
      "lstrip": false,
      "rstrip": false,
      "normalized": false,
      "special": true
    },
    {
      "id": 1,
      "content": "<s>",
      "single_word": false,
      "lstrip": false,
      "rstrip": false,
      "normalized": false,
      "special": true
    },
    {
      "id": 2,
      "content": "</s>",
      "single_word": false,
      "lstrip": false,
      "rstrip": false,
      "normalized": false,
      "special": true
    },
    {
      "id": 3,
      "content": "<unk>",
      "single_word": false,
      "lstrip": false,
      "rstrip": false,
      "normalized": false,
      "special": true
    },
    {
      "id": 4,
      "content": "<mask>",
      "single_word": false,
      "lstrip": false,
      "rstrip": false,
      "normalized": false,
      "special": true
    }
  ],
  "normalizer": {
    "type": "NFKC"
  },
  "pre_tokenizer": {
    "type": "UnicodeScripts"
  },
  "post_processor": {
    "type": "TemplateProcessing",
    "single": [
      {
        "SpecialToken": {
          "id": "<s>",
          "type_id": 0
        }
      },
      {
        "Sequence": {
          "id": "A",
          "type_id": 0
        }
      },
      {
        "SpecialToken": {
          "id": "</s>",
          "type_id": 0
        }
      }
    ],
    "pair": [
      {
        "Sequence": {
          "id": "A",
          "type_id": 0
        }
      },
      {
        "Sequence": {
          "id": "B",
          "type_id": 1
        }
      }
    ],
    "special_tokens": {
      "</s>": {
        "id": "</s>",
        "ids": [
          2
        ],
        "tokens": [
          "</s>"
        ]
      },
      "<s>": {
        "id": "<s>",
        "ids": [
          1
        ],
        "tokens": [
          "<s>"
        ]
      }
    }
  },
  "decoder": {
    "type": "Metaspace",
    "replacement": "▁",
    "prepend_scheme": "always",
    "split": true
  },
  "model": {
    "type": "Unigram",
    "unk_id": 3,
    "vocab": [
      [
        "<pad>",
        0.0
      ],
      [
        "<s>",
        0.0
      ],
      [
        "</s>",
        0.0
      ],
      [
        "<unk>",
        0.0
      ],
      [
        "<mask>",
        0.0
      ],
      [
        "、",
        -3.294839162127719
      ],
      [
        "の",
        -3.438471879922499
      ],
      [
        "。",
        -4.033509687841704
      ],
      [
        "を",
        -4.055294492967128
      ],
      [
        "は",
        -4.10955751951191
      ],
      [
        "に",
        -4.160248406774663
      ],
      [
        "が",
        -4.2607290631123185
      ],
      [
        "・",
        -4.702954588015732
      ],
      [
        "で",
        -4.764873478680974
      ],
      [
        "と",
        -4.776773616445537
      ],
      [
        "年",
        -4.780955916029951
      ],
      [
        "。\n",
        -4.88852059426233
      ],
      [
        "(",
        -4.9332523170804095
      ],
      [
        ")",
        -4.986836374774327
      ],
      [
        " ",
        -5.014129409002049
      ],
      [
        "\n",
        -5.238366546024583
      ],
      [
        "した",
        -5.270789043855462
      ],
      [
        "ス",
        -5.389552738537601
      ],
      [
        "し",
        -5.42542017609828
      ],
      [
        "」",
        -5.516200984236235
      ],
      [
        "も",
        -5.55952729123141
      ],
      [
        "「",
        -5.56590865316876
      ],
      [
        "月",
        -5.575442571783752
      ],
      [
        "い",
        -5.687574568602358
      ],
      [
        "する",
        -5.699126848952357
      ],
      [
        "から",
        -5.770072506865162
      ],
      [
        "1",
        -5.775207868744976
      ],
      [
        "2",
        -5.799034415317649
      ],
      [
        "や",
        -5.8580117606454305
      ],
      [
        "る",
        -5.918437485091939
      ],
      [
        "3",
        -5.923405987219233
      ],
      [
        "ト",
        -5.935714294742665
      ],
      [
        "た",
        -5.954946485201008
      ],
      [
        "である",
        -5.976185959371209
      ],
      [
        "な",
        -6.00947200626641
      ],
      [
        "4",
        -6.010298233039007
      ],
      [
        "日",
        -6.011262456710396
      ],
      [
        "された",
        -6.044414863722482
      ],
      [
        "ル",
        -6.048649105354986
      ],
      [
        "として",
        -6.055974355748244
      ],
      [
        "ア",
        -6.06478925849385
      ],
      [
        "り",
        -6.117571407205892
      ],
      [
        "ド",
        -6.127080724548367
      ],
      [
        "ク",
        -6.129175725940392
      ],
      [
        "5",
        -6.175572426703349
      ],
      [
        "か",
        -6.199026330596313
      ],
      [
        "大",
        -6.199817441717956
      ],
      [
        "人",
        -6.219808366164655
      ],
      [
        "では",
        -6.239626107588174
      ],
      [
        "6",
        -6.2994213560674055
      ],
      [
        "く",
        -6.3028645531755405
      ],
      [
        "リ",
        -6.324274697340339
      ],
      [
        "』",
        -6.336570945467285
      ],
      [
        "ン",
        -6.341710721315707
      ],
      [
        "イ",
        -6.356379129278023
      ],
      [
        "て",
        -6.373266860601904
      ],
      [
        "7",
        -6.38709209630248
      ],
      [
        "ラ",
        -6.389528880918306
      ],
      [
        "『",
        -6.392740660322493
      ],
      [
        "マ",
        -6.433062536183533
      ],
      [
        "8",
        -6.4427758895885585
      ],
      [
        "この",
        -6.456746378057531
      ],
      [
        "して",
        -6.457034054178614
      ],
      [
        "19",
        -6.459809880590553
      ],
      [
        "9",
        -6.463635464734772
      ],
      [
        "中",
        -6.476625508872701
      ],
      [
        "一",
        -6.492811212052585
      ],
      [
        "ロ",
        -6.498823812324764
      ],
      [
        "ー",
        -6.526121903131715
      ],
      [
        "上",
        -6.541483423830499
      ],
      [
        "には",
        -6.545740932214754
      ],
      [
        "ム",
        -6.574454321634681
      ],
      [
        "長",
        -6.574681943872397
      ],
      [
        "している",
        -6.586754211848181
      ],
      [
        "カ",
        -6.599573341876653
      ],
      [
        "A",
        -6.608927886992314
      ],
      [
        "本",
        -6.609014693123559
      ],
      [
        "き",
        -6.616433525382952
      ],
      [
        "という",
        -6.619006368051425
      ],
      [
        "コ",
        -6.632549343918942
      ],
      [
        "国",
        -6.6447578490574895
      ],
      [
        "地",
        -6.64601391566165
      ],
      [
        "者",
        -6.654649224943382
      ],
      [
        "った",
        -6.662965248893178
      ],
      [
        "戦",
        -6.6685083855115845
      ],
      [
        "う",
        -6.668753347259525
      ],
      [
        "その",
        -6.6831564978454505
      ],
      [
        "後",
        -6.685655879720274
      ],
      [
        "つ",
        -6.688253322908533
      ],
      [
        "山",
        -6.690070074368075
      ],
      [
        "S",
        -6.695243431652095
      ],
      [
        "ズ",
        -6.72631367869063
      ],
      [
        "また",
        -6.7372795219964665
      ],
      [
        "され",
        -6.752072007200066
      ],
      [
        "ら",
        -6.761146308201255
      ],
      [
        "同",
        -6.761424468283314
      ],
      [
        "年に",
        -6.790342783450276
      ],
      [
        "C",
        -6.796952733634088
      ],
      [
        "子",
        -6.797151733931626
      ],
      [
        "フ",
        -6.807124648239887
      ],
      [
        "レ",
        -6.810286044408462
      ],
      [
        "田",
        -6.812533999307018
      ],
      [
        "エ",
        -6.8249741774817725
      ],
      [
        "出",
        -6.835299423342031
      ],
      [
        "タ",
        -6.837636594192309
      ],
      [
        "第",
        -6.841676672354428
      ],
      [
        "-",
        -6.850513233475915
      ],
      [
        "ッ",
        -6.854876347224483
      ],
      [
        "め",
        -6.859477386210015
      ],
      [
        "行",
        -6.860280380317915
      ],
      [
        "M",
        -6.861489170290618
      ],
      [
        "ミ",
        -6.867926330728761
      ],
      [
        "など",
        -6.868794283200488
      ],
      [
        "10",
        -6.873277526397677
      ],
      [
        "部",
        -6.879768508278252
      ],
      [
        "日本",
        -6.8865248407590105
      ],
      [
        "シ",
        -6.898771807491039
      ],
      [
        "ナ",
        -6.900469184254643
      ],
      [
        "学",
        -6.904839644750556
      ],
      [
        "下",
        -6.913382215809047
      ],
      [
        "リー",
        -6.92163037237623
      ],
      [
        "川",
        -6.921948669381543
      ],
      [
        "名",
        -6.923197705185414
      ],
      [
        "P",
        -6.9250570303097145
      ],
      [
        "生",
        -6.9300014821954505
      ],
      [
        "わ",
        -6.9307314964402345
      ],
      [
        "o",
        -6.932309739628993
      ],
      [
        "ブ",
        -6.9438557212959875
      ],
      [
        "ない",
        -6.945841193608327
      ],
      [
        "市",
        -6.94977564204725
      ],
      [
        "家",
        -6.960535671920686
      ],
      [
        "ている",
        -6.964341070472443
      ],
      [
        "e",
        -6.9780348957524545
      ],
      [
        "前",
        -6.982624609601967
      ],
      [
        "用",
        -6.9888851054357115
      ],
      [
        "される",
        -7.0009626587293905
      ],
      [
        "回",
        -7.011483869273041
      ],
      [
        "体",
        -7.015646181870327
      ],
      [
        "高",
        -7.022414207086239
      ],
      [
        "事",
        -7.027441363695667
      ],
      [
        ".",
        -7.030698875384276
      ],
      [
        "作",
        -7.032532273885833
      ],
      [
        "手",
        -7.033285646089531
      ],
      [
        "す",
        -7.034438383080403
      ],
      [
        "会",
        -7.036010451915136
      ],
      [
        "E",
        -7.041808318246229
      ],
      [
        "T",
        -7.049487275240379
      ],
      [
        "D",
        -7.051509444714293
      ],
      [
        "軍",
        -7.051972081691119
      ],
      [
        "数",
        -7.053993449235998
      ],
      [
        "グ",
        -7.061249337044972
      ],
      [
        "って",
        -7.064160629141631
      ],
      [
        "されている",
        -7.0664163823078106
      ],
      [
        "分",
        -7.0676573963886735
      ],
      [
        "新",
        -7.075215700484323
      ],
      [
        "m",
        -7.078735278586448
      ],
      [
        "オ",
        -7.085176226450722
      ],
      [
        "ニ",
        -7.086173983830088
      ],
      [
        "県",
        -7.092559449142026
      ],
      [
        "ウ",
        -7.094327748925769
      ],
      [
        "え",
        -7.099799654757154
      ],
      [
        "大学",
        -7.101404021013087
      ],
      [
        "バ",
        -7.101429234861062
      ],
      [
        "となった",
        -7.10515564030479
      ],
      [
        "線",
        -7.119967712733393
      ],
      [
        "力",
        -7.123733843988342
      ],
      [
        "水",
        -7.12654299062595
      ],
      [
        "スト",
        -7.127147258236461
      ],
      [
        "法",
        -7.128017988695577
      ],
      [
        "合",
        -7.1314054859902924
      ],
      [
        "B",
        -7.135630793250488
      ],
      [
        "キ",
        -7.141757083308475
      ],
      [
        "み",
        -7.141802533739707
      ],
      [
        "ジ",
        -7.14277925457422
      ],
      [
        "位",
        -7.143072054993562
      ],
      [
        "化",
        -7.143867086001531
      ],
      [
        "ット",
        -7.146184729788972
      ],
      [
        "テ",
        -7.1484180597794555
      ],
      [
        "サ",
        -7.151041710107355
      ],
      [
        "実",
        -7.153252440536729
      ],
      [
        "パ",
        -7.1568095915357866
      ],
      [
        "発",
        -7.156994371113386
      ],
      [
        "ター",
        -7.16671967440459
      ],
      [
        "12",
        -7.178087793139106
      ],
      [
        "日に",
        -7.185020760662919
      ],
      [
        "所",
        -7.185127326459881
      ],
      [
        "まで",
        -7.186148301202389
      ],
      [
        "L",
        -7.187666183001452
      ],
      [
        "け",
        -7.188014975183705
      ],
      [
        "さ",
        -7.1898045299465085
      ],
      [
        "性",
        -7.193958954947988
      ],
      [
        "i",
        -7.198446101625322
      ],
      [
        "s",
        -7.20847447071664
      ],
      [
        "機",
        -7.2115031200906685
      ],
      [
        "東",
        -7.21206851167514
      ],
      [
        "ため",
        -7.213740324541913
      ],
      [
        "北",
        -7.218231449653505
      ],
      [
        "18",
        -7.218372757590023
      ],
      [
        "ま",
        -7.221209516836158
      ],
      [
        "外",
        -7.2263091834944415
      ],
      [
        "主",
        -7.227934329058673
      ],
      [
        "れ",
        -7.2288994658895245
      ],
      [
        "a",
        -7.229304907890027
      ],
      [
        "チ",
        -7.236600898717846
      ],
      [
        "小",
        -7.242875983440555
      ],
      [
        "ん",
        -7.249988793697348
      ],
      [
        "によって",
        -7.256838650009438
      ],
      [
        "プ",
        -7.26750294959856
      ],
      [
        "三",
        -7.271330640897554
      ],
      [
        "I",
        -7.273405414569643
      ],
      [
        "ハ",
        -7.276169499635463
      ],
      [
        "もの",
        -7.277159588331713
      ],
      [
        "R",
        -7.281676100242919
      ],
      [
        "であった",
        -7.282845457142134
      ],
      [
        "入",
        -7.284186669721308
      ],
      [
        "内",
        -7.2891764472183915
      ],
      [
        "がある",
        -7.28989350353744
      ],
      [
        "11",
        -7.291292778334464
      ],
      [
        "ール",
        -7.295872695802039
      ],
      [
        "こ",
        -7.297541429768337
      ],
      [
        "ノ",
        -7.302250063675412
      ],
      [
        "町",
        -7.30596681446022
      ],
      [
        "ディ",
        -7.307180135871173
      ],
      [
        "c",
        -7.308745951792888
      ],
      [
        "による",
        -7.311374298000521
      ],
      [
        "していた",
        -7.312132426811997
      ],
      [
        "O",
        -7.312726130297554
      ],
      [
        "へ",
        -7.3127413349238175
      ],
      [
        "見",
        -7.312779316406939
      ],
      [
        "車",
        -7.313537028119384
      ],
      [
        "により",
        -7.315646311417241
      ],
      [
        "G",
        -7.318443126335877
      ],
      [
        "面",
        -7.31866190019908
      ],
      [
        "いた",
        -7.319658294322696
      ],
      [
        "じ",
        -7.326680465697567
      ],
      [
        "定",
        -7.326790871289706
      ],
      [
        "的な",
        -7.331119364844255
      ],
      [
        "こと",
        -7.331848983706209
      ],
      [
        "駅",
        -7.33993471180948
      ],
      [
        "島",
        -7.3431080362341365
      ],
      [
        "目",
        -7.344226726058077
      ],
      [
        "西",
        -7.345440404025645
      ],
      [
        "道",
        -7.346975655306281
      ],
      [
        "F",
        -7.347256255650457
      ],
      [
        "原",
        -7.352103399417455
      ],
      [
        "的",
        -7.352474585860911
      ],
      [
        "場",
        -7.359628389941088
      ],
      [
        "方",
        -7.3648437109450615
      ],
      [
        "南",
        -7.366506619229975
      ],
      [
        "間",
        -7.370735988093665
      ],
      [
        "イン",
        -7.37164353501162
      ],
      [
        "立",
        -7.382594347543412
      ],
      [
        "野",
        -7.382744837784211
      ],
      [
        "書",
        -7.391919514029029
      ],
      [
        "社",
        -7.396846431765969
      ],
      [
        "p",
        -7.398600766686698
      ],
      [
        "ネ",
        -7.401055956387674
      ],
      [
        "であり",
        -7.401894838577437
      ],
      [
        "正",
        -7.404096607332091
      ],
      [
        "語",
        -7.408529190992576
      ],
      [
        "メ",
        -7.409671459511891
      ],
      [
        "進",
        -7.409679522052651
      ],
      [
        "全",
        -7.411422517523622
      ],
      [
        "王",
        -7.412910794719492
      ],
      [
        "モ",
        -7.41398553542578
      ],
      [
        "ティ",
        -7.414141541242522
      ],
      [
        "デ",
        -7.415786310806597
      ],
      [
        "度",
        -7.417594216603636
      ],
      [
        "州",
        -7.425002738899519
      ],
      [
        "セ",
        -7.433273647936721
      ],
      [
        "バー",
        -7.438943146683648
      ],
      [
        "期",
        -7.43961722974216
      ],
      [
        "ビ",
        -7.445897934185686
      ],
      [
        "元",
        -7.452038341577271
      ],
      [
        "時",
        -7.45672403169633
      ],
      [
        "初",
        -7.457595550957539
      ],
      [
        "金",
        -7.460451142552019
      ],
      [
        "号",
        -7.4671600342798605
      ],
      [
        "物",
        -7.468647448222471
      ],
      [
        "現",
        -7.4735215336446945
      ],
      [
        "点",
        -7.48328061455827
      ],
      [
        "お",
        -7.487991049801085
      ],
      [
        "海",
        -7.50181189894359
      ],
      [
        "不",
        -7.507850763657165
      ],
      [
        "レー",
        -7.509831393527966
      ],
      [
        "より",
        -7.511003279668367
      ],
      [
        "明",
        -7.511664967086945
      ],
      [
        "あ",
        -7.513715551333327
      ],
      [
        "となる",
        -7.518411332359962
      ],
      [
        "ック",
        -7.519274805865686
      ],
      [
        "N",
        -7.520089440431597
      ],
      [
        "られた",
        -7.5201955226650234
      ],
      [
        "その後",
        -7.5207188481131215
      ],
      [
        "ダ",
        -7.524913957859052
      ],
      [
        "u",
        -7.536415316502996
      ],
      [
        "神",
        -7.540423550491409
      ],
      [
        "重",
        -7.54594963671318
      ],
      [
        "への",
        -7.546619219021915
      ],
      [
        "動",
        -7.5499229262436245
      ],
      [
        "、「",
        -7.550247615441016
      ],
      [
        "W",
        -7.55193650288599
      ],
      [
        "ツ",
        -7.553769615723759
      ],
      [
        "ラン",
        -7.5552150411339944
      ],
      [
        "しかし",
        -7.558429233905985
      ],
      [
        "H",
        -7.559189326345713
      ],
      [
        "無",
        -7.560287089975009
      ],
      [
        "0",
        -7.562308955950732
      ],
      [
        "代",
        -7.565361000589396
      ],
      [
        "気",
        -7.565413759668804
      ],
      [
        "ガ",
        -7.565530840593386
      ],
      [
        "t",
        -7.565872075127674
      ],
      [
        "成",
        -7.566168905332905
      ],
      [
        "文",
        -7.567755140827277
      ],
      [
        "20",
        -7.574807792235815
      ],
      [
        "式",
        -7.575321649292121
      ],
      [
        "ボ",
        -7.575946060723336
      ],
      [
        "だった",
        -7.576162978734157
      ],
      [
        "公",
        -7.5822841420022655
      ],
      [
        "世",
        -7.5856076953145095
      ],
      [
        "村",
        -7.588303630537531
      ],
      [
        "せ",
        -7.592758835882478
      ],
      [
        "次",
        -7.610516041628099
      ],
      [
        "なかった",
        -7.611356492874007
      ],
      [
        "17",
        -7.61166125358716
      ],
      [
        "ケ",
        -7.614379283727322
      ],
      [
        "最",
        -7.615318210607187
      ],
      [
        "でも",
        -7.616718627352457
      ],
      [
        "側",
        -7.616881135144652
      ],
      [
        "通",
        -7.6248435056299115
      ],
      [
        "理",
        -7.624988927951742
      ],
      [
        "流",
        -7.625192078937811
      ],
      [
        "K",
        -7.625583644990865
      ],
      [
        "ず",
        -7.633811882811269
      ],
      [
        "平",
        -7.639379912722498
      ],
      [
        "にも",
        -7.643268493850551
      ],
      [
        "員",
        -7.6442001148534615
      ],
      [
        "天",
        -7.646447103446437
      ],
      [
        "区",
        -7.650904670363792
      ],
      [
        "ラー",
        -7.651784253167854
      ],
      [
        "石",
        -7.6603088002366935
      ],
      [
        "アン",
        -7.660965049874289
      ],
      [
        "っ",
        -7.664052479935256
      ],
      [
        "ペ",
        -7.670594988049986
      ],
      [
        "U",
        -7.6707178900139095
      ],
      [
        "ロー",
        -7.671172415448176
      ],
      [
        "城",
        -7.672523879437154
      ],
      [
        "知",
        -7.6783935809349355
      ],
      [
        "言",
        -7.680648407214461
      ],
      [
        "b",
        -7.682744163450046
      ],
      [
        "られ",
        -7.683152964540174
      ],
      [
        "k",
        -7.684108156741958
      ],
      [
        "ていた",
        -7.686905313540045
      ],
      [
        "n",
        -7.687875757921294
      ],
      [
        "着",
        -7.691996835178239
      ],
      [
        "当",
        -7.692564355772397
      ],
      [
        "ば",
        -7.694353996645777
      ],
      [
        "ヒ",
        -7.695665777553893
      ],
      [
        "来",
        -7.701741268940159
      ],
      [
        "V",
        -7.703300310192063
      ],
      [
        "マン",
        -7.70510838752366
      ],
      [
        "近",
        -7.708312382376974
      ],
      [
        "ライ",
        -7.708704979022931
      ],
      [
        "ち",
        -7.710035710426716
      ],
      [
        "それ",
        -7.711418622558837
      ],
      [
        "世界",
        -7.711780874470209
      ],
      [
        "的に",
        -7.714151961633039
      ],
      [
        "h",
        -7.720547774151171
      ],
      [
        "形",
        -7.7214448452468964
      ],
      [
        "J",
        -7.724878258485152
      ],
      [
        "15",
        -7.72673403170641
      ],
      [
        "d",
        -7.727518607626946
      ],
      [
        "役",
        -7.728504580495324
      ],
      [
        "務",
        -7.7306712963056405
      ],
      [
        "有",
        -7.731071935155665
      ],
      [
        "ヤ",
        -7.7321630116139275
      ],
      [
        "直",
        -7.732860480917159
      ],
      [
        "g",
        -7.734747827801204
      ],
      [
        "教",
        -7.73496827313428
      ],
      [
        "コン",
        -7.735366681022727
      ],
      [
        "団",
        -7.7355142158058765
      ],
      [
        "放送",
        -7.737340825599627
      ],
      [
        "昭和",
        -7.738092579936941
      ],
      [
        "だ",
        -7.739943625191216
      ],
      [
        "二",
        -7.743163540647453
      ],
      [
        "信",
        -7.743243584980798
      ],
      [
        "木",
        -7.74366508941881
      ],
      [
        "約",
        -7.747167270882368
      ],
      [
        "場合",
        -7.752081378613013
      ],
      [
        "時代",
        -7.757984636770036
      ],
      [
        "作品",
        -7.758907610857049
      ],
      [
        "種",
        -7.76163724009357
      ],
      [
        "後に",
        -7.763607791653843
      ],
      [
        "型",
        -7.763734320498326
      ],
      [
        "er",
        -7.765328563281704
      ],
      [
        "民",
        -7.7749956235108115
      ],
      [
        "集",
        -7.775937590404487
      ],
      [
        "多",
        -7.779339941121551
      ],
      [
        "において",
        -7.7839497449542066
      ],
      [
        "アメリカ",
        -7.784586037119627
      ],
      [
        "とも",
        -7.792864473678339
      ],
      [
        "活動",
        -7.797187125982891
      ],
      [
        "和",
        -7.797364071972838
      ],
      [
        "16",
        -7.797560397826784
      ],
      [
        "ソ",
        -7.7978861460304785
      ],
      [
        "ゴ",
        -7.800365977618631
      ],
      [
        "ベ",
        -7.801488158673765
      ],
      [
        "概要",
        -7.80315420491292
      ],
      [
        "30",
        -7.8109424348128424
      ],
      [
        "官",
        -7.811971616995484
      ],
      [
        "月に",
        -7.814241076628511
      ],
      [
        "っている",
        -7.816778497292676
      ],
      [
        "われ",
        -7.81753427189836
      ],
      [
        "などの",
        -7.818366790058759
      ],
      [
        "業",
        -7.8187388925425605
      ],
      [
        "ピ",
        -7.823595079034103
      ],
      [
        "曲",
        -7.823661752793861
      ],
      [
        "相",
        -7.824281039075119
      ],
      [
        "げ",
        -7.824617521182981
      ],
      [
        "取",
        -7.827956034986972
      ],
      [
        "すること",
        -7.82966699416502
      ],
      [
        "れた",
        -7.83299443918461
      ],
      [
        "続",
        -7.833738751738393
      ],
      [
        "使",
        -7.834285817401417
      ],
      [
        ":",
        -7.837131826350445
      ],
      [
        "アル",
        -7.840486838091289
      ],
      [
        "リア",
        -7.841057228398103
      ],
      [
        "先",
        -7.84787919657539
      ],
      [
        "各",
        -7.849845314834294
      ],
      [
        "馬",
        -7.855853194239343
      ],
      [
        "自",
        -7.857518398513559
      ],
      [
        "様",
        -7.8589598882935015
      ],
      [
        "記",
        -7.862286756158078
      ],
      [
        "任",
        -7.86244163386452
      ],
      [
        "院",
        -7.8657487838319025
      ],
      [
        "別",
        -7.867767000223564
      ],
      [
        "々",
        -7.869686592237375
      ],
      [
        "開",
        -7.872718685737729
      ],
      [
        "00",
        -7.872926498082196
      ],
      [
        "系",
        -7.873169513438777
      ],
      [
        "半",
        -7.877483214486256
      ],
      [
        "再",
        -7.878186734521014
      ],
      [
        "フィ",
        -7.8799222598280405
      ],
      [
        "隊",
        -7.883995664690197
      ],
      [
        "保",
        -7.884022756715499
      ],
      [
        "電",
        -7.8850234586401395
      ],
      [
        "/",
        -7.8877785775957
      ],
      [
        "権",
        -7.888838856388142
      ],
      [
        "東京",
        -7.891722350573653
      ],
      [
        "達",
        -7.8924668894532015
      ],
      [
        ",",
        -7.8936389068261406
      ],
      [
        "e ",
        -7.895279933502097
      ],
      [
        "ギ",
        -7.895786704176418
      ],
      [
        "安",
        -7.897761060447534
      ],
      [
        "両",
        -7.899385014559467
      ],
      [
        "口",
        -7.901381414843138
      ],
      [
        "プロ",
        -7.907152228547961
      ],
      [
        "命",
        -7.908064457385382
      ],
      [
        "局",
        -7.909136440741138
      ],
      [
        "y",
        -7.909625654797907
      ],
      [
        "リン",
        -7.909888436874773
      ],
      [
        "船",
        -7.914415861875828
      ],
      [
        "郡",
        -7.916220988925415
      ],
      [
        "映画",
        -7.918140595444138
      ],
      [
        "制",
        -7.922941276595308
      ],
      [
        "レン",
        -7.923543735530153
      ],
      [
        "ダー",
        -7.926088297724101
      ],
      [
        "f",
        -7.926419433347725
      ],
      [
        "14",
        -7.9282061640345685
      ],
      [
        "l",
        -7.929463616590397
      ],
      [
        "使用",
        -7.930005444981505
      ],
      [
        "特",
        -7.931546784979805
      ],
      [
        "産",
        -7.934101640731948
      ],
      [
        "撃",
        -7.935846855135962
      ],
      [
        "年には",
        -7.944517953302407
      ],
      [
        "となり",
        -7.9457736478047405
      ],
      [
        "等",
        -7.946171169752924
      ],
      [
        ") ",
        -7.947368973963783
      ],
      [
        "r",
        -7.949116228045721
      ],
      [
        "よう",
        -7.949184705505715
      ],
      [
        "連",
        -7.950192963549126
      ],
      [
        "歌",
        -7.953023763840585
      ],
      [
        "意",
        -7.954516004994833
      ],
      [
        "宮",
        -7.95552762711587
      ],
      [
        "サン",
        -7.95560513179421
      ],
      [
        "研究",
        -7.966409689586346
      ],
      [
        "む",
        -7.966802423261379
      ],
      [
        "総",
        -7.9673775527817
      ],
      [
        "話",
        -7.9676253439608775
      ],
      [
        "量",
        -7.967935344881818
      ],
      [
        "との",
        -7.969578802316013
      ],
      [
        "ること",
        -7.969859613718128
      ],
      [
        "空",
        -7.970457715927301
      ],
      [
        "退",
        -7.970867438292338
      ],
      [
        "死",
        -7.9714973972717775
      ],
      [
        "広",
        -7.977629624209175
      ],
      [
        "ヘ",
        -7.978184884419257
      ],
      [
        "同年",
        -7.978632280501207
      ],
      [
        "義",
        -7.979026336394178
      ],
      [
        "ザ",
        -7.979825567212883
      ],
      [
        "年の",
        -7.982230255105515
      ],
      [
        "ヴィ",
        -7.982862276283754
      ],
      [
        "武",
        -7.982881293528363
      ],
      [
        "色",
        -7.982917901392552
      ],
      [
        "土",
        -7.983991299219346
      ],
      [
        "党",
        -7.984494344802529
      ],
      [
        "頭",
        -7.9855332690806495
      ],
      [
        "13",
        -7.985596416095007
      ],
      [
        "得",
        -7.985772071584609
      ],
      [
        "ar",
        -7.992336417319814
      ],
      [
        "たち",
        -7.999501024489268
      ],
      [
        "対",
        -8.007240546770062
      ],
      [
        "台",
        -8.007493172003183
      ],
      [
        "番組",
        -8.008350332624014
      ],
      [
        "シュ",
        -8.010189915113227
      ],
      [
        "代表",
        -8.014451425536263
      ],
      [
        "勝",
        -8.014520692921348
      ],
      [
        "兵",
        -8.015672970395668
      ],
      [
        "番",
        -8.017788970916486
      ],
      [
        "になった",
        -8.017847400987373
      ],
      [
        "賞",
        -8.01801089102262
      ],
      [
        "人の",
        -8.01820486619792
      ],
      [
        "パー",
        -8.018408035260688
      ],
      [
        "んだ",
        -8.019171957072723
      ],
      [
        "館",
        -8.02558809911316
      ],
      [
        "士",
        -8.031658931772341
      ],
      [
        "加",
        -8.034547039159104
      ],
      [
        "なく",
        -8.03523549935083
      ],
      [
        "える",
        -8.036471015450934
      ],
      [
        "井",
        -8.039045159032185
      ],
      [
        "変",
        -8.042052207602428
      ],
      [
        "職",
        -8.042735619687269
      ],
      [
        "画",
        -8.04284794777545
      ],
      [
        "られる",
        -8.048126337654077
      ],
      [
        "氏",
        -8.048558831653699
      ],
      [
        "朝",
        -8.052055193910226
      ],
      [
        "政",
        -8.054428940361566
      ],
      [
        "とする",
        -8.055624012042411
      ],
      [
        "古",
        -8.058289020675815
      ],
      [
        "工",
        -8.058327005856345
      ],
      [
        "ーン",
        -8.059867957510965
      ],
      [
        "び",
        -8.061152612949726
      ],
      [
        "ポ",
        -8.062507752195726
      ],
      [
        "改",
        -8.063738332299561
      ],
      [
        "級",
        -8.066056290482772
      ],
      [
        "or",
        -8.066741415426678
      ],
      [
        "格",
        -8.068169705217137
      ],
      [
        "起",
        -8.072597672176794
      ],
      [
        "科",
        -8.072739641706805
      ],
      [
        "心",
        -8.072866802437526
      ],
      [
        "松",
        -8.072874144895188
      ],
      [
        "および",
        -8.074378084931924
      ],
      [
        "について",
        -8.075163471586837
      ],
      [
        "収",
        -8.076257004477778
      ],
      [
        "結",
        -8.076954688204937
      ],
      [
        "解",
        -8.078175125057145
      ],
      [
        "決",
        -8.079153206577026
      ],
      [
        "ど",
        -8.079537866473354
      ],
      [
        "開発",
        -8.08089573202942
      ],
      [
        "カー",
        -8.081406499431475
      ],
      [
        "チーム",
        -8.08159074969425
      ],
      [
        "派",
        -8.0836242834503
      ],
      [
        "にある",
        -8.090312782152163
      ],
      [
        "向",
        -8.09039454455623
      ],
      [
        "ベル",
        -8.092346419891273
      ],
      [
        "寺",
        -8.095446031673594
      ],
      [
        "選",
        -8.096574308680884
      ],
      [
        "地域",
        -8.098052169063072
      ],
      [
        "存在",
        -8.099646431051784
      ],
      [
        "年代",
        -8.100642806107047
      ],
      [
        "藤",
        -8.100874545665002
      ],
      [
        "橋",
        -8.10693636553697
      ],
      [
        "テレビ",
        -8.1076866139492
      ],
      [
        "ップ",
        -8.10872097541865
      ],
      [
        "\"",
        -8.11537732233761
      ],
      [
        "表",
        -8.116870669051064
      ],
      [
        "ュ",
        -8.11699360825855
      ],
      [
        "白",
        -8.120901345116318
      ],
      [
        "in",
        -8.122479034025265
      ],
      [
        "ワ",
        -8.128183373984008
      ],
      [
        "さらに",
        -8.128797755157299
      ],
      [
        "歳",
        -8.13039032909392
      ],
      [
        "身",
        -8.133826268501402
      ],
      [
        "なお",
        -8.135911607836164
      ],
      [
        "キャ",
        -8.136962097445664
      ],
      [
        "ソン",
        -8.138673472293538
      ],
      [
        "交",
        -8.14063336744865
      ],
      [
        "組",
        -8.140992009001206
      ],
      [
        "ジェ",
        -8.141727957086164
      ],
      [
        "店",
        -8.143187464810564
      ],
      [
        "強",
        -8.14653600548102
      ],
      [
        "現在",
        -8.147082000004243
      ],
      [
        "ション",
        -8.148217836916768
      ],
      [
        "年から",
        -8.148593933700564
      ],
      [
        "における",
        -8.148771622402997
      ],
      [
        "ある",
        -8.151595530047295
      ],
      [
        "光",
        -8.151766614961373
      ],
      [
        "されていた",
        -8.153383818135325
      ],
      [
        "ジャ",
        -8.154307879917262
      ],
      [
        "フェ",
        -8.155986182892434
      ],
      [
        "関係",
        -8.156585898430015
      ],
      [
        "風",
        -8.15728997469807
      ],
      [
        "ことを",
        -8.16231332893417
      ],
      [
        "- ",
        -8.162716524940947
      ],
      [
        "以降",
        -8.163553126228978
      ],
      [
        "に入",
        -8.163952120390208
      ],
      [
        "学校",
        -8.163990782830737
      ],
      [
        "できる",
        -8.166540397251373
      ],
      [
        "スター",
        -8.16789885055263
      ],
      [
        "ドイツ",
        -8.168107186277005
      ],
      [
        "伝",
        -8.169242820380067
      ],
      [
        "付",
        -8.170436302843527
      ],
      [
        "屋",
        -8.170648818562876
      ],
      [
        "十",
        -8.17338986294131
      ],
      [
        "試合",
        -8.173649791085552
      ],
      [
        "とは",
        -8.174939670545653
      ],
      [
        "歴史",
        -8.175715318925413
      ],
      [
        "参加",
        -8.176575850108994
      ],
      [
        "an",
        -8.17739625695802
      ],
      [
        "ホ",
        -8.179354765739419
      ],
      [
        "女",
        -8.17937531376008
      ],
      [
        "論",
        -8.179445016031888
      ],
      [
        "装",
        -8.179590538209547
      ],
      [
        "もある",
        -8.18015626529019
      ],
      [
        "マー",
        -8.180234257825116
      ],
      [
        "称",
        -8.18283499487307
      ],
      [
        "ッド",
        -8.183538534138778
      ],
      [
        "修",
        -8.187350522546723
      ],
      [
        "on",
        -8.188238209728741
      ],
      [
        "関",
        -8.189237614135584
      ],
      [
        "版",
        -8.189285142917539
      ],
      [
        "!",
        -8.189285821867962
      ],
      [
        "音",
        -8.192033569582101
      ],
      [
        "ニー",
        -8.19328960175514
      ],
      [
        "いて",
        -8.193923619037845
      ],
      [
        "大会",
        -8.196939747164889
      ],
      [
        "めた",
        -8.200211566769097
      ],
      [
        "ぶ",
        -8.200351180491959
      ],
      [
        "=",
        -8.201044063303879
      ],
      [
        "っていた",
        -8.201060240389555
      ],
      [
        "en",
        -8.201098492670521
      ],
      [
        "食",
        -8.201898002447955
      ],
      [
        "以",
        -8.202804797319189
      ],
      [
        "リーグ",
        -8.203206530623557
      ],
      [
        "トン",
        -8.20328937586355
      ],
      [
        "シーズン",
        -8.20456877894364
      ],
      [
        "乗",
        -8.204735001047199
      ],
      [
        "親",
        -8.20525207205748
      ],
      [
        "路",
        -8.205421932439387
      ],
      [
        "25",
        -8.206636569070817
      ],
      [
        "転",
        -8.206824322107389
      ],
      [
        "他",
        -8.20767344354614
      ],
      [
        "そ",
        -8.209982430500915
      ],
      [
        "反",
        -8.210373666459274
      ],
      [
        "品",
        -8.213268805394108
      ],
      [
        "急",
        -8.213359017414653
      ],
      [
        ", ",
        -8.215080996543167
      ],
      [
        "在",
        -8.219033666828212
      ],
      [
        "ナー",
        -8.219340937121393
      ],
      [
        "時間",
        -8.220274777034417
      ],
      [
        "万",
        -8.222742558910193
      ],
      [
        "ぐ",
        -8.223695708538989
      ],
      [
        "愛",
        -8.224569749198494
      ],
      [
        "アー",
        -8.225478713688853
      ],
      [
        "鉄道",
        -8.226253438839517
      ],
      [
        "明治",
        -8.226275326842371
      ],
      [
        "例",
        -8.226358855809288
      ],
      [
        "父",
        -8.22722069153738
      ],
      [
        "助",
        -8.22843403483242
      ],
      [
        "残",
        -8.230529143216335
      ],
      [
        ")\n",
        -8.2322241369253
      ],
      [
        "終",
        -8.233601702100174
      ],
      [
        "艦",
        -8.234630934624727
      ],
      [
        "しい",
        -8.23864758601537
      ],
      [
        "感",
        -8.23981602160689
      ],
      [
        "フランス",
        -8.240939448137171
      ],
      [
        "米",
        -8.241688653209573
      ],
      [
        "河",
        -8.241799810738003
      ],
      [
        "末",
        -8.242181149001576
      ],
      [
        "50",
        -8.243494868464234
      ],
      [
        "オー",
        -8.243726156339687
      ],
      [
        "楽",
        -8.245604495653891
      ],
      [
        "モン",
        -8.246490867582501
      ],
      [
        "議",
        -8.247524343537158
      ],
      [
        "のみ",
        -8.2514983418224
      ],
      [
        "移",
        -8.253760104218072
      ],
      [
        "室",
        -8.255572117150756
      ],
      [
        "落",
        -8.25646154689032
      ],
      [
        "旧",
        -8.259558324038888
      ],
      [
        "置",
        -8.261825000486557
      ],
      [
        "調",
        -8.265733232423758
      ],
      [
        "当時",
        -8.266775283452139
      ],
      [
        "佐",
        -8.268589894187274
      ],
      [
        "放",
        -8.270363104914862
      ],
      [
        "従",
        -8.274105451823845
      ],
      [
        "める",
        -8.274297860805452
      ],
      [
        "ね",
        -8.274768764988353
      ],
      [
        "司",
        -8.275844695146494
      ],
      [
        "渡",
        -8.278049640199312
      ],
      [
        "谷",
        -8.282763631542258
      ],
      [
        "シー",
        -8.282972072807373
      ],
      [
        "ように",
        -8.284354762846375
      ],
      [
        "問題",
        -8.285078525370551
      ],
      [
        "領",
        -8.286214973482402
      ],
      [
        "平成",
        -8.287207398430885
      ],
      [
        "編",
        -8.287686131520111
      ],
      [
        "ブル",
        -8.288165327077378
      ],
      [
        "利用",
        -8.290396243016142
      ],
      [
        "今",
        -8.290564358955217
      ],
      [
        "男",
        -8.291670744355109
      ],
      [
        "岡",
        -8.29264335227667
      ],
      [
        "質",
        -8.293591740913266
      ],
      [
        "、『",
        -8.296117248997787
      ],
      [
        "敗",
        -8.297295101588077
      ],
      [
        "経",
        -8.298307557894299
      ],
      [
        "ながら",
        -8.30120017380692
      ],
      [
        "えた",
        -8.303807829785002
      ],
      [
        "となっている",
        -8.304404389742228
      ],
      [
        "かれ",
        -8.305037921234687
      ],
      [
        "音楽",
        -8.309692004104345
      ],
      [
        "カル",
        -8.310860140663639
      ],
      [
        "社会",
        -8.31149419461746
      ],
      [
        "良",
        -8.311771419584732
      ],
      [
        "すると",
        -8.314506128118623
      ],
      [
        "開催",
        -8.315607827855619
      ],
      [
        "視",
        -8.316921032708287
      ],
      [
        "美",
        -8.31893571957833
      ],
      [
        "会社",
        -8.319436926720496
      ],
      [
        "国際",
        -8.320614299485957
      ],
      [
        "省",
        -8.320755906404733
      ],
      [
        "住",
        -8.321204652407273
      ],
      [
        "世紀",
        -8.322220088489471
      ],
      [
        "登場",
        -8.322458535543152
      ],
      [
        "常",
        -8.322464114744976
      ],
      [
        "際",
        -8.32286890379547
      ],
      [
        "ひ",
        -8.324993912618615
      ],
      [
        "ワー",
        -8.325033882300964
      ],
      [
        "ウェ",
        -8.327099060745985
      ],
      [
        "21",
        -8.328645101327416
      ],
      [
        "四",
        -8.330290768966707
      ],
      [
        "エン",
        -8.332680215036554
      ],
      [
        "上げ",
        -8.33447717101445
      ],
      [
        "引き",
        -8.334524780280296
      ],
      [
        "ックス",
        -8.335830008479066
      ],
      [
        "多くの",
        -8.34028520323524
      ],
      [
        "演",
        -8.34126547433875
      ],
      [
        "ゲーム",
        -8.341875452957519
      ],
      [
        "監督",
        -8.342534301547738
      ],
      [
        "戦争",
        -8.34563577604986
      ],
      [
        "付け",
        -8.348065025438663
      ],
      [
        "優勝",
        -8.34953159435172
      ],
      [
        "24",
        -8.350148845729745
      ],
      [
        "説",
        -8.350358945971458
      ],
      [
        "低",
        -8.351559396184273
      ],
      [
        "記録",
        -8.352011364527602
      ],
      [
        "一般",
        -8.352024732321725
      ],
      [
        "ことが",
        -8.354004555087483
      ],
      [
        "イギリス",
        -8.354124905497514
      ],
      [
        "日の",
        -8.354309581415494
      ],
      [
        "取り",
        -8.356476319467404
      ],
      [
        "X",
        -8.356544788055935
      ],
      [
        "略",
        -8.356580423910954
      ],
      [
        "これは",
        -8.358079160636208
      ],
      [
        "ゼ",
        -8.35859014850349
      ],
      [
        "吉",
        -8.358836976002102
      ],
      [
        "走",
        -8.35907734787284
      ],
      [
        "利",
        -8.362716918123885
      ],
      [
        "しており",
        -8.362851650751242
      ],
      [
        "好",
        -8.362997720737011
      ],
      [
        "母",
        -8.363989515503857
      ],
      [
        "異",
        -8.36505845371852
      ],
      [
        "があり",
        -8.366040810415017
      ],
      [
        "料",
        -8.366077703380371
      ],
      [
        "帯",
        -8.36842819229972
      ],
      [
        "ヌ",
        -8.36854539811326
      ],
      [
        "守",
        -8.369374124414406
      ],
      [
        "打",
        -8.369994765798861
      ],
      [
        "チェ",
        -8.370782404999105
      ],
      [
        "人物",
        -8.372764126486574
      ],
      [
        "アイ",
        -8.372985071859402
      ],
      [
        "崎",
        -8.374550254392522
      ],
      [
        "夫",
        -8.375312480674504
      ],
      [
        "シリーズ",
        -8.375554999970433
      ],
      [
        "失",
        -8.37602594015428
      ],
      [
        "族",
        -8.376245024016857
      ],
      [
        "鉄",
        -8.376688925331731
      ],
      [
        "類",
        -8.379936680834268
      ],
      [
        "ビー",
        -8.380194623905023
      ],
      [
        "真",
        -8.380375973785856
      ],
      [
        "配",
        -8.380941754523294
      ],
      [
        "校",
        -8.381556564329848
      ],
      [
        "ファ",
        -8.381762068033689
      ],
      [
        "建",
        -8.382537730158873
      ],
      [
        "ニア",
        -8.382902726866336
      ],
      [
        "送",
        -8.38641171699261
      ],
      [
        "火",
        -8.386917161422547
      ],
      [
        "率",
        -8.387665226376095
      ],
      [
        "に対して",
        -8.387891906462837
      ],
      [
        "増",
        -8.389195344385373
      ],
      [
        "字",
        -8.390262099933517
      ],
      [
        "英",
        -8.391485379495393
      ],
      [
        "共",
        -8.392948159858626
      ],
      [
        "w",
        -8.39299800144957
      ],
      [
        "れる",
        -8.393396792329558
      ],
      [
        "したが",
        -8.395481232196971
      ],
      [
        "太",
        -8.395883770142069
      ],
      [
        "防",
        -8.396629027650707
      ],
      [
        "』(",
        -8.397636803194365
      ],
      [
        "消",
        -8.397924295071023
      ],
      [
        "中国",
        -8.398866783265147
      ],
      [
        "際に",
        -8.400657052379378
      ],
      [
        "門",
        -8.401087608161296
      ],
      [
        "参",
        -8.402385617452934
      ],
      [
        "差",
        -8.403725758445105
      ],
      [
        "殺",
        -8.405300184378422
      ],
      [
        "計画",
        -8.40652161987813
      ],
      [
        "40",
        -8.40671127924845
      ],
      [
        "切",
        -8.408200967570236
      ],
      [
        "開始",
        -8.410901165952735
      ],
      [
        "示",
        -8.412825897620438
      ],
      [
        "者の",
        -8.412887617803479
      ],
      [
        "優",
        -8.415819170117288
      ],
      [
        "造",
        -8.416884564555039
      ],
      [
        "源",
        -8.422105077035228
      ],
      [
        "教育",
        -8.42380303352093
      ],
      [
        "22",
        -8.424112435001517
      ],
      [
        "23",
        -8.427134772242722
      ],
      [
        "を受け",
        -8.43137938220251
      ],
      [
        "だけ",
        -8.431689711463605
      ],
      [
        "いる",
        -8.432180422574667
      ],
      [
        "政府",
        -8.432450962707547
      ],
      [
        "ルー",
        -8.433628324306111
      ],
      [
        "千",
        -8.434577241311638
      ],
      [
        "福",
        -8.43519407730829
      ],
      [
        "th",
        -8.435395967991886
      ],
      [
        "そして",
        -8.43577352525145
      ],
      [
        "断",
        -8.436545904210389
      ],
      [
        "図",
        -8.436669332825277
      ],
      [
        "観",
        -8.43930578733529
      ],
      [
        "にて",
        -8.441006928596078
      ],
      [
        "選手",
        -8.442692385995366
      ],
      [
        "ており",
        -8.444856182424928
      ],
      [
        "事業",
        -8.447067474535062
      ],
      [
        "器",
        -8.447677582457894
      ],
      [
        "バス",
        -8.447840966219331
      ],
      [
        "座",
        -8.448643989335553
      ],
      [
        "とした",
        -8.451735529365886
      ],
      [
        "結果",
        -8.452691336555658
      ],
      [
        "興",
        -8.453272918114058
      ],
      [
        "計",
        -8.453323696834433
      ],
      [
        "離",
        -8.454415973292331
      ],
      [
        "とともに",
        -8.454716353026553
      ],
      [
        "ング",
        -8.455081549404504
      ],
      [
        "文化",
        -8.45579895304291
      ],
      [
        "ランド",
        -8.456154038147897
      ],
      [
        "出場",
        -8.456766324144548
      ],
      [
        "日本の",
        -8.458262047766034
      ],
      [
        "後の",
        -8.459898127883934
      ],
      [
        "応",
        -8.460658480972688
      ],
      [
        "を見",
        -8.463798332719913
      ],
      [
        "支",
        -8.464914610548961
      ],
      [
        "事件",
        -8.465119305223528
      ],
      [
        "ヴァ",
        -8.465266112198007
      ],
      [
        "素",
        -8.465830415756777
      ],
      [
        "ドル",
        -8.467132761643377
      ],
      [
        "サー",
        -8.467227819118477
      ],
      [
        "なる",
        -8.467915964529006
      ],
      [
        "花",
        -8.471814803376681
      ],
      [
        "始",
        -8.472464918154172
      ],
      [
        "中に",
        -8.473191121379308
      ],
      [
        "接",
        -8.473342407440288
      ],
      [
        "星",
        -8.476539756096292
      ],
      [
        "波",
        -8.4767254939756
      ],
      [
        "になる",
        -8.477312233814391
      ],
      [
        "陸",
        -8.477561419454545
      ],
      [
        "描",
        -8.480086655632647
      ],
      [
        "基",
        -8.481619575537259
      ],
      [
        "製",
        -8.4826595822845
      ],
      [
        "ロン",
        -8.484427107620895
      ],
      [
        "オン",
        -8.485181816029876
      ],
      [
        "28",
        -8.486814330912145
      ],
      [
        "建設",
        -8.488837751086502
      ],
      [
        "将",
        -8.489873813476516
      ],
      [
        "界",
        -8.491096063378523
      ],
      [
        "地方",
        -8.491411589159064
      ],
      [
        "グラ",
        -8.491970703102126
      ],
      [
        "青",
        -8.49277728426805
      ],
      [
        "師",
        -8.49441156886929
      ],
      [
        "頃",
        -8.495148646242093
      ],
      [
        "津",
        -8.495824212348788
      ],
      [
        "ハー",
        -8.497297603497081
      ],
      [
        "少",
        -8.49734261285604
      ],
      [
        "26",
        -8.497989798767664
      ],
      [
        "都市",
        -8.499689186870894
      ],
      [
        "経済",
        -8.500065056041253
      ],
      [
        "」(",
        -8.50304306462139
      ],
      [
        "域",
        -8.503139911197282
      ],
      [
        "2009",
        -8.504029087588183
      ],
      [
        "レイ",
        -8.504103746516968
      ],
      [
        "2008",
        -8.506436463948551
      ],
      [
        "ic",
        -8.507306645248233
      ],
      [
        "27",
        -8.507867869131738
      ],
      [
        "よ",
        -8.508813993654206
      ],
      [
        "エル",
        -8.509001623621769
      ],
      [
        "満",
        -8.509153207308213
      ],
      [
        "ご",
        -8.510234533748564
      ],
      [
        "させ",
        -8.510791781872687
      ],
      [
        "ほか",
        -8.51097068084897
      ],
      [
        "シャ",
        -8.5154486790132
      ],
      [
        "発表",
        -8.51599301850105
      ],
      [
        "2007",
        -8.516276311654112
      ],
      [
        "持",
        -8.516659962804042
      ],
      [
        "2011",
        -8.517521405714609
      ],
      [
        "シン",
        -8.518190922961946
      ],
      [
        "根",
        -8.51824365776078
      ],
      [
        "つの",
        -8.519806832068433
      ],
      [
        "サイ",
        -8.520514069752243
      ],
      [
        "ろ",
        -8.521843427834225
      ],
      [
        "主義",
        -8.522986960633014
      ],
      [
        "久",
        -8.525010699634757
      ],
      [
        "五",
        -8.525137229192758
      ],
      [
        "ッチ",
        -8.525179736153962
      ],
      [
        "砲",
        -8.525305960177967
      ],
      [
        "聖",
        -8.52626615946669
      ],
      [
        "es",
        -8.526703080659825
      ],
      [
        "べ",
        -8.526786515388542
      ],
      [
        "破",
        -8.527107301187904
      ],
      [
        "問",
        -8.52747651791604
      ],
      [
        "ボー",
        -8.528991609917227
      ],
      [
        "ると",
        -8.529010705321777
      ],
      [
        "%",
        -8.530564352614418
      ],
      [
        "かった",
        -8.53370229544015
      ],
      [
        "客",
        -8.533733766175168
      ],
      [
        "著",
        -8.53505618976701
      ],
      [
        "ぎ",
        -8.535405777217015
      ],
      [
        "al",
        -8.535750370540997
      ],
      [
        "コー",
        -8.53745785138935
      ],
      [
        "可能",
        -8.538347272035745
      ],
      [
        "留",
        -8.539646169271496
      ],
      [
        "現在の",
        -8.540198623874911
      ],
      [
        "証",
        -8.541938360226952
      ],
      [
        "要",
        -8.542969379833119
      ],
      [
        "中央",
        -8.543693809600377
      ],
      [
        "題",
        -8.544371077290949
      ],
      [
        "デビュー",
        -8.545483378336867
      ],
      [
        "売",
        -8.545502610918268
      ],
      [
        "材",
        -8.545784746093878
      ],
      [
        "葉",
        -8.54655087251181
      ],
      [
        "何",
        -8.5465816575658
      ],
      [
        "変更",
        -8.54798603625193
      ],
      [
        "バイ",
        -8.548074642279072
      ],
      [
        "過",
        -8.549356951744592
      ],
      [
        "入れ",
        -8.55001912805831
      ],
      [
        "年間",
        -8.551080598066239
      ],
      [
        "ゲ",
        -8.551371170249983
      ],
      [
        "条",
        -8.551459043900136
      ],
      [
        "Y",
        -8.551958630238602
      ],
      [
        "st",
        -8.55240664535539
      ],
      [
        "出身",
        -8.552743857023728
      ],
      [
        "育",
        -8.55431066720704
      ],
      [
        "v",
        -8.554779957052741
      ],
      [
        "声",
        -8.555215972344707
      ],
      [
        "史",
        -8.555355004496041
      ],
      [
        "アルバム",
        -8.555925113585038
      ],
      [
        "京",
        -8.556164303856017
      ],
      [
        "レス",
        -8.556171035901867
      ],
      [
        "があった",
        -8.556643848520956
      ],
      [
        "積",
        -8.558252320043787
      ],
      [
        "居",
        -8.558306912589549
      ],
      [
        "s ",
        -8.558785127412131
      ],
      [
        "29",
        -8.561475607026438
      ],
      [
        "テン",
        -8.563019250608228
      ],
      [
        "弾",
        -8.565263728711008
      ],
      [
        "担当",
        -8.565838316547769
      ],
      [
        "ガー",
        -8.567454676419116
      ],
      [
        "創",
        -8.567944133154713
      ],
      [
        "園",
        -8.569786481491498
      ],
      [
        "ケー",
        -8.570477813406864
      ],
      [
        "街",
        -8.572667293527774
      ],
      [
        "機関",
        -8.574441760088028
      ],
      [
        "藩",
        -8.578067138111711
      ],
      [
        "単",
        -8.578384583746478
      ],
      [
        "教授",
        -8.579802669563211
      ],
      [
        "挙",
        -8.580092800277823
      ],
      [
        "入り",
        -8.581034267738996
      ],
      [
        "re",
        -8.581534426981584
      ],
      [
        "他の",
        -8.582388222040642
      ],
      [
        "カン",
        -8.58414519469559
      ],
      [
        "圧",
        -8.584200792523992
      ],
      [
        "黒",
        -8.585555260235024
      ],
      [
        "と共に",
        -8.586948181445385
      ],
      [
        "清",
        -8.587495005424822
      ],
      [
        "思",
        -8.589989282144492
      ],
      [
        "契約",
        -8.591292353530458
      ],
      [
        "られている",
        -8.59161679756826
      ],
      [
        "八",
        -8.596185811407974
      ],
      [
        "特に",
        -8.596599706484017
      ],
      [
        "2006",
        -8.596800211393724
      ],
      [
        "継",
        -8.59682853430601
      ],
      [
        "スク",
        -8.597086298418773
      ],
      [
        "悪",
        -8.599292654057804
      ],
      [
        "リング",
        -8.601795364950975
      ],
      [
        "状",
        -8.602490582098023
      ],
      [
        "ほど",
        -8.602578512025445
      ],
      [
        "商",
        -8.603336272355966
      ],
      [
        "km",
        -8.60393526076298
      ],
      [
        "の一",
        -8.605483752446558
      ],
      [
        "んで",
        -8.60570433089699
      ],
      [
        "治",
        -8.605738693460397
      ],
      [
        "深",
        -8.60751437777552
      ],
      [
        "マイ",
        -8.607956511190492
      ],
      [
        "出演",
        -8.609835203288075
      ],
      [
        "ヴェ",
        -8.610920977828673
      ],
      [
        "赤",
        -8.611150703705826
      ],
      [
        "攻撃",
        -8.611204449395526
      ],
      [
        "タイ",
        -8.611541787500583
      ],
      [
        "除",
        -8.6118249769614
      ],
      [
        "翌",
        -8.613183576514126
      ],
      [
        "モー",
        -8.613616229625547
      ],
      [
        "とき",
        -8.615805047065207
      ],
      [
        "端",
        -8.619679515445242
      ],
      [
        "左",
        -8.620143211654876
      ],
      [
        "ハイ",
        -8.62144319785518
      ],
      [
        "だが",
        -8.621627627364502
      ],
      [
        "it",
        -8.621664613475208
      ],
      [
        "ことから",
        -8.624317796094578
      ],
      [
        "属",
        -8.625818265857458
      ],
      [
        "情報",
        -8.627231622526041
      ],
      [
        "難",
        -8.628045016465693
      ],
      [
        "越",
        -8.628410297824836
      ],
      [
        "バル",
        -8.628564325893798
      ],
      [
        "これ",
        -8.632816630373743
      ],
      [
        "政治",
        -8.632910884576024
      ],
      [
        "管",
        -8.634043928873812
      ],
      [
        "からの",
        -8.634123416661552
      ],
      [
        "」「",
        -8.634492236050482
      ],
      [
        "プラ",
        -8.635493856833408
      ],
      [
        "去",
        -8.635705663342607
      ],
      [
        "ようになった",
        -8.638438438235056
      ],
      [
        "洋",
        -8.638693097887574
      ],
      [
        "選挙",
        -8.639603350437872
      ],
      [
        "席",
        -8.6400055850558
      ],
      [
        "御",
        -8.640086213098549
      ],
      [
        "ハン",
        -8.640765586357011
      ],
      [
        "所属",
        -8.642094921993104
      ],
      [
        "若",
        -8.64352479621443
      ],
      [
        "林",
        -8.64416598552378
      ],
      [
        "トル",
        -8.644583104014979
      ],
      [
        "多く",
        -8.646276213416154
      ],
      [
        "春",
        -8.647294705658643
      ],
      [
        "させる",
        -8.648379526227492
      ],
      [
        "複",
        -8.649871642321253
      ],
      [
        "薬",
        -8.651078881118622
      ],
      [
        "前に",
        -8.651244377015345
      ],
      [
        "遺",
        -8.652055382717927
      ],
      [
        "徳",
        -8.653449784788696
      ],
      [
        "le",
        -8.655323782215605
      ],
      [
        "ノー",
        -8.65545411572536
      ],
      [
        "ウン",
        -8.65556544988116
      ],
      [
        "永",
        -8.65605467192273
      ],
      [
        "運",
        -8.656421599065766
      ],
      [
        "尾",
        -8.656968589385034
      ],
      [
        "求",
        -8.657592066901529
      ],
      [
        "周",
        -8.657741893435936
      ],
      [
        "部分",
        -8.659583041267148
      ],
      [
        "与",
        -8.66339292635987
      ],
      [
        "ch",
        -8.663986967702767
      ],
      [
        "場所",
        -8.664224074811566
      ],
      [
        "ユ",
        -8.665148200983996
      ],
      [
        "郎",
        -8.66522033979242
      ],
      [
        "足",
        -8.666108994712564
      ],
      [
        "右",
        -8.666542583559751
      ],
      [
        "ウィ",
        -8.666790775095166
      ],
      [
        "ザー",
        -8.667269107404188
      ],
      [
        "中心",
        -8.667394313487126
      ],
      [
        "クロ",
        -8.667434775531044
      ],
      [
        "争",
        -8.667444572274476
      ],
      [
        "章",
        -8.668244561958756
      ],
      [
        "極",
        -8.66828096151446
      ],
      [
        "戦で",
        -8.668807015346605
      ],
      [
        "ために",
        -8.670100129772553
      ],
      [
        "勢",
        -8.670376704978514
      ],
      [
        "速",
        -8.670491729832477
      ],
      [
        "を行う",
        -8.670892266601246
      ],
      [
        "マル",
        -8.67134929129983
      ],
      [
        "デン",
        -8.67137495490116
      ],
      [
        "養",
        -8.671632763787503
      ],
      [
        "女性",
        -8.673146423475307
      ],
      [
        "at",
        -8.673488017641201
      ],
      [
        "独",
        -8.674086486610241
      ],
      [
        "技術",
        -8.674449523523714
      ],
      [
        "蔵",
        -8.677522336340049
      ],
      [
        "を持つ",
        -8.67832624081672
      ],
      [
        "比",
        -8.679697016970605
      ],
      [
        "短",
        -8.682471348330921
      ],
      [
        "及び",
        -8.6839004805435
      ],
      [
        "ブラ",
        -8.685309061677387
      ],
      [
        "返",
        -8.687246546216425
      ],
      [
        "未",
        -8.687730285155673
      ],
      [
        "ジュ",
        -8.689425940322678
      ],
      [
        "まり",
        -8.690052194533479
      ],
      [
        "タン",
        -8.691450645930034
      ],
      [
        "と呼ばれる",
        -8.691754525726981
      ],
      [
        "個",
        -8.692850100727245
      ],
      [
        "ジョン",
        -8.695136872926144
      ],
      [
        "決定",
        -8.697806923466834
      ],
      [
        "100",
        -8.69807760590808
      ],
      [
        "is",
        -8.699392930867418
      ],
      [
        "x",
        -8.69976230729458
      ],
      [
        "沢",
        -8.70047829777862
      ],
      [
        "発売",
        -8.70110639101338
      ],
      [
        "必要",
        -8.701896104513494
      ],
      [
        "システム",
        -8.70281946786678
      ],
      [
        "球",
        -8.704350580903798
      ],
      [
        "夜",
        -8.709871179566893
      ],
      [
        "巻",
        -8.710937230394086
      ],
      [
        "まった",
        -8.711224238144549
      ],
      [
        "戻",
        -8.713034573258444
      ],
      [
        "甲",
        -8.713378194006333
      ],
      [
        "発生",
        -8.714180715332512
      ],
      [
        "限",
        -8.714449335852288
      ],
      [
        "評",
        -8.7160673667071
      ],
      [
        "ところ",
        -8.718183796033637
      ],
      [
        "資",
        -8.718188855886002
      ],
      [
        "高校",
        -8.719476023253508
      ],
      [
        "ヨ",
        -8.72006083494325
      ],
      [
        "降",
        -8.720758057284808
      ],
      [
        "31",
        -8.721010852271283
      ],
      [
        "堂",
        -8.72250816683001
      ],
      [
        "クス",
        -8.722664287092837
      ],
      [
        "の中で",
        -8.72272798761361
      ],
      [
        "祭",
        -8.724810181787252
      ],
      [
        "に対する",
        -8.724975270759469
      ],
      [
        "ピー",
        -8.725259188748522
      ],
      [
        "盤",
        -8.725312441968573
      ],
      [
        "ウス",
        -8.728174033110552
      ],
      [
        "それぞれ",
        -8.729275042320307
      ],
      [
        "江",
        -8.730138425909319
      ],
      [
        "味",
        -8.730632397392734
      ],
      [
        "かけ",
        -8.730733749081416
      ],
      [
        "グループ",
        -8.731145735324512
      ],
      [
        "認",
        -8.731839728355066
      ],
      [
        "販売",
        -8.7328029643535
      ],
      [
        "しく",
        -8.732866077463598
      ],
      [
        "地区",
        -8.732979360214218
      ],
      [
        "投",
        -8.733066863723645
      ],
      [
        "つけ",
        -8.733631718761362
      ],
      [
        "調査",
        -8.735500116566985
      ],
      [
        "予",
        -8.736061348568725
      ],
      [
        "クリ",
        -8.736390084806205
      ],
      [
        "としては",
        -8.737039263185213
      ],
      [
        "2010",
        -8.737156354644998
      ],
      [
        "劇",
        -8.73856665501421
      ],
      [
        "非",
        -8.73920693025054
      ],
      [
        "2005",
        -8.740424203857035
      ],
      [
        "ro",
        -8.740610601788989
      ],
      [
        "都",
        -8.741012187131954
      ],
      [
        "ではない",
        -8.742635198027903
      ],
      [
        "病",
        -8.74285244337379
      ],
      [
        "細",
        -8.744620832455336
      ],
      [
        "森",
        -8.744705901347503
      ],
      [
        "年まで",
        -8.744794121946791
      ],
      [
        "状態",
        -8.746056814530998
      ],
      [
        "卒業",
        -8.748215544608545
      ],
      [
        "戸",
        -8.748293818596595
      ],
      [
        "移籍",
        -8.748469277252097
      ],
      [
        "チャ",
        -8.748960645562377
      ],
      [
        "志",
        -8.751294538739826
      ],
      [
        "フォー",
        -8.75215450280743
      ],
      [
        "2000",
        -8.753317117374625
      ],
      [
        "2017",
        -8.753529375917445
      ],
      [
        "ではなく",
        -8.754312536694119
      ],
      [
        "宗",
        -8.75446300043387
      ],
      [
        "由",
        -8.754661680355078
      ],
      [
        "容",
        -8.758544510141244
      ],
      [
        "のうち",
        -8.758985354899554
      ],
      [
        "ニュー",
        -8.75977532851565
      ],
      [
        "構造",
        -8.759817398211078
      ],
      [
        "伊",
        -8.760392425759628
      ],
      [
        ": ",
        -8.761229931870856
      ],
      [
        "群",
        -8.761326379025956
      ],
      [
        "生活",
        -8.762089529814167
      ],
      [
        "岩",
        -8.762274968237731
      ],
      [
        "突",
        -8.763485314732526
      ],
      [
        "採用",
        -8.765637735884926
      ],
      [
        "60",
        -8.765926015074786
      ],
      [
        "スタン",
        -8.765968739134399
      ],
      [
        "段",
        -8.766147746870516
      ],
      [
        "選手権",
        -8.76657043382485
      ],
      [
        "令",
        -8.76849170541239
      ],
      [
        "角",
        -8.768630964452841
      ],
      [
        "円",
        -8.768841103580835
      ],
      [
        "告",
        -8.76892270682679
      ],
      [
        "されて",
        -8.770462184743808
      ],
      [
        "秀",
        -8.771621771976708
      ],
      [
        "設置",
        -8.772937576838826
      ],
      [
        "私",
        -8.773161075138464
      ],
      [
        "紙",
        -8.773701743552937
      ],
      [
        "終了",
        -8.77488567552981
      ],
      [
        "推",
        -8.775505666339937
      ],
      [
        "時に",
        -8.776405503242268
      ],
      [
        "ロシア",
        -8.776588730140784
      ],
      [
        "帝国",
        -8.777643444571838
      ],
      [
        "議会",
        -8.777916460431392
      ],
      [
        "呼ばれ",
        -8.779188386812352
      ],
      [
        "設立",
        -8.78139739693833
      ],
      [
        "施設",
        -8.782661089026846
      ],
      [
        "y ",
        -8.78278309250009
      ],
      [
        "豊",
        -8.783402181683797
      ],
      [
        "秋",
        -8.784576956938244
      ],
      [
        "勝利",
        -8.786359117333921
      ],
      [
        "ヴ",
        -8.786395830848518
      ],
      [
        "密",
        -8.786793661115546
      ],
      [
        "帰",
        -8.787830883987143
      ],
      [
        "農",
        -8.78967076114963
      ],
      [
        "に関する",
        -8.791982426095885
      ],
      [
        "制作",
        -8.792033417887357
      ],
      [
        "組織",
        -8.794433016625844
      ],
      [
        "大阪",
        -8.794951746432657
      ],
      [
        "案",
        -8.796789729248486
      ],
      [
        "想",
        -8.798037338829294
      ],
      [
        "丸",
        -8.80036469212728
      ],
      [
        "存",
        -8.800690656267651
      ],
      [
        "初めて",
        -8.800971696357196
      ],
      [
        "バン",
        -8.802133624016212
      ],
      [
        "ガン",
        -8.803139905097067
      ],
      [
        "確",
        -8.803810610622971
      ],
      [
        "費",
        -8.804009381112186
      ],
      [
        "首",
        -8.8041488335916
      ],
      [
        "部隊",
        -8.805425828759308
      ],
      [
        "以上",
        -8.805445038357423
      ],
      [
        "といった",
        -8.805473250036751
      ],
      [
        "補",
        -8.806057455060404
      ],
      [
        "復",
        -8.806091148575216
      ],
      [
        "技",
        -8.807664637418078
      ],
      [
        "航",
        -8.810488966514134
      ],
      [
        "受",
        -8.810495082961603
      ],
      [
        "については",
        -8.810773456934973
      ],
      [
        "チャー",
        -8.812390325002612
      ],
      [
        "換",
        -8.812846037385409
      ],
      [
        "照",
        -8.812954635692154
      ],
      [
        "大きな",
        -8.817161738348114
      ],
      [
        "早",
        -8.820251053694925
      ],
      [
        "海軍",
        -8.821817051065409
      ],
      [
        "生産",
        -8.824058287311798
      ],
      [
        "生まれ",
        -8.824468567886044
      ],
      [
        "させた",
        -8.82730177423845
      ],
      [
        "ri",
        -8.828400312930974
      ],
      [
        "全国",
        -8.829904977266521
      ],
      [
        "ダン",
        -8.830827203098421
      ],
      [
        "〜",
        -8.832980727288886
      ],
      [
        "検",
        -8.834383492307204
      ],
      [
        "獲得",
        -8.834546939390126
      ],
      [
        "彼は",
        -8.834690497908595
      ],
      [
        "害",
        -8.835731719957224
      ],
      [
        "術",
        -8.835852723451168
      ],
      [
        "ra",
        -8.837607538834746
      ],
      [
        "運動",
        -8.83869527606977
      ],
      [
        "ジャー",
        -8.83908198569965
      ],
      [
        "を受けた",
        -8.839231691342855
      ],
      [
        "行われた",
        -8.839725237334488
      ],
      [
        "最も",
        -8.840411476165004
      ],
      [
        "にかけて",
        -8.841185798388063
      ],
      [
        "クラブ",
        -8.84124656525255
      ],
      [
        "ユー",
        -8.841275582869832
      ],
      [
        "成功",
        -8.84147837766463
      ],
      [
        "z",
        -8.841538809157868
      ],
      [
        "製造",
        -8.843753320232112
      ],
      [
        "張",
        -8.844036952002122
      ],
      [
        "雄",
        -8.846717762604472
      ],
      [
        "ダイ",
        -8.846862511817488
      ],
      [
        "を経て",
        -8.847207853353616
      ],
      [
        "報",
        -8.84802427097576
      ],
      [
        "熱",
        -8.8481732715981
      ],
      [
        "脱",
        -8.849441290015779
      ],
      [
        "追",
        -8.850411676875758
      ],
      [
        "ファン",
        -8.850817919615118
      ],
      [
        "射",
        -8.851655826626176
      ],
      [
        "に就任",
        -8.85173539909276
      ],
      [
        "指",
        -8.851929778064184
      ],
      [
        "同じ",
        -8.856189738324696
      ],
      [
        "ただし",
        -8.85686676376421
      ],
      [
        "港",
        -8.85753427839975
      ],
      [
        "高い",
        -8.859234172667746
      ],
      [
        "像",
        -8.859362190310302
      ],
      [
        "2012",
        -8.86124056993374
      ],
      [
        "目的",
        -8.861562540336447
      ],
      [
        "抜",
        -8.863541027913906
      ],
      [
        "あり",
        -8.863676439552089
      ],
      [
        "板",
        -8.864124948408282
      ],
      [
        "ol",
        -8.865538423828392
      ],
      [
        "刑",
        -8.866592678690699
      ],
      [
        "妻",
        -8.87007045196458
      ],
      [
        "評価",
        -8.8701302798462
      ],
      [
        "盛",
        -8.870815136811132
      ],
      [
        "血",
        -8.871545466386156
      ],
      [
        "公開",
        -8.871894893617648
      ],
      [
        "激",
        -8.872470321943391
      ],
      [
        "ッシュ",
        -8.873942700069366
      ],
      [
        "活躍",
        -8.874389416250128
      ],
      [
        "2018",
        -8.874747232466632
      ],
      [
        "メンバー",
        -8.87483983890562
      ],
      [
        "特徴",
        -8.87588115263341
      ],
      [
        "収録",
        -8.876466473496116
      ],
      [
        "節",
        -8.876987534641303
      ],
      [
        "果",
        -8.8770404865056
      ],
      [
        "倉",
        -8.87754237375219
      ],
      [
        "自由",
        -8.87799490438361
      ],
      [
        "フラン",
        -8.880727022814892
      ],
      [
        "影響",
        -8.880899683656965
      ],
      [
        "典",
        -8.881013347305398
      ],
      [
        "ホーム",
        -8.881692387731267
      ],
      [
        "通り",
        -8.882852659154949
      ],
      [
        "委員会",
        -8.884554329788237
      ],
      [
        "一部",
        -8.885604783713061
      ],
      [
        "教会",
        -8.88634735401827
      ],
      [
        "府",
        -8.887806893370923
      ],
      [
        "ビル",
        -8.888695815212008
      ],
      [
        "車両",
        -8.88958633339526
      ],
      [
        "爆",
        -8.890176694781529
      ],
      [
        "独立",
        -8.890784594726249
      ],
      [
        "寄",
        -8.891328776578266
      ],
      [
        "になって",
        -8.891656883761865
      ],
      [
        "2004",
        -8.893026288800746
      ],
      [
        "護",
        -8.894555929518303
      ],
      [
        "かつて",
        -8.895219862918296
      ],
      [
        "シェ",
        -8.895651205922432
      ],
      [
        "歴",
        -8.895804412466559
      ],
      [
        "望",
        -8.897131168161435
      ],
      [
        "財",
        -8.899656251409372
      ],
      [
        "絶",
        -8.899777476750627
      ],
      [
        "跡",
        -8.90004755167292
      ],
      [
        "路線",
        -8.901430717303242
      ],
      [
        "機能",
        -8.901594589649376
      ],
      [
        "国内",
        -8.903089598509668
      ],
      [
        "ものである",
        -8.90316479963173
      ],
      [
        "並",
        -8.903434377841165
      ],
      [
        "宝",
        -8.904050297852617
      ],
      [
        "ような",
        -8.904812481222825
      ],
      [
        "層",
        -8.905437506472282
      ],
      [
        "引",
        -8.906289522647763
      ],
      [
        "情",
        -8.909964999947263
      ],
      [
        "始め",
        -8.90997926711895
      ],
      [
        "列車",
        -8.91298873537683
      ],
      [
        "管理",
        -8.913700859188625
      ],
      [
        "準",
        -8.914396518362546
      ],
      [
        "境",
        -8.915350355008965
      ],
      [
        "時期",
        -8.916146411945155
      ],
      [
        "センター",
        -8.916217264854643
      ],
      [
        "習",
        -8.917133141571478
      ],
      [
        "向け",
        -8.917759873230857
      ],
      [
        "ウル",
        -8.918636073618144
      ],
      [
        "ほとんど",
        -8.919791932872418
      ],
      [
        "ゾ",
        -8.920543275660446
      ],
      [
        "夏",
        -8.92242410973759
      ],
      [
        "乱",
        -8.922434658486859
      ],
      [
        "考",
        -8.922805971354368
      ],
      [
        "自身",
        -8.923071777877958
      ],
      [
        "幅",
        -8.923648551631448
      ],
      [
        "ur",
        -8.924246682262902
      ],
      [
        "最高",
        -8.925455802724134
      ],
      [
        "ふ",
        -8.92588152028341
      ],
      [
        "経歴",
        -8.928952334848763
      ],
      [
        "全て",
        -8.929739256436878
      ],
      [
        "航空",
        -8.933087225450294
      ],
      [
        "セン",
        -8.934276955949947
      ],
      [
        "仕",
        -8.934393412435261
      ],
      [
        "モデル",
        -8.936030623959377
      ],
      [
        "曜",
        -8.93618289627076
      ],
      [
        "副",
        -8.936341966031135
      ],
      [
        "襲",
        -8.937265069953806
      ],
      [
        "2013",
        -8.938473683344597
      ],
      [
        "道路",
        -8.93848335553252
      ],
      [
        "敵",
        -8.938635380639129
      ],
      [
        "絵",
        -8.93935315270553
      ],
      [
        "発見",
        -8.94001189605936
      ],
      [
        "2014",
        -8.940611463825038
      ],
      [
        "ダム",
        -8.941038883741657
      ],
      [
        "議員",
        -8.94120068945338
      ],
      [
        "野球",
        -8.942117560041023
      ],
      [
        "規",
        -8.94311392893174
      ],
      [
        "京都",
        -8.943282921402883
      ],
      [
        "キー",
        -8.943418072272012
      ],
      [
        "されており",
        -8.946215700949253
      ],
      [
        "企業",
        -8.947313921010549
      ],
      [
        "ゆ",
        -8.948795792567784
      ],
      [
        "営",
        -8.94924075127602
      ],
      [
        "休",
        -8.952717632687621
      ],
      [
        "製作",
        -8.954293708796872
      ],
      [
        "ジョ",
        -8.954592660076102
      ],
      [
        "最大",
        -8.954814054665476
      ],
      [
        "再び",
        -8.955181132487587
      ],
      [
        "セル",
        -8.957904452732587
      ],
      [
        "迎",
        -8.958751371706125
      ],
      [
        "一方",
        -8.960951230052512
      ],
      [
        "内容",
        -8.961215263480408
      ],
      [
        "皇",
        -8.963557753006201
      ],
      [
        "横",
        -8.964896214630912
      ],
      [
        "ショ",
        -8.965475954565559
      ],
      [
        "歩",
        -8.96558526034569
      ],
      [
        "戦闘",
        -8.96611386851168
      ],
      [
        "協会",
        -8.966121334741077
      ],
      [
        "服",
        -8.966279535678646
      ],
      [
        "備",
        -8.966533652738578
      ],
      [
        "之",
        -8.966935418561462
      ],
      [
        "シングル",
        -8.968616648071125
      ],
      [
        "us",
        -8.96932281481584
      ],
      [
        "協",
        -8.969787975255585
      ],
      [
        "~",
        -8.970106112855635
      ],
      [
        "攻",
        -8.973003554344707
      ],
      [
        "設計",
        -8.97320896628471
      ],
      [
        "決勝",
        -8.973433580704711
      ],
      [
        "奪",
        -8.973666624648756
      ],
      [
        "彼女",
        -8.9738333980791
      ],
      [
        "賀",
        -8.975286226081078
      ],
      [
        "輪",
        -8.976312238196273
      ],
      [
        "エンジン",
        -8.976319538369998
      ],
      [
        "刊",
        -8.976921157775058
      ],
      [
        "振",
        -8.977091001576692
      ],
      [
        "FC",
        -8.980745748479192
      ],
      [
        "順",
        -8.981641201451993
      ],
      [
        "実施",
        -8.982463841216733
      ],
      [
        "弟",
        -8.982674412580812
      ],
      [
        "然",
        -8.985056658454525
      ],
      [
        "出来",
        -8.986140999917628
      ],
      [
        "減",
        -8.988117607250576
      ],
      [
        "衆",
        -8.99008267877994
      ],
      [
        "築",
        -8.990105636970053
      ],
      [
        "初期",
        -8.991232628858445
      ],
      [
        "70",
        -8.992567143314652
      ],
      [
        "列",
        -8.992905906634272
      ],
      [
        "2015",
        -8.994130622765057
      ],
      [
        "友",
        -8.994452146501386
      ],
      [
        "姿",
        -8.995384472912026
      ],
      [
        "酸",
        -8.997022765401105
      ],
      [
        "飛行",
        -8.997024297770476
      ],
      [
        "述べ",
        -8.998445238889147
      ],
      [
        "記念",
        -8.998591543698673
      ],
      [
        "意味",
        -9.000335337767618
      ],
      [
        "提",
        -9.00034353746362
      ],
      [
        "名称",
        -9.001089051744573
      ],
      [
        "能",
        -9.002718556848913
      ],
      [
        "結婚",
        -9.003364216628462
      ],
      [
        "呼",
        -9.003409227157956
      ],
      [
        "ロック",
        -9.003631790454042
      ],
      [
        "割",
        -9.005186073112116
      ],
      [
        "没",
        -9.009610213340958
      ],
      [
        "坂",
        -9.009712924047783
      ],
      [
        "そう",
        -9.009969182546525
      ],
      [
        "郷",
        -9.010055369281286
      ],
      [
        "らない",
        -9.010098314756169
      ],
      [
        "指揮",
        -9.011614619315184
      ],
      [
        "規模",
        -9.012231674986618
      ],
      [
        "宿",
        -9.012318453698308
      ],
      [
        "通常",
        -9.01373724943745
      ],
      [
        "最初の",
        -9.014015301753398
      ],
      [
        "庁",
        -9.014930789872054
      ],
      [
        "考え",
        -9.01494774654437
      ],
      [
        "遠",
        -9.015016905336198
      ],
      [
        "覚",
        -9.017739780483037
      ],
      [
        "便",
        -9.018395772910843
      ],
      [
        "'",
        -9.019225010491704
      ],
      [
        "構成",
        -9.02002135211044
      ],
      [
        "交通",
        -9.020805597023033
      ],
      [
        "対応",
        -9.022734245747708
      ],
      [
        "会議",
        -9.02286178966667
      ],
      [
        "滅",
        -9.025031623794021
      ],
      [
        "テー",
        -9.026502316588491
      ],
      [
        "彼",
        -9.026547758732063
      ],
      [
        "受け",
        -9.026660251620715
      ],
      [
        "池",
        -9.027398591787618
      ],
      [
        "2003",
        -9.027776819078563
      ],
      [
        "枚",
        -9.027834306453682
      ],
      [
        "経営",
        -9.0278536654784
      ],
      [
        "死去",
        -9.028188400286126
      ],
      [
        "を与え",
        -9.02930628629931
      ],
      [
        "ヨーロッパ",
        -9.029579066589532
      ],
      [
        "引退",
        -9.029585593433659
      ],
      [
        "科学",
        -9.029662918371255
      ],
      [
        "映",
        -9.03240389871657
      ],
      [
        "則",
        -9.033586070562267
      ],
      [
        "連合",
        -9.0343414158012
      ],
      [
        "出版",
        -9.035254670678908
      ],
      [
        "プレ",
        -9.037072027731742
      ],
      [
        "玉",
        -9.037538783752769
      ],
      [
        "キャラクター",
        -9.038278364095158
      ],
      [
        "階",
        -9.041019414715775
      ],
      [
        "アニメ",
        -9.041354042359607
      ],
      [
        "軽",
        -9.04147183878828
      ],
      [
        "兼",
        -9.043045862422908
      ],
      [
        "設",
        -9.045683289831414
      ],
      [
        "舎",
        -9.047711721473844
      ],
      [
        "プレー",
        -9.047970162734662
      ],
      [
        "似",
        -9.048636832063819
      ],
      [
        "捕",
        -9.04915308401189
      ],
      [
        "負",
        -9.049441819853923
      ],
      [
        "搭載",
        -9.050424587773445
      ],
      [
        "頼",
        -9.050525816760404
      ],
      [
        "富",
        -9.051074371095789
      ],
      [
        "活",
        -9.053833004898646
      ],
      [
        "印",
        -9.054151847202188
      ],
      [
        "2016",
        -9.055096593236735
      ],
      [
        "衛",
        -9.056009933080512
      ],
      [
        "ジャン",
        -9.056117107760482
      ],
      [
        "倒",
        -9.056678549141312
      ],
      [
        "イタリア",
        -9.057044054513907
      ],
      [
        "et",
        -9.057436560428156
      ],
      [
        "に対し",
        -9.058786372389141
      ],
      [
        "ドラマ",
        -9.05950498248298
      ],
      [
        "予定",
        -9.062410067004992
      ],
      [
        "理由",
        -9.06264551684763
      ],
      [
        "立ち",
        -9.064487577140087
      ],
      [
        "廃",
        -9.064711652467514
      ],
      [
        "許",
        -9.065262055914683
      ],
      [
        "高等学校",
        -9.06619756256048
      ],
      [
        "Z",
        -9.066885939774577
      ],
      [
        "以下",
        -9.067578333136638
      ],
      [
        "彼ら",
        -9.067928379151345
      ],
      [
        "症",
        -9.068554980373156
      ],
      [
        "態",
        -9.071498709947477
      ],
      [
        "メートル",
        -9.073777753062025
      ],
      [
        "延",
        -9.075308973152028
      ],
      [
        "&",
        -9.078903298738403
      ],
      [
        "忠",
        -9.081346266780406
      ],
      [
        "連続",
        -9.082132698211764
      ],
      [
        "大きく",
        -9.084318866087607
      ],
      [
        "特別",
        -9.084952620793935
      ],
      [
        "警",
        -9.085100475618097
      ],
      [
        "を務めた",
        -9.086535141185362
      ],
      [
        "携",
        -9.08728565470378
      ],
      [
        "らず",
        -9.087533344899148
      ],
      [
        "新聞",
        -9.088915521369383
      ],
      [
        "鳥",
        -9.090899714534801
      ],
      [
        "裁判",
        -9.090996091141578
      ],
      [
        "買",
        -9.0928697739949
      ],
      [
        "文学",
        -9.093500169715917
      ],
      [
        "ょ",
        -9.093717699596679
      ],
      [
        "奈",
        -9.093725914528655
      ],
      [
        "el",
        -9.094047519464095
      ],
      [
        "女子",
        -9.094235484619885
      ],
      [
        "諸",
        -9.094872506289274
      ],
      [
        "草",
        -9.095888137986726
      ],
      [
        "判",
        -9.096970774353277
      ],
      [
        "労働",
        -9.097745551094755
      ],
      [
        "リリース",
        -9.09786809328727
      ],
      [
        "介",
        -9.09788012368782
      ],
      [
        "毎",
        -9.09935174046933
      ],
      [
        "混",
        -9.099364939470178
      ],
      [
        "読",
        -9.09941621068657
      ],
      [
        "含",
        -9.100121435013536
      ],
      [
        "の戦い",
        -9.10068002483944
      ],
      [
        "英語",
        -9.100858417508848
      ],
      [
        "完全",
        -9.101224899086843
      ],
      [
        "専門",
        -9.101656258832863
      ],
      [
        "芸",
        -9.10218615596228
      ],
      [
        "その他",
        -9.103243325826051
      ],
      [
        "娘",
        -9.103981934805965
      ],
      [
        "来歴",
        -9.104062002406529
      ],
      [
        "詞",
        -9.104904131581499
      ],
      [
        "ファイ",
        -9.107005225215163
      ],
      [
        "アメリカ合衆国",
        -9.107222788534374
      ],
      [
        "環境",
        -9.110786455727876
      ],
      [
        "導入",
        -9.111951300905233
      ],
      [
        "タイトル",
        -9.113224618876744
      ],
      [
        "止",
        -9.114554383046451
      ],
      [
        "週",
        -9.114894259764334
      ],
      [
        "設定",
        -9.115183512053981
      ],
      [
        "誌",
        -9.115431419050152
      ],
      [
        "陸軍",
        -9.116861496883976
      ],
      [
        "導",
        -9.118106126925637
      ],
      [
        "位置",
        -9.118593344334396
      ],
      [
        "百",
        -9.119432186219528
      ],
      [
        "騎",
        -9.120559991515469
      ],
      [
        "てしまう",
        -9.121936606206914
      ],
      [
        "仏",
        -9.122167878161296
      ],
      [
        "自動車",
        -9.12279331643915
      ],
      [
        "支援",
        -9.125455876049333
      ],
      [
        "支配",
        -9.130982124511494
      ],
      [
        "様々な",
        -9.131081820182192
      ],
      [
        "講",
        -9.131181569765952
      ],
      [
        "救",
        -9.132314873977435
      ],
      [
        "昇",
        -9.13422943434305
      ],
      [
        "大統領",
        -9.134582196755732
      ],
      [
        "運転",
        -9.134672550247805
      ],
      [
        "六",
        -9.135105492340198
      ],
      [
        "程度",
        -9.135961666685354
      ],
      [
        "陣",
        -9.137748246227073
      ],
      [
        "探",
        -9.138643701849897
      ],
      [
        "老",
        -9.139461992642028
      ],
      [
        "祖",
        -9.139754401704884
      ],
      [
        "提供",
        -9.139844106699966
      ],
      [
        "遊",
        -9.139988390532979
      ],
      [
        "樹",
        -9.141549716806173
      ],
      [
        "給",
        -9.142039873894419
      ],
      [
        "沿",
        -9.143110363809834
      ],
      [
        "具",
        -9.14596009919508
      ],
      [
        "銀",
        -9.146151101845023
      ],
      [
        "主張",
        -9.146956061358985
      ],
      [
        "以来",
        -9.147753594317429
      ],
      [
        "布",
        -9.148697804774283
      ],
      [
        "羽",
        -9.148842079433404
      ],
      [
        "念",
        -9.149240786927637
      ],
      [
        "警察",
        -9.149437334419543
      ],
      [
        "辞",
        -9.15065379899429
      ],
      [
        "朝鮮",
        -9.151342272286767
      ],
      [
        "天皇",
        -9.152118796529559
      ],
      [
        "違",
        -9.152190980915156
      ],
      [
        "対象",
        -9.153031152131154
      ],
      [
        "殿",
        -9.153812454849602
      ],
      [
        "敷",
        -9.153931098749958
      ],
      [
        "逆",
        -9.15402997942084
      ],
      [
        "可",
        -9.15416596916913
      ],
      [
        "周辺",
        -9.155110620427253
      ],
      [
        "デザイン",
        -9.155277957634718
      ],
      [
        "展開",
        -9.157316610135496
      ],
      [
        "完成",
        -9.15839437226088
      ],
      [
        " of ",
        -9.15870796738508
      ],
      [
        "魔",
        -9.158767915490188
      ],
      [
        "陽",
        -9.159019093808539
      ],
      [
        "温",
        -9.16447218070693
      ],
      [
        "専",
        -9.165699026323816
      ],
      [
        "銃",
        -9.16678814861124
      ],
      [
        "華",
        -9.16690834212284
      ],
      [
        "ていない",
        -9.170214695656034
      ],
      [
        "景",
        -9.170496711511122
      ],
      [
        "慶",
        -9.171768228584522
      ],
      [
        "額",
        -9.171848756039394
      ],
      [
        "舞台",
        -9.173452678265043
      ],
      [
        "標",
        -9.174302189295531
      ],
      [
        "指定",
        -9.176100952458363
      ],
      [
        "合わせ",
        -9.17697303171853
      ],
      [
        "ざ",
        -9.177076760921231
      ],
      [
        "un",
        -9.180668966769657
      ],
      [
        "漫画",
        -9.181012660389554
      ],
      [
        "スポーツ",
        -9.182171584792759
      ],
      [
        "援",
        -9.18287451204629
      ],
      [
        "里",
        -9.183329636190408
      ],
      [
        "運営",
        -9.183782926354189
      ],
      [
        "できない",
        -9.185067571389805
      ],
      [
        "骨",
        -9.185735615595204
      ],
      [
        "公園",
        -9.187496852705028
      ],
      [
        "状況",
        -9.188166447883866
      ],
      [
        "ほ",
        -9.190188094983409
      ],
      [
        "ていく",
        -9.190592197396724
      ],
      [
        "象",
        -9.191046946163102
      ],
      [
        "適",
        -9.191910603264663
      ],
      [
        "駆",
        -9.196737878463331
      ],
      [
        "到",
        -9.197316021581196
      ],
      [
        "サービス",
        -9.197734835672213
      ],
      [
        "を含む",
        -9.197923731141957
      ],
      [
        "幼",
        -9.199093671211589
      ],
      [
        "撮影",
        -9.199124492802
      ],
      [
        "異なる",
        -9.19968161710211
      ],
      [
        "測",
        -9.199788147354793
      ],
      [
        "岸",
        -9.201161030817792
      ],
      [
        "栄",
        -9.201724597488743
      ],
      [
        "焼",
        -9.201911303986666
      ],
      [
        "すべて",
        -9.202910654140167
      ],
      [
        "アジア",
        -9.204096666762428
      ],
      [
        "あるいは",
        -9.204217947878059
      ],
      [
        "毛",
        -9.205382086421588
      ],
      [
        "待",
        -9.208276366195637
      ],
      [
        "就",
        -9.210152677758439
      ],
      [
        "廃止",
        -9.210916144703305
      ],
      [
        "災",
        -9.212800363048443
      ],
      [
        "為",
        -9.212899619811486
      ],
      [
        "まれ",
        -9.215303136953535
      ],
      [
        "湖",
        -9.217130420576314
      ],
      [
        "候補",
        -9.217977431731116
      ],
      [
        "建築",
        -9.218303019807017
      ],
      [
        "ラジオ",
        -9.218822421653686
      ],
      [
        "聞",
        -9.22029461707322
      ],
      [
        "項",
        -9.221013961585586
      ],
      [
        "帝",
        -9.222707907298732
      ],
      [
        "仮",
        -9.224594246324267
      ],
      [
        "爵",
        -9.22688897053015
      ],
      [
        "談",
        -9.229210293661206
      ],
      [
        "及",
        -9.234981174815225
      ],
      [
        "税",
        -9.235906221983921
      ],
      [
        "輸送",
        -9.238101462904257
      ],
      [
        "スーパー",
        -9.23863893247287
      ],
      [
        "はじめ",
        -9.239757373093921
      ],
      [
        "統",
        -9.239955356942072
      ],
      [
        "亡",
        -9.240251079665427
      ],
      [
        "浦",
        -9.240682735825462
      ],
      [
        "察",
        -9.242577151472009
      ],
      [
        "孫",
        -9.245438833124217
      ],
      [
        "超",
        -9.245567666612587
      ],
      [
        "復帰",
        -9.246956765742567
      ],
      [
        "整備",
        -9.247810835425549
      ],
      [
        "宇宙",
        -9.248742780524827
      ],
      [
        "隣",
        -9.248955568358912
      ],
      [
        "傷",
        -9.250426851237464
      ],
      [
        "紀",
        -9.254204688256733
      ],
      [
        "値",
        -9.254728383087063
      ],
      [
        "ほぼ",
        -9.255731605312773
      ],
      [
        "ニューヨーク",
        -9.256837182147116
      ],
      [
        "演奏",
        -9.256901843021673
      ],
      [
        "連邦",
        -9.257687531242304
      ],
      [
        "互",
        -9.258065208426348
      ],
      [
        "模",
        -9.259559847139878
      ],
      [
        "拠",
        -9.261995146341357
      ],
      [
        "油",
        -9.263434289768606
      ],
      [
        "が多い",
        -9.266456768340142
      ],
      [
        "働",
        -9.266695145473609
      ],
      [
        "算",
        -9.270373709949
      ],
      [
        "批判",
        -9.273949553119
      ],
      [
        "ヴォ",
        -9.274370686577257
      ],
      [
        "幕",
        -9.27665608258948
      ],
      [
        "巡",
        -9.27812517744241
      ],
      [
        "疑",
        -9.278372050159389
      ],
      [
        "静",
        -9.278909690602877
      ],
      [
        "闘",
        -9.279068968566149
      ],
      [
        "スペイン",
        -9.279871961313427
      ],
      [
        "博",
        -9.280311299660767
      ],
      [
        "ぼ",
        -9.282062054903989
      ],
      [
        "占",
        -9.283587174993135
      ],
      [
        "試験",
        -9.284838511200427
      ],
      [
        "課",
        -9.286322833879549
      ],
      [
        "臣",
        -9.287655204214538
      ],
      [
        "魚",
        -9.288546474739565
      ],
      [
        "構",
        -9.291905164717672
      ],
      [
        "願",
        -9.291991354459244
      ],
      [
        "黄",
        -9.292831709729086
      ],
      [
        "経験",
        -9.294166835048918
      ],
      [
        "既",
        -9.294332477448599
      ],
      [
        "を行い",
        -9.294570546071904
      ],
      [
        "精",
        -9.294653626596599
      ],
      [
        "片",
        -9.295129253960768
      ],
      [
        "辺",
        -9.297692084313057
      ],
      [
        "塚",
        -9.297980078068528
      ],
      [
        "庫",
        -9.301205317573714
      ],
      [
        "企画",
        -9.30125930210767
      ],
      [
        "湾",
        -9.301452759025517
      ],
      [
        "竹",
        -9.303844055564692
      ],
      [
        "停",
        -9.30575777944731
      ],
      [
        "招",
        -9.307157717082713
      ],
      [
        "てきた",
        -9.307864107161558
      ],
      [
        "折",
        -9.30907267510039
      ],
      [
        "肉",
        -9.309419143436635
      ],
      [
        "欠",
        -9.311338441054284
      ],
      [
        "非常に",
        -9.311589301450791
      ],
      [
        "損",
        -9.313261429460136
      ],
      [
        "避",
        -9.314282346750057
      ],
      [
        "至",
        -9.314953399341205
      ],
      [
        "距離",
        -9.314986514532317
      ],
      [
        "処",
        -9.315132838269719
      ],
      [
        "核",
        -9.315955190160038
      ],
      [
        "株式会社",
        -9.31688586313966
      ],
      [
        "聴",
        -9.317048696702024
      ],
      [
        "臨",
        -9.323377240545378
      ],
      [
        "伯",
        -9.324033400859475
      ],
      [
        "浜",
        -9.324655988642458
      ],
      [
        "納",
        -9.328379599496973
      ],
      [
        "因",
        -9.328798161845858
      ],
      [
        "1999",
        -9.329271009050464
      ],
      [
        "詳",
        -9.33411724274002
      ],
      [
        "漢",
        -9.335823626687384
      ],
      [
        "抗",
        -9.337428172311128
      ],
      [
        "旅",
        -9.340519882237842
      ],
      [
        "写",
        -9.34213862892134
      ],
      [
        "罪",
        -9.342449023246422
      ],
      [
        "幸",
        -9.342797852803916
      ],
      [
        "”",
        -9.346363217543484
      ],
      [
        "酒",
        -9.34816268538663
      ],
      [
        "裏",
        -9.35071146828043
      ],
      [
        "詩",
        -9.354063615344382
      ],
      [
        "ゃ",
        -9.356093858943249
      ],
      [
        "散",
        -9.357399222860353
      ],
      [
        "担",
        -9.358486025145718
      ],
      [
        "刻",
        -9.358688208947399
      ],
      [
        "七",
        -9.358979474620144
      ],
      [
        "なければ",
        -9.360585174691444
      ],
      [
        "易",
        -9.36165297394048
      ],
      [
        "秒",
        -9.362481295982349
      ],
      [
        "イベント",
        -9.363786255911549
      ],
      [
        "時点で",
        -9.364319307650973
      ],
      [
        "被",
        -9.364506299111513
      ],
      [
        "完",
        -9.364860864998766
      ],
      [
        "故",
        -9.365724162884623
      ],
      [
        "環",
        -9.366766025922319
      ],
      [
        "登録",
        -9.367140678011097
      ],
      [
        "舞",
        -9.36725267597027
      ],
      [
        "翼",
        -9.367904077569609
      ],
      [
        "監",
        -9.369269888058188
      ],
      [
        "に伴い",
        -9.370108428023704
      ],
      [
        "暗",
        -9.371363609444407
      ],
      [
        "採",
        -9.371728550598258
      ],
      [
        "苦",
        -9.372322618050577
      ],
      [
        "喜",
        -9.372864003271651
      ],
      [
        "染",
        -9.373947653801865
      ],
      [
        "瀬",
        -9.374489919747269
      ],
      [
        "固",
        -9.375312520075136
      ],
      [
        "香",
        -9.376569023876492
      ],
      [
        "礼",
        -9.3782940372229
      ],
      [
        "房",
        -9.378838665836762
      ],
      [
        "唱",
        -9.378888192240534
      ],
      [
        "背",
        -9.379007012427794
      ],
      [
        "巨",
        -9.379334040288024
      ],
      [
        "オリンピック",
        -9.382410852750699
      ],
      [
        "績",
        -9.382763260609154
      ],
      [
        "ていった",
        -9.390514126099998
      ],
      [
        "申",
        -9.391899180734832
      ],
      [
        "暴",
        -9.392124999328178
      ],
      [
        "北海道",
        -9.394993194942204
      ],
      [
        "づ",
        -9.395568640431813
      ],
      [
        "雷",
        -9.396526082809379
      ],
      [
        "枠",
        -9.397938530234995
      ],
      [
        "了",
        -9.39870827699107
      ],
      [
        "伸",
        -9.398923378799392
      ],
      [
        "によれば",
        -9.400446317681608
      ],
      [
        "兄",
        -9.400947625338844
      ],
      [
        "宅",
        -9.401843143975883
      ],
      [
        "扱",
        -9.402378147778508
      ],
      [
        "宣",
        -9.403349628694427
      ],
      [
        "払",
        -9.404065364342744
      ],
      [
        "余",
        -9.404573397214875
      ],
      [
        "1998",
        -9.40691201507879
      ],
      [
        "+",
        -9.407346724598721
      ],
      [
        "季",
        -9.408978691097499
      ],
      [
        "飾",
        -9.409233926617445
      ],
      [
        "登",
        -9.41004428921295
      ],
      [
        "岐",
        -9.410613325265109
      ],
      [
        "還",
        -9.414326707938017
      ],
      [
        "我",
        -9.41566177020379
      ],
      [
        "縁",
        -9.415661770203792
      ],
      [
        "厳",
        -9.415713154364633
      ],
      [
        "純",
        -9.416664237900275
      ],
      [
        "飛",
        -9.417092372232164
      ],
      [
        "貨",
        -9.418792081369602
      ],
      [
        "競",
        -9.419551081235355
      ],
      [
        "Q",
        -9.424435227592047
      ],
      [
        "訴",
        -9.428277787979953
      ],
      [
        "籍",
        -9.428815792252076
      ],
      [
        "督",
        -9.429364603113678
      ],
      [
        "冷",
        -9.432293200764914
      ],
      [
        "益",
        -9.436350373118799
      ],
      [
        "授",
        -9.436875969171131
      ],
      [
        "ヶ",
        -9.439053676531257
      ],
      [
        "縮",
        -9.439502753804392
      ],
      [
        "譲",
        -9.442137350193327
      ],
      [
        "を持って",
        -9.444218594790954
      ],
      [
        "児",
        -9.445178661311653
      ],
      [
        "壁",
        -9.449365340358284
      ],
      [
        "請",
        -9.449372282874481
      ],
      [
        "誘",
        -9.450189413986669
      ],
      [
        "触",
        -9.451573257833099
      ],
      [
        "免",
        -9.455388732458152
      ],
      [
        "繁",
        -9.455843290074446
      ],
      [
        "幹",
        -9.457635677680171
      ],
      [
        "繰",
        -9.45951405139017
      ],
      [
        "医",
        -9.460118915653702
      ],
      [
        "券",
        -9.462525008702032
      ],
      [
        "1997",
        -9.468221843670902
      ],
      [
        "雲",
        -9.468845169106672
      ],
      [
        "封",
        -9.470227957678965
      ],
      [
        "注",
        -9.470603743936708
      ],
      [
        "を果たした",
        -9.470662735202799
      ],
      [
        "牧",
        -9.472183390737667
      ],
      [
        "弁",
        -9.472237718365745
      ],
      [
        "君",
        -9.473788614861332
      ],
      [
        "駐",
        -9.47534187565803
      ],
      [
        "閉",
        -9.476677829356419
      ],
      [
        "程",
        -9.477018241365238
      ],
      [
        "圏",
        -9.480399847945712
      ],
      [
        "植",
        -9.48160270631745
      ],
      [
        "裁",
        -9.481683705181547
      ],
      [
        "宇",
        -9.482259566290711
      ],
      [
        "康",
        -9.482495245852629
      ],
      [
        "奏",
        -9.483420632465204
      ],
      [
        "逃",
        -9.483514563633438
      ],
      [
        "熊",
        -9.48705508048496
      ],
      [
        "麻",
        -9.487303445417094
      ],
      [
        "塩",
        -9.487331045328775
      ],
      [
        "名古屋",
        -9.490068379370786
      ],
      [
        "砂",
        -9.490897836512818
      ],
      [
        "1996",
        -9.491013715446448
      ],
      [
        "秘",
        -9.491729149342072
      ],
      [
        "排",
        -9.492366957522053
      ],
      [
        "仁",
        -9.49333831639055
      ],
      [
        "旗",
        -9.493754902060447
      ],
      [
        "株",
        -9.494755290955723
      ],
      [
        "泉",
        -9.498104605936653
      ],
      [
        "唯",
        -9.50094747289842
      ],
      [
        "徒",
        -9.502035184835556
      ],
      [
        "隠",
        -9.502655630464101
      ],
      [
        "併",
        -9.502675234814578
      ],
      [
        "阿",
        -9.50386149729177
      ],
      [
        "以外の",
        -9.504617171153816
      ],
      [
        "The ",
        -9.506054609853358
      ],
      [
        "龍",
        -9.507600502519002
      ],
      [
        "息",
        -9.507706962048076
      ],
      [
        "ゅ",
        -9.508840550588767
      ],
      [
        "審",
        -9.510777077044635
      ],
      [
        "1995",
        -9.51094254901862
      ],
      [
        "霊",
        -9.512230336464631
      ],
      [
        "婚",
        -9.512967154468594
      ],
      [
        "皮",
        -9.51472350280059
      ],
      [
        "訪",
        -9.515524081771352
      ],
      [
        "液",
        -9.519500514031275
      ],
      [
        "茶",
        -9.521012294797165
      ],
      [
        "隆",
        -9.521240686775874
      ],
      [
        "“",
        -9.522412015081587
      ],
      [
        "訳",
        -9.525493303779847
      ],
      [
        "雑",
        -9.52585297092997
      ],
      [
        "塁",
        -9.52656473603066
      ],
      [
        "価",
        -9.526624218678478
      ],
      [
        "怪",
        -9.52808806626842
      ],
      [
        "そこで",
        -9.528539348016656
      ],
      [
        "奥",
        -9.528864575467317
      ],
      [
        "恐",
        -9.529641688101352
      ],
      [
        "弱",
        -9.529843260365677
      ],
      [
        "健",
        -9.53464598011873
      ],
      [
        "功",
        -9.538264195691925
      ],
      [
        "濃",
        -9.539043516207926
      ],
      [
        "吸",
        -9.540614265690854
      ],
      [
        "障",
        -9.540876435197625
      ],
      [
        "操",
        -9.542935457469616
      ],
      [
        "墓",
        -9.543558788386026
      ],
      [
        "てしまった",
        -9.54407218734307
      ],
      [
        "答",
        -9.545195139105338
      ],
      [
        "明らか",
        -9.550611273884074
      ],
      [
        "架",
        -9.550855310237262
      ],
      [
        "メディア",
        -9.551137514186792
      ],
      [
        "底",
        -9.553446786324795
      ],
      [
        "九",
        -9.554384889512564
      ],
      [
        "アフリカ",
        -9.554774942623006
      ],
      [
        "例えば",
        -9.55524851890161
      ],
      [
        "j",
        -9.562153695756562
      ],
      [
        "隻",
        -9.565908561372177
      ],
      [
        "件",
        -9.56610291463577
      ],
      [
        "ストーリー",
        -9.566441244316847
      ],
      [
        "冬",
        -9.570397100708952
      ],
      [
        "挑",
        -9.570907075221243
      ],
      [
        "丘",
        -9.573190146942895
      ],
      [
        "済",
        -9.57531988305583
      ],
      [
        "オープン",
        -9.578411407216159
      ],
      [
        "ソフト",
        -9.579362873617903
      ],
      [
        "即",
        -9.580010241276806
      ],
      [
        "弘",
        -9.580888762993345
      ],
      [
        "奉",
        -9.581434440784117
      ],
      [
        "効",
        -9.582160462376798
      ],
      [
        "倍",
        -9.583377043571188
      ],
      [
        "鉱",
        -9.584501834691363
      ],
      [
        "途",
        -9.585304946102221
      ],
      [
        "...",
        -9.588647950447788
      ],
      [
        "抱",
        -9.59060378641127
      ],
      [
        "顔",
        -9.59173674017313
      ],
      [
        "恵",
        -9.593638085487182
      ],
      [
        "筆",
        -9.59533988507209
      ],
      [
        "共和国",
        -9.596439046615869
      ],
      [
        "沈",
        -9.597759836604451
      ],
      [
        "恋",
        -9.59819144914638
      ],
      [
        "認められ",
        -9.599071072164316
      ],
      [
        "虫",
        -9.599209559251829
      ],
      [
        "彦",
        -9.600228706961948
      ],
      [
        "炭",
        -9.601156107062351
      ],
      [
        "展",
        -9.601381453692616
      ],
      [
        "冠",
        -9.608139158931865
      ],
      [
        "必",
        -9.608935209737563
      ],
      [
        "伏",
        -9.610352859832581
      ],
      [
        "致",
        -9.61063382009414
      ],
      [
        "試",
        -9.612456814803986
      ],
      [
        "策",
        -9.614386562304501
      ],
      [
        "善",
        -9.621149083340153
      ],
      [
        "寛",
        -9.62247441068969
      ],
      [
        "妹",
        -9.622569197419613
      ],
      [
        "束",
        -9.623612444858606
      ],
      [
        "荷",
        -9.626843926071757
      ],
      [
        "整",
        -9.627157554359822
      ],
      [
        "患",
        -9.628209352423754
      ],
      [
        "簡",
        -9.629035864431318
      ],
      [
        "雪",
        -9.631519507108191
      ],
      [
        "雨",
        -9.631965942804912
      ],
      [
        "承",
        -9.632960310032258
      ],
      [
        "ぬ",
        -9.636633545070188
      ],
      [
        "討",
        -9.637353461814403
      ],
      [
        "厚",
        -9.643579245613632
      ],
      [
        "替",
        -9.64517203573598
      ],
      [
        "ョ",
        -9.649249314573238
      ],
      [
        "伴",
        -9.65216043288424
      ],
      [
        "葬",
        -9.65307873346662
      ],
      [
        "勤",
        -9.654824435806228
      ],
      [
        "第二次世界大戦",
        -9.655329003476725
      ],
      [
        "午",
        -9.655361653332761
      ],
      [
        "塔",
        -9.655492263445423
      ],
      [
        "刺",
        -9.656276282563311
      ],
      [
        "軸",
        -9.660993349699359
      ],
      [
        "陥",
        -9.664216347572317
      ],
      [
        "掘",
        -9.666260764883553
      ],
      [
        "儀",
        -9.670030797082651
      ],
      [
        "鎮",
        -9.670925785750237
      ],
      [
        "荒",
        -9.671224293215111
      ],
      [
        "床",
        -9.672120350622656
      ],
      [
        "埋",
        -9.673449320700351
      ],
      [
        "飲",
        -9.674646905713884
      ],
      [
        "踏",
        -9.674680192445793
      ],
      [
        "覇",
        -9.676612721160346
      ],
      [
        "緑",
        -9.682499911818322
      ],
      [
        "賛",
        -9.684380400627642
      ],
      [
        "犯",
        -9.684662561625972
      ],
      [
        "矢",
        -9.688388219544398
      ],
      [
        "齢",
        -9.688725743807126
      ],
      [
        "貫",
        -9.689401134292845
      ],
      [
        "柄",
        -9.690685634274969
      ],
      [
        "囲",
        -9.69109890814672
      ],
      [
        "浅",
        -9.693429166682478
      ],
      [
        "太平洋",
        -9.693802638411887
      ],
      [
        "迫",
        -9.695636223365744
      ],
      [
        "犬",
        -9.695636223365746
      ],
      [
        "施",
        -9.696540740057442
      ],
      [
        "筋",
        -9.696622483818333
      ],
      [
        "夢",
        -9.697677838992101
      ],
      [
        "?",
        -9.698018513872293
      ],
      [
        "豪",
        -9.699757763364204
      ],
      [
        "浮",
        -9.701089821761736
      ],
      [
        "オリジナル",
        -9.701978964693277
      ],
      [
        "貴",
        -9.705381219206277
      ],
      [
        "摩",
        -9.705508545125522
      ],
      [
        "誤",
        -9.707088948457075
      ],
      [
        "衣",
        -9.709395317809674
      ],
      [
        "緒",
        -9.711016399115092
      ],
      [
        "募",
        -9.713262659173989
      ],
      [
        "杉",
        -9.71898746836898
      ],
      [
        "剣",
        -9.727654154335537
      ],
      [
        "億",
        -9.729325396843588
      ],
      [
        "姉",
        -9.730219609968303
      ],
      [
        "盗",
        -9.730677163122795
      ],
      [
        "スタジオ",
        -9.7308902037832
      ],
      [
        "充",
        -9.731170146917083
      ],
      [
        "婦",
        -9.732015827828581
      ],
      [
        "徴",
        -9.735223275157406
      ],
      [
        "締",
        -9.736431840511083
      ],
      [
        "棄",
        -9.737742957122874
      ],
      [
        "脈",
        -9.738239437442257
      ],
      [
        "ユダヤ",
        -9.74076179719368
      ],
      [
        "快",
        -9.742362641605583
      ],
      [
        "亜",
        -9.745752112525402
      ],
      [
        "候",
        -9.745888221351597
      ],
      [
        "覧",
        -9.747898765466642
      ],
      [
        "竜",
        -9.752565715833377
      ],
      [
        "仲",
        -9.754566826263211
      ],
      [
        "にあたる",
        -9.754757649308884
      ],
      [
        "双",
        -9.757760813831203
      ],
      [
        "索",
        -9.76200179452389
      ],
      [
        "侵",
        -9.762056627919272
      ],
      [
        "図書館",
        -9.762511228030057
      ],
      [
        "綱",
        -9.763201227662865
      ],
      [
        "脳",
        -9.763710513037319
      ],
      [
        "織",
        -9.764819030778398
      ],
      [
        "威",
        -9.767465393318975
      ],
      [
        "吹",
        -9.768378902353058
      ],
      [
        "署",
        -9.76973242904477
      ],
      [
        "削",
        -9.770098561771931
      ],
      [
        "暦",
        -9.771051134706518
      ],
      [
        "剤",
        -9.772041306417057
      ],
      [
        "尊",
        -9.7725551150346
      ],
      [
        "プロジェクト",
        -9.774576469553722
      ],
      [
        "本塁打",
        -9.776860497381104
      ],
      [
        "ァ",
        -9.778823437292127
      ],
      [
        "輸",
        -9.780474308123587
      ],
      [
        "沼",
        -9.780923210460289
      ],
      [
        "験",
        -9.78164002958588
      ],
      [
        "縦",
        -9.781700901867021
      ],
      [
        "コンピュータ",
        -9.782553353748142
      ],
      [
        "窓",
        -9.783406532714704
      ],
      [
        "取締役",
        -9.785933425260428
      ],
      [
        "李",
        -9.789511262350702
      ],
      [
        "潜",
        -9.793061892586312
      ],
      [
        "雇",
        -9.79362687942132
      ],
      [
        "序",
        -9.794226928193215
      ],
      [
        "禁",
        -9.79430453095213
      ],
      [
        "露",
        -9.79467521217926
      ],
      [
        "ぜ",
        -9.797608225051832
      ],
      [
        "レギュラー",
        -9.800738055040258
      ],
      [
        "→",
        -9.80342256856193
      ],
      [
        "チャンピオン",
        -9.804218083765123
      ],
      [
        "奇",
        -9.806266172372991
      ],
      [
        "献",
        -9.810056140388006
      ],
      [
        "ェ",
        -9.810882990084966
      ],
      [
        "艇",
        -9.811099857661073
      ],
      [
        "託",
        -9.811176165869956
      ],
      [
        "裂",
        -9.815075626033838
      ],
      [
        "オーストラリア",
        -9.818183129289393
      ],
      [
        "潟",
        -9.819567341201864
      ],
      [
        "寿",
        -9.821069074252483
      ],
      [
        "脚",
        -9.823191637072112
      ],
      [
        "労",
        -9.82340519284188
      ],
      [
        "笑",
        -9.824349917089982
      ],
      [
        "敬",
        -9.824427243154695
      ],
      [
        "戒",
        -9.827447633066914
      ],
      [
        "頂",
        -9.82822356373755
      ],
      [
        "炎",
        -9.829621757964576
      ],
      [
        "貞",
        -9.830632782101274
      ],
      [
        "ィ",
        -9.83068634091406
      ],
      [
        "狭",
        -9.831566943272957
      ],
      [
        "札",
        -9.831716281738894
      ],
      [
        "廷",
        -9.834765261032942
      ],
      [
        "稿",
        -9.835742396150627
      ],
      [
        "牛",
        -9.837268636027181
      ],
      [
        "堀",
        -9.843239389304037
      ],
      [
        "依",
        -9.845883766541522
      ],
      [
        "径",
        -9.846633437197386
      ],
      [
        "鹿",
        -9.851031174414894
      ],
      [
        "歯",
        -9.851944903000451
      ],
      [
        "鏡",
        -9.852262899624376
      ],
      [
        "菌",
        -9.853098122199965
      ],
      [
        "しばしば",
        -9.85317778385595
      ],
      [
        "網",
        -9.854571404301089
      ],
      [
        "殖",
        -9.856725502905851
      ],
      [
        "鶴",
        -9.857604430670511
      ],
      [
        "享",
        -9.858084171619542
      ],
      [
        "僚",
        -9.859725025231162
      ],
      [
        "茂",
        -9.862331908876069
      ],
      [
        "杯",
        -9.864100433623841
      ],
      [
        "桜",
        -9.870193584586405
      ],
      [
        "征",
        -9.872787515651066
      ],
      [
        "漁",
        -9.873802379354794
      ],
      [
        "才",
        -9.87681289809443
      ],
      [
        "ャ",
        -9.878354440907131
      ],
      [
        "憲",
        -9.87966430504591
      ],
      [
        "を通じて",
        -9.881419452986925
      ],
      [
        "干",
        -9.884050713374238
      ],
      [
        "智",
        -9.89374191050471
      ],
      [
        "姓",
        -9.895234850421415
      ],
      [
        "滞",
        -9.89847722018938
      ],
      [
        "輝",
        -9.90043604385452
      ],
      [
        "柔",
        -9.902816798466276
      ],
      [
        "那",
        -9.905412843051701
      ],
      [
        "顧",
        -9.905916082667204
      ],
      [
        "卵",
        -9.906209756104413
      ],
      [
        "込",
        -9.907282532172575
      ],
      [
        "乳",
        -9.908562253565744
      ],
      [
        "磁",
        -9.911890394144113
      ],
      [
        "贈",
        -9.91218582758928
      ],
      [
        "慮",
        -9.913410696807961
      ],
      [
        "陰",
        -9.913875695125368
      ],
      [
        "侯",
        -9.91463706817136
      ],
      [
        "芝",
        -9.915229648239826
      ],
      [
        "執",
        -9.915426626603432
      ],
      [
        "遂",
        -9.917136751716354
      ],
      [
        "腹",
        -9.919430087186983
      ],
      [
        "エネルギー",
        -9.920578731307229
      ],
      [
        "毒",
        -9.92185654957505
      ],
      [
        "裕",
        -9.924545296873267
      ],
      [
        "響",
        -9.925062029978305
      ],
      [
        "銅",
        -9.92801291454321
      ],
      [
        "庭",
        -9.928073002805293
      ],
      [
        "姫",
        -9.928870970669688
      ],
      [
        "述",
        -9.931415642785884
      ],
      [
        "郊",
        -9.931492598438643
      ],
      [
        "革",
        -9.934085729803025
      ],
      [
        "ミュージック",
        -9.934466354035361
      ],
      [
        "勧",
        -9.935978168055863
      ],
      [
        "借",
        -9.93792529341653
      ],
      [
        "沖",
        -9.940507408003471
      ],
      [
        "郵",
        -9.94157010251896
      ],
      [
        "禄",
        -9.943136239484252
      ],
      [
        "微",
        -9.946101207100947
      ],
      [
        "耐",
        -9.946275891032624
      ],
      [
        "稲",
        -9.949074991758994
      ],
      [
        "眼",
        -9.950126677980606
      ],
      [
        "須",
        -9.952848647903354
      ],
      [
        "揚",
        -9.953024530768728
      ],
      [
        "刀",
        -9.958005586645381
      ],
      [
        "拝",
        -9.9588897795453
      ],
      [
        "範",
        -9.959004873311626
      ],
      [
        "氷",
        -9.959951844032615
      ],
      [
        "湯",
        -9.96030611633881
      ],
      [
        "夕",
        -9.961059361976675
      ],
      [
        "灯",
        -9.961680108222149
      ],
      [
        "柳",
        -9.96296716680543
      ],
      [
        "勇",
        -9.964078031171871
      ],
      [
        "俗",
        -9.964255884043522
      ],
      [
        "届",
        -9.966303468831933
      ],
      [
        "唐",
        -9.966303468831933
      ],
      [
        "却",
        -9.968786091946958
      ],
      [
        "劉",
        -9.970277043128258
      ],
      [
        "謝",
        -9.97072450045941
      ],
      [
        "診",
        -9.97108261053726
      ],
      [
        "いわゆる",
        -9.973548123006061
      ],
      [
        "痛",
        -9.97426646972852
      ],
      [
        "録",
        -9.975993462410303
      ],
      [
        "顕",
        -9.977190185376744
      ],
      [
        "票",
        -9.97851661672744
      ],
      [
        "羅",
        -9.978768041623047
      ],
      [
        "欧",
        -9.980158782704297
      ],
      [
        "喫",
        -9.982836855300976
      ],
      [
        "拓",
        -9.98347127245141
      ],
      [
        "鎌",
        -9.98555862431501
      ],
      [
        "壊",
        -9.986644601293007
      ],
      [
        "握",
        -9.99202981147799
      ],
      [
        "亀",
        -9.992807345362618
      ],
      [
        "孝",
        -9.992990382405218
      ],
      [
        "尉",
        -9.993997685436575
      ],
      [
        "荘",
        -9.997025696833687
      ],
      [
        "腕",
        -9.99766918271058
      ],
      [
        "岳",
        -9.999832490191077
      ],
      [
        "載",
        -10.001538621077882
      ],
      [
        "晴",
        -10.004219474829467
      ],
      [
        "溶",
        -10.00468238422314
      ],
      [
        "飯",
        -10.008207516006708
      ],
      [
        "也",
        -10.014313053242121
      ],
      [
        "尚",
        -10.017637804606656
      ],
      [
        "滑",
        -10.026211237245413
      ],
      [
        "q",
        -10.02654245708371
      ],
      [
        "塗",
        -10.028152801524053
      ],
      [
        "供",
        -10.02892453365384
      ],
      [
        "俊",
        -10.02938599351258
      ],
      [
        "詰",
        -10.030668227624476
      ],
      [
        "覆",
        -10.03438172185764
      ],
      [
        "柱",
        -10.036673822280523
      ],
      [
        "隔",
        -10.037678270635695
      ],
      [
        "如",
        -10.037869708574455
      ],
      [
        "カリフォルニア",
        -10.038971188502938
      ],
      [
        "彩",
        -10.039882022694902
      ],
      [
        "委",
        -10.040458730012363
      ],
      [
        "蒸",
        -10.040841692641935
      ],
      [
        "趣",
        -10.04242716429113
      ],
      [
        "幾",
        -10.045219856959577
      ],
      [
        "律",
        -10.052428146545129
      ],
      [
        "昌",
        -10.056127998277654
      ],
      [
        "掲",
        -10.056765340581501
      ],
      [
        "洗",
        -10.056957023976
      ],
      [
        "丹",
        -10.058666008766602
      ],
      [
        "穴",
        -10.058959271067334
      ],
      [
        "薄",
        -10.05988850280614
      ],
      [
        "償",
        -10.060818598819747
      ],
      [
        "陵",
        -10.06263232480678
      ],
      [
        "誰",
        -10.062828600476548
      ],
      [
        "勲",
        -10.064449346373955
      ],
      [
        "怒",
        -10.068142658297837
      ],
      [
        "包",
        -10.070550626635779
      ],
      [
        "阪",
        -10.071331967055938
      ],
      [
        "箱",
        -10.071701117089502
      ],
      [
        "×",
        -10.074626545593334
      ],
      [
        "潮",
        -10.074825189846925
      ],
      [
        "鳴",
        -10.075321973184991
      ],
      [
        "埼",
        -10.076764042057174
      ],
      [
        "叙",
        -10.077361369036657
      ],
      [
        "晩",
        -10.08130270321396
      ],
      [
        "撤",
        -10.08210763600755
      ],
      [
        "鑑",
        -10.084256397475896
      ],
      [
        "慣",
        -10.087269128533123
      ],
      [
        "梅",
        -10.087319417695806
      ],
      [
        "枝",
        -10.087520599640364
      ],
      [
        "尽",
        -10.088124388433139
      ],
      [
        "繋",
        -10.08812438843314
      ],
      [
        "泊",
        -10.090089223565318
      ],
      [
        "嫌",
        -10.093676172949472
      ],
      [
        "嘉",
        -10.095246350043249
      ],
      [
        "飼",
        -10.097123665526466
      ],
      [
        "硬",
        -10.097834921176487
      ],
      [
        "債",
        -10.098851879034742
      ],
      [
        "玄",
        -10.098953631724894
      ],
      [
        "鬼",
        -10.099004511952836
      ],
      [
        "貸",
        -10.099309847697237
      ],
      [
        "碑",
        -10.09936074605322
      ],
      [
        "澤",
        -10.100939881422548
      ],
      [
        "往",
        -10.102981167119816
      ],
      [
        "浴",
        -10.106666014810537
      ],
      [
        "渋",
        -10.107178874785253
      ],
      [
        "緊",
        -10.108873181294836
      ],
      [
        "句",
        -10.10897595885856
      ],
      [
        "紅",
        -10.109849994903728
      ],
      [
        "塞",
        -10.110879251613772
      ],
      [
        "維",
        -10.113876553884682
      ],
      [
        "旬",
        -10.114231671071297
      ],
      [
        "斎",
        -10.115213735552757
      ],
      [
        "プロデューサー",
        -10.117077138530675
      ],
      [
        ";",
        -10.11832133872627
      ],
      [
        "騒",
        -10.118425092001049
      ],
      [
        "邦",
        -10.120461511083246
      ],
      [
        "摂",
        -10.121438629209397
      ],
      [
        "輩",
        -10.123157290118488
      ],
      [
        "療",
        -10.125163112460761
      ],
      [
        "弥",
        -10.125192250381968
      ],
      [
        "祝",
        -10.125976031381263
      ],
      [
        "煙",
        -10.128855162302086
      ],
      [
        "筒",
        -10.131690033087281
      ],
      [
        "識",
        -10.131924347896089
      ],
      [
        "塾",
        -10.136432750062452
      ],
      [
        "燃",
        -10.13936883710227
      ],
      [
        "査",
        -10.140541855552183
      ],
      [
        "偽",
        -10.140720512704938
      ],
      [
        "概",
        -10.140843714582418
      ],
      [
        "促",
        -10.14374888607382
      ],
      [
        "遅",
        -10.144482228135201
      ],
      [
        "鋼",
        -10.147801036321734
      ],
      [
        "影",
        -10.152438373991199
      ],
      [
        "弦",
        -10.15262096799754
      ],
      [
        "融",
        -10.158980535226418
      ],
      [
        "震",
        -10.162821374572898
      ],
      [
        "僧",
        -10.162873317340757
      ],
      [
        "擁",
        -10.16433879741162
      ],
      [
        "狙",
        -10.164936461107613
      ],
      [
        "遇",
        -10.16553448221912
      ],
      [
        "菱",
        -10.167058333502768
      ],
      [
        "斉",
        -10.168148222169279
      ],
      [
        "獣",
        -10.17531651551612
      ],
      [
        "釈",
        -10.179349160381008
      ],
      [
        "衰",
        -10.181044191919513
      ],
      [
        "迷",
        -10.18214943919264
      ],
      [
        "欲",
        -10.185528007899883
      ],
      [
        "徹",
        -10.185860943563057
      ],
      [
        "随",
        -10.186305030278172
      ],
      [
        "押",
        -10.187754544024628
      ],
      [
        "ぞ",
        -10.188472447182061
      ],
      [
        "]",
        -10.1913704460618
      ],
      [
        "珍",
        -10.191761158279217
      ],
      [
        "研",
        -10.192196552050465
      ],
      [
        "[",
        -10.193940782457936
      ],
      [
        "旨",
        -10.194612392948935
      ],
      [
        "駒",
        -10.195788797767511
      ],
      [
        "邸",
        -10.198258142681311
      ],
      [
        "悲",
        -10.19853913627643
      ],
      [
        "看",
        -10.201748056441746
      ],
      [
        "恒",
        -10.202142845234768
      ],
      [
        "冒",
        -10.204345240522429
      ],
      [
        "獄",
        -10.205589760552616
      ],
      [
        "洞",
        -10.212120535083125
      ],
      [
        "泰",
        -10.212348461805608
      ],
      [
        "斜",
        -10.21280447116158
      ],
      [
        "紋",
        -10.21554490278082
      ],
      [
        "閣",
        -10.217225342556565
      ],
      [
        "該",
        -10.217834346587072
      ],
      [
        "又",
        -10.221278370310062
      ],
      [
        "附",
        -10.222889649610885
      ],
      [
        "貧",
        -10.227276254433072
      ],
      [
        "賃",
        -10.229766699366058
      ],
      [
        "乾",
        -10.232263362103328
      ],
      [
        "垣",
        -10.233193946402634
      ],
      [
        "韓",
        -10.234013532150746
      ],
      [
        "奨",
        -10.234649720257412
      ],
      [
        "梁",
        -10.234649720257414
      ],
      [
        "彰",
        -10.236691370618942
      ],
      [
        "狩",
        -10.239088331719119
      ],
      [
        "誠",
        -10.24043548825118
      ],
      [
        "豆",
        -10.242371540483408
      ],
      [
        "畑",
        -10.245429916635008
      ],
      [
        "曹",
        -10.24607808117345
      ],
      [
        "呉",
        -10.246254926257565
      ],
      [
        "紛",
        -10.247021616552036
      ],
      [
        "緩",
        -10.247139621095315
      ],
      [
        "刷",
        -10.251041603638152
      ],
      [
        "旋",
        -10.252464289790145
      ],
      [
        "é",
        -10.252998319352312
      ],
      [
        "浪",
        -10.253295125717933
      ],
      [
        "糸",
        -10.255077816268853
      ],
      [
        "踊",
        -10.256089420044201
      ],
      [
        "インタビュー",
        -10.256089420049248
      ],
      [
        "批",
        -10.259602769389868
      ],
      [
        "幡",
        -10.260026550430808
      ],
      [
        "巣",
        -10.26068424851112
      ],
      [
        "棋",
        -10.260863695813857
      ],
      [
        "頻",
        -10.262959630468766
      ],
      [
        "妙",
        -10.263979243104025
      ],
      [
        "笠",
        -10.26415928271317
      ],
      [
        "括",
        -10.264939829135033
      ],
      [
        "需",
        -10.269454917172474
      ],
      [
        "阻",
        -10.274536136705235
      ],
      [
        "卿",
        -10.27520345048859
      ],
      [
        "–",
        -10.277086461431328
      ],
      [
        "透",
        -10.277329689063112
      ],
      [
        "滝",
        -10.28068008205967
      ],
      [
        "偵",
        -10.281717933190356
      ],
      [
        "罰",
        -10.283429686626283
      ],
      [
        "崩",
        -10.285282250726485
      ],
      [
        "にもかかわらず",
        -10.287046216257817
      ],
      [
        "菊",
        -10.287291878772681
      ],
      [
        "庄",
        -10.288521097451392
      ],
      [
        "о",
        -10.289444004056932
      ],
      [
        "а",
        -10.290182943097069
      ],
      [
        "努",
        -10.290429377500487
      ],
      [
        "寝",
        -10.291045729333417
      ],
      [
        "呂",
        -10.29203268311892
      ],
      [
        "箇",
        -10.292279573840093
      ],
      [
        "撲",
        -10.294566207305888
      ],
      [
        "膜",
        -10.296300114913782
      ],
      [
        "━",
        -10.298099122842514
      ],
      [
        "臓",
        -10.300834847493787
      ],
      [
        "雅",
        -10.301146199386107
      ],
      [
        "衝",
        -10.30304719058767
      ],
      [
        "卒",
        -10.303175873068932
      ],
      [
        "練",
        -10.303423881167937
      ],
      [
        "梨",
        -10.303765389557721
      ],
      [
        "糖",
        -10.30420258898994
      ],
      [
        "筑",
        -10.310720740610403
      ],
      [
        "譜",
        -10.31191616040758
      ],
      [
        "冊",
        -10.313239078579166
      ],
      [
        "懸",
        -10.316522428015487
      ],
      [
        "恩",
        -10.317281657433883
      ],
      [
        "髪",
        -10.318801847749887
      ],
      [
        "掛",
        -10.32090288518048
      ],
      [
        "浄",
        -10.321912763850527
      ],
      [
        "#",
        -10.322485210120247
      ],
      [
        "況",
        -10.325803518529616
      ],
      [
        "陳",
        -10.325926786441713
      ],
      [
        "粉",
        -10.325926786441713
      ],
      [
        "獲",
        -10.326178771112081
      ],
      [
        "肥",
        -10.326820983799239
      ],
      [
        "さまざまな",
        -10.327843903688363
      ],
      [
        "紫",
        -10.328931903791736
      ],
      [
        "宰",
        -10.330469921973847
      ],
      [
        "脇",
        -10.333810431936769
      ],
      [
        "遭",
        -10.336903915535645
      ],
      [
        "控",
        -10.338389607947155
      ],
      [
        "昭",
        -10.342254265633622
      ],
      [
        "熟",
        -10.34591649031511
      ],
      [
        "彫",
        -10.348329272704191
      ],
      [
        "謀",
        -10.350458065313115
      ],
      [
        "添",
        -10.351140650821668
      ],
      [
        "菜",
        -10.35290998286846
      ],
      [
        "ぱ",
        -10.354748158340247
      ],
      [
        "穂",
        -10.361473088907093
      ],
      [
        "憶",
        -10.361737735440018
      ],
      [
        "峰",
        -10.363459647186408
      ],
      [
        "抑",
        -10.363800427665783
      ],
      [
        "捨",
        -10.364321716204998
      ],
      [
        "稼",
        -10.365250930090253
      ],
      [
        "勃",
        -10.37004343102424
      ],
      [
        "賢",
        -10.377813321746926
      ],
      [
        "銭",
        -10.37781332174693
      ],
      [
        "誇",
        -10.378822471455438
      ],
      [
        "肩",
        -10.379765264211539
      ],
      [
        "晶",
        -10.380034796910753
      ],
      [
        "伐",
        -10.380102191438317
      ],
      [
        "芳",
        -10.381451036693734
      ],
      [
        "係",
        -10.383578579716266
      ],
      [
        "汚",
        -10.38489884973471
      ],
      [
        "耳",
        -10.385034300616988
      ],
      [
        "赴",
        -10.387136138802667
      ],
      [
        "灰",
        -10.390195076677168
      ],
      [
        "薦",
        -10.391012376228563
      ],
      [
        "丁",
        -10.398781855307162
      ],
      [
        "棒",
        -10.40107888593818
      ],
      [
        "眠",
        -10.401491924184345
      ],
      [
        "挟",
        -10.401560780481255
      ],
      [
        "遷",
        -10.402732063513966
      ],
      [
        "逸",
        -10.403352710385587
      ],
      [
        "脅",
        -10.405286078844806
      ],
      [
        "峡",
        -10.408817204855485
      ],
      [
        "普",
        -10.413510915475497
      ],
      [
        "祥",
        -10.414172249293655
      ],
      [
        "傍",
        -10.414451218504123
      ],
      [
        "胸",
        -10.414660496495733
      ],
      [
        "堅",
        -10.415079183916635
      ],
      [
        "侍",
        -10.415148982199597
      ],
      [
        "悩",
        -10.41549804671012
      ],
      [
        "傾",
        -10.416239439540792
      ],
      [
        "棟",
        -10.418364981054985
      ],
      [
        "麗",
        -10.419065481941457
      ],
      [
        "阜",
        -10.419556124693091
      ],
      [
        "励",
        -10.419626236170341
      ],
      [
        "虎",
        -10.423349196355442
      ],
      [
        "噴",
        -10.423701135543839
      ],
      [
        "袋",
        -10.42758066357937
      ],
      [
        "祀",
        -10.427722021320651
      ],
      [
        "°",
        -10.42991562536946
      ],
      [
        "召",
        -10.430907864721867
      ],
      [
        "淡",
        -10.43588388351755
      ],
      [
        "и",
        -10.43638284995437
      ],
      [
        "扉",
        -10.439667980563204
      ],
      [
        "粒",
        -10.445047422596826
      ],
      [
        "幣",
        -10.448866421328129
      ],
      [
        "揮",
        -10.450457469514287
      ],
      [
        "惑",
        -10.453724499166187
      ],
      [
        "仙",
        -10.453868181430469
      ],
      [
        "虜",
        -10.454077970886955
      ],
      [
        "垂",
        -10.45574851165822
      ],
      [
        "劣",
        -10.45640296194307
      ],
      [
        "薩",
        -10.459025054561897
      ],
      [
        "磨",
        -10.460996145869364
      ],
      [
        "銘",
        -10.462751494646238
      ],
      [
        "鎖",
        -10.464140014307231
      ],
      [
        "拳",
        -10.469435324152919
      ],
      [
        "虐",
        -10.469656432644287
      ],
      [
        "后",
        -10.470762709030673
      ],
      [
        "預",
        -10.472978940129224
      ],
      [
        "―",
        -10.475051863321047
      ],
      [
        "昼",
        -10.476164128005873
      ],
      [
        "帳",
        -10.476312523480019
      ],
      [
        "軒",
        -10.480253049023244
      ],
      [
        "驚",
        -10.48331206804531
      ],
      [
        "挿",
        -10.48570611400117
      ],
      [
        "墜",
        -10.487430381614008
      ],
      [
        "寒",
        -10.490135218154185
      ],
      [
        "狂",
        -10.490963157385192
      ],
      [
        "峠",
        -10.49829390363296
      ],
      [
        "坊",
        -10.501028324840957
      ],
      [
        "〉",
        -10.502855435089145
      ],
      [
        "〈",
        -10.50323650360969
      ],
      [
        "脂",
        -10.50483857902024
      ],
      [
        "掃",
        -10.504991291577252
      ],
      [
        "晋",
        -10.505678786829723
      ],
      [
        "湿",
        -10.506519701182055
      ],
      [
        "剛",
        -10.509276739113218
      ],
      [
        "敏",
        -10.511810718813877
      ],
      [
        "栗",
        -10.51435113588327
      ],
      [
        "屈",
        -10.51535368088847
      ],
      [
        "希",
        -10.51598875057099
      ],
      [
        "ォ",
        -10.518059892124535
      ],
      [
        "○",
        -10.519296476871737
      ],
      [
        "崇",
        -10.522866107789538
      ],
      [
        "茨",
        -10.53145420756976
      ],
      [
        "偶",
        -10.532160145319322
      ],
      [
        "_",
        -10.533573517623955
      ],
      [
        "妃",
        -10.534674189930863
      ],
      [
        "葛",
        -10.535776075052212
      ],
      [
        "拘",
        -10.541382975941987
      ],
      [
        "浸",
        -10.544158552662935
      ],
      [
        "吾",
        -10.545827604074791
      ],
      [
        "撮",
        -10.546504780844966
      ],
      [
        "困",
        -10.547161056583594
      ],
      [
        "更",
        -10.54889097377323
      ],
      [
        "洲",
        -10.550771595642608
      ],
      [
        "浩",
        -10.553012403269452
      ],
      [
        "尋",
        -10.554455578504127
      ],
      [
        "符",
        -10.558153183293777
      ],
      [
        "媒",
        -10.558314259281637
      ],
      [
        "皆",
        -10.559120028633043
      ],
      [
        "砦",
        -10.562349614418492
      ],
      [
        "措",
        -10.562673147401279
      ],
      [
        "輔",
        -10.562915865848941
      ],
      [
        "軟",
        -10.563644374865708
      ],
      [
        "貯",
        -10.569165886190683
      ],
      [
        "泳",
        -10.571121956742791
      ],
      [
        "祉",
        -10.574472454277492
      ],
      [
        "朱",
        -10.577259455547095
      ],
      [
        "悟",
        -10.577834215395093
      ],
      [
        "祈",
        -10.579971934604687
      ],
      [
        "沙",
        -10.585170824014124
      ],
      [
        "甘",
        -10.58550182654085
      ],
      [
        "躍",
        -10.586042549433763
      ],
      [
        "е",
        -10.586329812511915
      ],
      [
        "ぽ",
        -10.586826933363664
      ],
      [
        "珠",
        -10.587407220207105
      ],
      [
        "暮",
        -10.589309588429538
      ],
      [
        "険",
        -10.5909981994766
      ],
      [
        "啓",
        -10.591062468303837
      ],
      [
        "疾",
        -10.591811781468097
      ],
      [
        "旦",
        -10.59297849687957
      ],
      [
        "蓮",
        -10.594898203669496
      ],
      [
        "洪",
        -10.595817628675222
      ],
      [
        "幻",
        -10.59673789980129
      ],
      [
        "孤",
        -10.59749147933915
      ],
      [
        "販",
        -10.600989392070296
      ],
      [
        "卓",
        -10.604468056342023
      ],
      [
        "蘇",
        -10.605396326450322
      ],
      [
        "桂",
        -10.608779136558221
      ],
      [
        "酷",
        -10.60886385360329
      ],
      [
        "逐",
        -10.609541623714769
      ],
      [
        "宋",
        -10.612003440397539
      ],
      [
        "桃",
        -10.613108882686314
      ],
      [
        ">",
        -10.61413037670958
      ],
      [
        "函",
        -10.614897182574234
      ],
      [
        "偏",
        -10.615323440039937
      ],
      [
        "旭",
        -10.619767322067315
      ],
      [
        "勅",
        -10.62113865290062
      ],
      [
        "賊",
        -10.62716043547056
      ],
      [
        "□",
        -10.62906050953493
      ],
      [
        "匠",
        -10.63157068128791
      ],
      [
        "針",
        -10.638236945385113
      ],
      [
        "哨",
        -10.640187672542165
      ],
      [
        "烈",
        -10.640799774694504
      ],
      [
        "曽",
        -10.642638332381607
      ],
      [
        "僕",
        -10.646765489624672
      ],
      [
        "忍",
        -10.648438761700481
      ],
      [
        "否",
        -10.64873239558739
      ],
      [
        "准",
        -10.648791386555143
      ],
      [
        "酵",
        -10.649055936821066
      ],
      [
        "掌",
        -10.649850007799278
      ],
      [
        "陶",
        -10.65126324832859
      ],
      [
        "哲",
        -10.65134781034365
      ],
      [
        "猫",
        -10.65205907470308
      ],
      [
        "壇",
        -10.652324490965636
      ],
      [
        "童",
        -10.658280485591535
      ],
      [
        "猛",
        -10.659071975166578
      ],
      [
        "犠",
        -10.659339259558584
      ],
      [
        "魏",
        -10.660319914000436
      ],
      [
        "耕",
        -10.660319914000437
      ],
      [
        "昔",
        -10.660409112109436
      ],
      [
        "懐",
        -10.661926698545019
      ],
      [
        "魂",
        -10.662194747152592
      ],
      [
        "祐",
        -10.662462867629486
      ],
      [
        "抽",
        -10.664341726550818
      ],
      [
        "蓄",
        -10.664789594705619
      ],
      [
        "☆",
        -10.666493325389196
      ],
      [
        "н",
        -10.667121748068569
      ],
      [
        "謡",
        -10.670540093498985
      ],
      [
        "菅",
        -10.673247065599043
      ],
      [
        "咲",
        -10.674241460907208
      ],
      [
        "蘭",
        -10.674693785864855
      ],
      [
        "朗",
        -10.676686449898606
      ],
      [
        "瞬",
        -10.678683092571713
      ],
      [
        "竣",
        -10.680319679743164
      ],
      [
        "辛",
        -10.68168555138054
      ],
      [
        "嶋",
        -10.682597170021827
      ],
      [
        "庶",
        -10.683509620470012
      ],
      [
        "郭",
        -10.686984545092693
      ],
      [
        "堤",
        -10.686984545092693
      ],
      [
        "亭",
        -10.690563515598518
      ],
      [
        "倫",
        -10.693786354481553
      ],
      [
        "貝",
        -10.698130570572014
      ],
      [
        "駿",
        -10.702307686082898
      ],
      [
        "叔",
        -10.702586781814345
      ],
      [
        "魅",
        -10.703145207069275
      ],
      [
        "暫",
        -10.709214886732
      ],
      [
        "暖",
        -10.709214886732001
      ],
      [
        "克",
        -10.709683314696
      ],
      [
        "搬",
        -10.711183760421145
      ],
      [
        "牲",
        -10.712310574004965
      ],
      [
        "畿",
        -10.714097296314593
      ],
      [
        "溝",
        -10.715133175491117
      ],
      [
        "殻",
        -10.71786928437595
      ],
      [
        "妨",
        -10.721371086172478
      ],
      [
        "ぷ",
        -10.72260436590286
      ],
      [
        "膨",
        -10.722699296603452
      ],
      [
        "慎",
        -10.72288918504442
      ],
      [
        "拡",
        -10.725516318502132
      ],
      [
        "乃",
        -10.727648152762304
      ],
      [
        "呈",
        -10.729749294835466
      ],
      [
        "猟",
        -10.730610127025704
      ],
      [
        "勉",
        -10.731280175868104
      ],
      [
        "緯",
        -10.731989167787908
      ],
      [
        "妖",
        -10.733197078739517
      ],
      [
        "*",
        -10.734637171153212
      ],
      [
        "р",
        -10.735021546307763
      ],
      [
        "弓",
        -10.737619950231407
      ],
      [
        "舟",
        -10.737812693449701
      ],
      [
        "茎",
        -10.738005473825107
      ],
      [
        "丈",
        -10.738680497958219
      ],
      [
        "嫡",
        -10.740515006533467
      ],
      [
        "析",
        -10.742812345929082
      ],
      [
        "宏",
        -10.743030852843747
      ],
      [
        "辰",
        -10.744194150923711
      ],
      [
        "寧",
        -10.744582217869821
      ],
      [
        "桑",
        -10.744873366939974
      ],
      [
        "寮",
        -10.747302911379
      ],
      [
        "炉",
        -10.74788688141801
      ],
      [
        "稚",
        -10.74964084045336
      ],
      [
        "蜂",
        -10.751691021781001
      ],
      [
        "斐",
        -10.752082009518428
      ],
      [
        "麦",
        -10.75227756072887
      ],
      [
        "鋭",
        -10.753647490977738
      ],
      [
        "腰",
        -10.75364749097774
      ],
      [
        "盾",
        -10.754823212466274
      ],
      [
        "怖",
        -10.755509688907312
      ],
      [
        "<",
        -10.759934039843264
      ],
      [
        "菓",
        -10.7616105688342
      ],
      [
        "謎",
        -10.761807992456419
      ],
      [
        "斬",
        -10.764180121068668
      ],
      [
        "鷹",
        -10.765566465796185
      ],
      [
        "釣",
        -10.766458703388105
      ],
      [
        "遣",
        -10.767539589659771
      ],
      [
        "尼",
        -10.767649593221714
      ],
      [
        "秦",
        -10.767649593221714
      ],
      [
        "渓",
        -10.768344934463027
      ],
      [
        "牽",
        -10.772527166096982
      ],
      [
        "腐",
        -10.77272675693626
      ],
      [
        "捉",
        -10.773625409017956
      ],
      [
        "枢",
        -10.778130823123156
      ],
      [
        "瑞",
        -10.78376605815679
      ],
      [
        "柴",
        -10.78406884378662
      ],
      [
        "寸",
        -10.784977751139879
      ],
      [
        "禅",
        -10.785179842788954
      ],
      [
        "唆",
        -10.786292077483052
      ],
      [
        "催",
        -10.787435528829713
      ],
      [
        "勘",
        -10.789940791810169
      ],
      [
        "肢",
        -10.79085505436799
      ],
      [
        "揺",
        -10.795336854583171
      ],
      [
        "誓",
        -10.79656265789204
      ],
      [
        "忘",
        -10.797176123479987
      ],
      [
        "柏",
        -10.797585309716226
      ],
      [
        "危",
        -10.800101346145539
      ],
      [
        "肺",
        -10.80014652410455
      ],
      [
        "慰",
        -10.801891904422897
      ],
      [
        "胴",
        -10.803537402812998
      ],
      [
        "褐",
        -10.803949200831525
      ],
      [
        "舶",
        -10.80683654493337
      ],
      [
        "揃",
        -10.807766393124345
      ],
      [
        "α",
        -10.809214544397594
      ],
      [
        "衡",
        -10.809628687386015
      ],
      [
        "桁",
        -10.811183252937616
      ],
      [
        "椎",
        -10.811286976617732
      ],
      [
        "訓",
        -10.81489057850552
      ],
      [
        "捜",
        -10.821360204511302
      ],
      [
        "秩",
        -10.821504445468543
      ],
      [
        "縄",
        -10.82166586794825
      ],
      [
        "屯",
        -10.822972643518149
      ],
      [
        "栃",
        -10.823707551687034
      ],
      [
        "鼻",
        -10.824758358276744
      ],
      [
        "粘",
        -10.826020785459182
      ],
      [
        "軌",
        -10.826396175372137
      ],
      [
        "泥",
        -10.82897266151271
      ],
      [
        "腸",
        -10.831086492028856
      ],
      [
        "履",
        -10.833735079229958
      ],
      [
        "滋",
        -10.838413699063013
      ],
      [
        "癌",
        -10.838520286144657
      ],
      [
        "回衆議院議員総選挙",
        -10.846117155543022
      ],
      [
        "錦",
        -10.846439424317657
      ],
      [
        "牡",
        -10.846761796982937
      ],
      [
        "昆",
        -10.848913608021494
      ],
      [
        "胞",
        -10.850263293992638
      ],
      [
        "楊",
        -10.851825917271551
      ],
      [
        "粋",
        -10.852258092741097
      ],
      [
        "國",
        -10.85236616579848
      ],
      [
        "應",
        -10.85333934926535
      ],
      [
        "墳",
        -10.855188827431974
      ],
      [
        "妊",
        -10.861922626637499
      ],
      [
        "鮮",
        -10.86236821369639
      ],
      [
        "僅",
        -10.862468359023344
      ],
      [
        "歓",
        -10.866077681542423
      ],
      [
        "趙",
        -10.867503120378846
      ],
      [
        "磐",
        -10.868710849993032
      ],
      [
        "喪",
        -10.868930593991935
      ],
      [
        "尻",
        -10.869040484101827
      ],
      [
        "盆",
        -10.86959011586184
      ],
      [
        "均",
        -10.86965876641187
      ],
      [
        "釜",
        -10.872783951172643
      ],
      [
        "夷",
        -10.873335644885735
      ],
      [
        "蓋",
        -10.873556407621658
      ],
      [
        "鈴",
        -10.873895846258524
      ],
      [
        "繊",
        -10.873998079355879
      ],
      [
        "孔",
        -10.87543486121078
      ],
      [
        "懲",
        -10.87654148446207
      ],
      [
        "虚",
        -10.879091374976317
      ],
      [
        "洛",
        -10.879202387409709
      ],
      [
        "纂",
        -10.879757634508357
      ],
      [
        "畜",
        -10.879868720933596
      ],
      [
        "》",
        -10.881202721463548
      ],
      [
        "雌",
        -10.881313968543314
      ],
      [
        "《",
        -10.88164778405736
      ],
      [
        "肝",
        -10.882315749569958
      ],
      [
        "籠",
        -10.886109338494936
      ],
      [
        "慕",
        -10.88678029183224
      ],
      [
        "嵐",
        -10.88745169565019
      ],
      [
        "斗",
        -10.88767559713424
      ],
      [
        "疎",
        -10.887899548761393
      ],
      [
        "拒",
        -10.888323870448268
      ],
      [
        "腫",
        -10.889917373556928
      ],
      [
        "乙",
        -10.891152496102048
      ],
      [
        "班",
        -10.894077955288047
      ],
      [
        "邪",
        -10.89464152608686
      ],
      [
        "匹",
        -10.895318230561298
      ],
      [
        "麓",
        -10.898369080382038
      ],
      [
        "訂",
        -10.898595439954942
      ],
      [
        "鍵",
        -10.899501390981342
      ],
      [
        "篇",
        -10.900294771958297
      ],
      [
        "凍",
        -10.900408163499291
      ],
      [
        "戯",
        -10.90131575899995
      ],
      [
        "閥",
        -10.901315758999951
      ],
      [
        "蒲",
        -10.901542786641297
      ],
      [
        "疫",
        -10.902337789521608
      ],
      [
        "尿",
        -10.902678698615453
      ],
      [
        "綿",
        -10.904954400795551
      ],
      [
        "賜",
        -10.91341981769681
      ],
      [
        "兆",
        -10.914799366112048
      ],
      [
        "羊",
        -10.919411654479452
      ],
      [
        "慢",
        -10.920568058191884
      ],
      [
        "慈",
        -10.92103099437231
      ],
      [
        "桐",
        -10.924393706257138
      ],
      [
        "с",
        -10.92800087795582
      ],
      [
        "契",
        -10.928501787999258
      ],
      [
        "—",
        -10.929634198039416
      ],
      [
        "扇",
        -10.935371918692011
      ],
      [
        "剰",
        -10.936546937919912
      ],
      [
        "閲",
        -10.943271040161047
      ],
      [
        "但",
        -10.943744609103222
      ],
      [
        "絞",
        -10.944218402419201
      ],
      [
        "絡",
        -10.948806985647943
      ],
      [
        "燥",
        -10.95063668081828
      ],
      [
        "в",
        -10.95242687105436
      ],
      [
        "芽",
        -10.953622114128363
      ],
      [
        "佳",
        -10.953622114128363
      ],
      [
        "硫",
        -10.955417661651953
      ],
      [
        "礁",
        -10.95601689465095
      ],
      [
        "俳",
        -10.95745286966622
      ],
      [
        "霧",
        -10.958056976959323
      ],
      [
        "噂",
        -10.959499544978385
      ],
      [
        "瓦",
        -10.959619852966835
      ],
      [
        "黙",
        -10.959980863800643
      ],
      [
        "践",
        -10.960462414402278
      ],
      [
        "剥",
        -10.96070327669014
      ],
      [
        "舷",
        -10.963235839545762
      ],
      [
        "播",
        -10.963598158389864
      ],
      [
        "漏",
        -10.964927785079963
      ],
      [
        "敢",
        -10.973796753421118
      ],
      [
        "朽",
        -10.975140018977394
      ],
      [
        "媛",
        -10.978444795542849
      ],
      [
        "雀",
        -10.980531197868022
      ],
      [
        "翔",
        -10.981022749336596
      ],
      [
        "壌",
        -10.981391571567999
      ],
      [
        "叩",
        -10.981760529879429
      ],
      [
        "厩",
        -10.98385386890005
      ],
      [
        "琉",
        -10.98434705675234
      ],
      [
        "涼",
        -10.992022736643417
      ],
      [
        "蛇",
        -10.994262239909338
      ],
      [
        "於",
        -10.994760589137226
      ],
      [
        "乏",
        -10.995633298329992
      ],
      [
        "潤",
        -10.996756473287494
      ],
      [
        "鼓",
        -10.996881348412368
      ],
      [
        "亮",
        -11.001638195330361
      ],
      [
        "澄",
        -11.004402537100875
      ],
      [
        "讃",
        -11.004654220232808
      ],
      [
        "嫁",
        -11.00465422023281
      ],
      [
        "般",
        -11.004719400742628
      ],
      [
        "尺",
        -11.00616565070936
      ],
      [
        "稀",
        -11.008689789106816
      ],
      [
        "惨",
        -11.009827733342394
      ],
      [
        "穏",
        -11.016810115388886
      ],
      [
        "琴",
        -11.020000114261704
      ],
      [
        "篠",
        -11.022047066934238
      ],
      [
        "巧",
        -11.024098218217839
      ],
      [
        "糧",
        -11.024611664091964
      ],
      [
        "搭",
        -11.02585109872949
      ],
      [
        "謙",
        -11.0283420517418
      ],
      [
        "帽",
        -11.030922864835967
      ],
      [
        "偉",
        -11.033251305183597
      ],
      [
        "嗣",
        -11.035066070083806
      ],
      [
        "к",
        -11.035195822257148
      ],
      [
        "猿",
        -11.041443808730499
      ],
      [
        "磯",
        -11.042488945671751
      ],
      [
        "奮",
        -11.043011924044698
      ],
      [
        "責",
        -11.044459465101877
      ],
      [
        "幽",
        -11.047205626535128
      ],
      [
        "淳",
        -11.050757794453995
      ],
      [
        "是",
        -11.052340595019569
      ],
      [
        "胡",
        -11.058032958806686
      ],
      [
        "淵",
        -11.060159346740123
      ],
      [
        "涙",
        -11.063624399845448
      ],
      [
        "粛",
        -11.068039713407394
      ],
      [
        "庵",
        -11.068978806579373
      ],
      [
        "鉛",
        -11.070321899922765
      ],
      [
        "※",
        -11.071128622654376
      ],
      [
        "焦",
        -11.073013510452933
      ],
      [
        "累",
        -11.075307089436555
      ],
      [
        "諾",
        -11.076388243672257
      ],
      [
        "仰",
        -11.079168605458728
      ],
      [
        "}",
        -11.07923184748
      ],
      [
        "膝",
        -11.080588791847658
      ],
      [
        "{",
        -11.081811618085327
      ],
      [
        "拍",
        -11.082083560434587
      ],
      [
        "л",
        -11.082491612670301
      ],
      [
        "鋳",
        -11.085489094302336
      ],
      [
        "奴",
        -11.086162259210676
      ],
      [
        "穀",
        -11.087401271348577
      ],
      [
        "企",
        -11.09037558408584
      ],
      [
        "跳",
        -11.093022344544396
      ],
      [
        "泣",
        -11.094673531707446
      ],
      [
        "渉",
        -11.098798628410709
      ],
      [
        "帥",
        -11.103526207254859
      ],
      [
        "鳳",
        -11.107703031976918
      ],
      [
        "闇",
        -11.111057098423771
      ],
      [
        "吐",
        -11.116813115991187
      ],
      [
        "醸",
        -11.11765824597882
      ],
      [
        "擢",
        -11.117940114770299
      ],
      [
        "据",
        -11.119068385108836
      ],
      [
        "т",
        -11.119491814895676
      ],
      [
        "賠",
        -11.119774201060174
      ],
      [
        "甥",
        -11.120480515539557
      ],
      [
        "鐘",
        -11.120904543813756
      ],
      [
        "|",
        -11.121470194680033
      ],
      [
        "蹴",
        -11.12458700671832
      ],
      [
        "俺",
        -11.126006957256255
      ],
      [
        "宛",
        -11.127144371182323
      ],
      [
        "碁",
        -11.13027894665804
      ],
      [
        "隅",
        -11.13027894665804
      ],
      [
        "賭",
        -11.131135538899695
      ],
      [
        "堺",
        -11.131278375637304
      ],
      [
        "擬",
        -11.131278375637306
      ],
      [
        "諭",
        -11.134425956741216
      ],
      [
        "遡",
        -11.13600347033111
      ],
      [
        "雰",
        -11.137727237184624
      ],
      [
        "呪",
        -11.140750997582634
      ],
      [
        "肖",
        -11.143350089359638
      ],
      [
        "囚",
        -11.144362674429203
      ],
      [
        "ü",
        -11.146390925754801
      ],
      [
        "疲",
        -11.148859345763807
      ],
      [
        "膚",
        -11.150896747323603
      ],
      [
        "猪",
        -11.151042434969291
      ],
      [
        "菩",
        -11.151771191741254
      ],
      [
        "壮",
        -11.153960654004509
      ],
      [
        "砕",
        -11.158647590441335
      ],
      [
        "辻",
        -11.163504112119238
      ],
      [
        "酔",
        -11.163946785875112
      ],
      [
        "蒙",
        -11.164242010616553
      ],
      [
        "窮",
        -11.165719443105408
      ],
      [
        "刃",
        -11.166311027829117
      ],
      [
        "敦",
        -11.166902962732483
      ],
      [
        "漠",
        -11.16719906163114
      ],
      [
        "貢",
        -11.167588471459199
      ],
      [
        "循",
        -11.17090771444356
      ],
      [
        "殆",
        -11.17239503530695
      ],
      [
        "宜",
        -11.173139526108276
      ],
      [
        "篤",
        -11.173586486782352
      ],
      [
        "遮",
        -11.17477935950789
      ],
      [
        "廊",
        -11.175077800157165
      ],
      [
        "忌",
        -11.177169382300708
      ],
      [
        "楼",
        -11.178067115582934
      ],
      [
        "汽",
        -11.181515911917334
      ],
      [
        "伎",
        -11.183320016740634
      ],
      [
        "胆",
        -11.18784457011098
      ],
      [
        "棚",
        -11.191479010388477
      ],
      [
        "娠",
        -11.192997267718122
      ],
      [
        "択",
        -11.19345260755856
      ],
      [
        "岬",
        -11.193757261673287
      ],
      [
        "稽",
        -11.194822224498191
      ],
      [
        "斑",
        -11.195126708019783
      ],
      [
        "零",
        -11.199093453620852
      ],
      [
        "萩",
        -11.199705121197413
      ],
      [
        "諏",
        -11.20047023217433
      ],
      [
        "鍋",
        -11.201082742719809
      ],
      [
        "貼",
        -11.201542371959421
      ],
      [
        "漫",
        -11.201987421731959
      ],
      [
        "刈",
        -11.203383004425774
      ],
      [
        "苗",
        -11.203383004425776
      ],
      [
        "叫",
        -11.210315708191724
      ],
      [
        "臭",
        -11.210315708191727
      ],
      [
        "餌",
        -11.212482388598595
      ],
      [
        "窟",
        -11.213567491787684
      ],
      [
        "拾",
        -11.213877737659404
      ],
      [
        "髄",
        -11.215585812605411
      ],
      [
        "隙",
        -11.221978101274962
      ],
      [
        "烏",
        -11.227467450054128
      ],
      [
        "牝",
        -11.229041386001835
      ],
      [
        "嶺",
        -11.229514050260484
      ],
      [
        "己",
        -11.230862138793302
      ],
      [
        "俵",
        -11.23251278987516
      ],
      [
        "廠",
        -11.235837682101602
      ],
      [
        "墨",
        -11.236154915825544
      ],
      [
        "簿",
        -11.236472250218656
      ],
      [
        "捧",
        -11.239332800434982
      ],
      [
        "坪",
        -11.240606787386985
      ],
      [
        "駄",
        -11.241084951245899
      ],
      [
        "嘆",
        -11.243639027175943
      ],
      [
        "把",
        -11.246840822908451
      ],
      [
        "胤",
        -11.25053560622022
      ],
      [
        "帆",
        -11.254890451802797
      ],
      [
        "傑",
        -11.255052107153592
      ],
      [
        "恭",
        -11.256508182476432
      ],
      [
        "勾",
        -11.257318030267546
      ],
      [
        "ā",
        -11.260401447179548
      ],
      [
        "倶",
        -11.260889172761223
      ],
      [
        "\\",
        -11.261702577717223
      ],
      [
        "綾",
        -11.262679537818842
      ],
      [
        "鞭",
        -11.263168376022053
      ],
      [
        "縛",
        -11.26594298200677
      ],
      [
        "顎",
        -11.266760509846428
      ],
      [
        "鍛",
        -11.267415013672636
      ],
      [
        "哉",
        -11.268725307854389
      ],
      [
        "缶",
        -11.272337494681697
      ],
      [
        "鯨",
        -11.27250199542195
      ],
      [
        "隈",
        -11.273489568539242
      ],
      [
        "遼",
        -11.273818976430796
      ],
      [
        "胎",
        -11.27431329181295
      ],
      [
        "吊",
        -11.274478117921406
      ],
      [
        "錯",
        -11.274972759315366
      ],
      [
        "靴",
        -11.275797705738764
      ],
      [
        "逝",
        -11.276458153214419
      ],
      [
        "鶏",
        -11.278111182763029
      ],
      [
        "誉",
        -11.278285345869872
      ],
      [
        "玩",
        -11.282421891575412
      ],
      [
        "瓶",
        -11.285417151316793
      ],
      [
        "汁",
        -11.285750512432536
      ],
      [
        "戴",
        -11.285917234673281
      ],
      [
        "綴",
        -11.28608398471497
      ],
      [
        "培",
        -11.286914932944478
      ],
      [
        "靖",
        -11.288254269368133
      ],
      [
        "煮",
        -11.290596778590794
      ],
      [
        "裸",
        -11.292105580214649
      ],
      [
        "倣",
        -11.292273365449551
      ],
      [
        "凝",
        -11.293112714162293
      ],
      [
        "妥",
        -11.293616661761224
      ],
      [
        "頑",
        -11.293952767973158
      ],
      [
        "輌",
        -11.29513003013124
      ],
      [
        "槍",
        -11.295466645466453
      ],
      [
        "堆",
        -11.295803374149706
      ],
      [
        "崖",
        -11.296308679869217
      ],
      [
        "憧",
        -11.298839045585794
      ],
      [
        "棲",
        -11.29934588796746
      ],
      [
        "ヵ",
        -11.299683925661077
      ],
      [
        "徐",
        -11.302367727886176
      ],
      [
        "骸",
        -11.302561869066025
      ],
      [
        "矛",
        -11.303240237614116
      ],
      [
        "舗",
        -11.305327382841238
      ],
      [
        "貌",
        -11.308513255432462
      ],
      [
        "−",
        -11.314843473304823
      ],
      [
        "ヲ",
        -11.316045602933162
      ],
      [
        "悼",
        -11.318971091159373
      ],
      [
        "錬",
        -11.318971091159375
      ],
      [
        "樽",
        -11.32086862493086
      ],
      [
        "鴨",
        -11.32190516298429
      ],
      [
        "曾",
        -11.322078023831308
      ],
      [
        "暇",
        -11.323288887148697
      ],
      [
        "痕",
        -11.32415468806642
      ],
      [
        "朴",
        -11.324501218433744
      ],
      [
        "宴",
        -11.328320999090812
      ],
      [
        "豚",
        -11.332679443915037
      ],
      [
        "酬",
        -11.337232468142092
      ],
      [
        "鞍",
        -11.33846183253683
      ],
      [
        "ぴ",
        -11.33934087619173
      ],
      [
        "燕",
        -11.344277851736026
      ],
      [
        "潰",
        -11.344808261930956
      ],
      [
        "曳",
        -11.346046980896945
      ],
      [
        "廻",
        -11.352263697172253
      ],
      [
        "揆",
        -11.355475977966458
      ],
      [
        "儒",
        -11.356549035385706
      ],
      [
        "漂",
        -11.35762324549419
      ],
      [
        "唄",
        -11.35762324549419
      ],
      [
        "挫",
        -11.358340027173352
      ],
      [
        "蒋",
        -11.3610325436016
      ],
      [
        "惜",
        -11.361571917939008
      ],
      [
        "填",
        -11.363552116600523
      ],
      [
        "戚",
        -11.367162554667336
      ],
      [
        "轄",
        -11.367165441925323
      ],
      [
        "股",
        -11.367705246430262
      ],
      [
        "藍",
        -11.367705246430262
      ],
      [
        "狼",
        -11.368429293885022
      ],
      [
        "鷲",
        -11.368429293885022
      ],
      [
        "橘",
        -11.369516348975958
      ],
      [
        "坑",
        -11.370423131770465
      ],
      [
        "汎",
        -11.377341684610112
      ],
      [
        "畳",
        -11.379353389745273
      ],
      [
        "┃",
        -11.379719589510344
      ],
      [
        "遍",
        -11.385965591244458
      ],
      [
        "究",
        -11.388880975395066
      ],
      [
        "臼",
        -11.392250850849319
      ],
      [
        "潔",
        -11.393178494697967
      ],
      [
        "凱",
        -11.399696208627295
      ],
      [
        "癒",
        -11.401753437699195
      ],
      [
        "湘",
        -11.403627325621418
      ],
      [
        "畠",
        -11.404377865104678
      ],
      [
        "抹",
        -11.405880636116612
      ],
      [
        "聘",
        -11.406821016096622
      ],
      [
        "塊",
        -11.407762281223581
      ],
      [
        "芦",
        -11.410591404188583
      ],
      [
        "赦",
        -11.41267119317181
      ],
      [
        "袖",
        -11.41399695093779
      ],
      [
        "慌",
        -11.41399695093779
      ],
      [
        "胃",
        -11.416653751050326
      ],
      [
        "椅",
        -11.417033870791476
      ],
      [
        "粗",
        -11.417794544021639
      ],
      [
        "枯",
        -11.417984802773542
      ],
      [
        "楕",
        -11.41950817733756
      ],
      [
        "甚",
        -11.419698762433804
      ],
      [
        "淀",
        -11.420080041628959
      ],
      [
        "飢",
        -11.420080041628959
      ],
      [
        "鳩",
        -11.420461466253384
      ],
      [
        "腺",
        -11.423518112047404
      ],
      [
        "辱",
        -11.427544191093023
      ],
      [
        "楠",
        -11.427928473928734
      ],
      [
        "廉",
        -11.432744510962822
      ],
      [
        "詠",
        -11.439331767155284
      ],
      [
        "翻",
        -11.441204505041469
      ],
      [
        "湧",
        -11.442446731213845
      ],
      [
        "鄭",
        -11.443812585080387
      ],
      [
        "姻",
        -11.444984803634254
      ],
      [
        "粧",
        -11.447529334261127
      ],
      [
        "盟",
        -11.448222967249098
      ],
      [
        "β",
        -11.44988389239032
      ],
      [
        "圭",
        -11.452244007550409
      ],
      [
        "舌",
        -11.453623318109454
      ],
      [
        "尖",
        -11.45382051787281
      ],
      [
        "跨",
        -11.455004533794169
      ],
      [
        "肪",
        -11.455992285747994
      ],
      [
        "吏",
        -11.458565016230496
      ],
      [
        "á",
        -11.459159664412573
      ],
      [
        "挺",
        -11.460945733545932
      ],
      [
        "詣",
        -11.461541799526254
      ],
      [
        "凡",
        -11.463929622760181
      ],
      [
        "綻",
        -11.467122282350656
      ],
      [
        "μ",
        -11.4681220824706
      ],
      [
        "瘍",
        -11.468722442702761
      ],
      [
        "藻",
        -11.470726250600281
      ],
      [
        "殴",
        -11.470926852405698
      ],
      [
        "婿",
        -11.472332192925384
      ],
      [
        "褒",
        -11.473538344439545
      ],
      [
        "笹",
        -11.475350303858106
      ],
      [
        "脊",
        -11.47575340776223
      ],
      [
        "睦",
        -11.477569388884671
      ],
      [
        "鰭",
        -11.480603371784179
      ],
      [
        "倭",
        -11.48425634387033
      ],
      [
        "汗",
        -11.487922709101236
      ],
      [
        "晃",
        -11.488330914024356
      ],
      [
        "窒",
        -11.488739285646787
      ],
      [
        "凶",
        -11.4889435340128
      ],
      [
        "馴",
        -11.48996540207282
      ],
      [
        "笛",
        -11.49406334857802
      ],
      [
        "悔",
        -11.497147866743752
      ],
      [
        "匿",
        -11.49900315483893
      ],
      [
        "學",
        -11.500241928607066
      ],
      [
        "丞",
        -11.505004828461649
      ],
      [
        "奔",
        -11.505212426551745
      ],
      [
        "陀",
        -11.505420067747758
      ],
      [
        "條",
        -11.505627752067594
      ],
      [
        "蕭",
        -11.506043250150396
      ],
      [
        "曰",
        -11.511878423506001
      ],
      [
        "抵",
        -11.511999375894193
      ],
      [
        "欺",
        -11.516697205073593
      ],
      [
        "薫",
        -11.51795810678061
      ],
      [
        "賄",
        -11.518168411722778
      ],
      [
        "喧",
        -11.520695526883767
      ],
      [
        "袁",
        -11.521750379298343
      ],
      [
        "ا",
        -11.524074978814939
      ],
      [
        "舵",
        -11.524921629301549
      ],
      [
        "騰",
        -11.529378342943353
      ],
      [
        "牙",
        -11.530442399221899
      ],
      [
        "扶",
        -11.532360558370542
      ],
      [
        "頓",
        -11.5336413782654
      ],
      [
        "梶",
        -11.534709982765671
      ],
      [
        "憂",
        -11.537493710462721
      ],
      [
        "湊",
        -11.537493710462721
      ],
      [
        "哀",
        -11.539855240104163
      ],
      [
        "遽",
        -11.541791557397037
      ],
      [
        "紡",
        -11.542006935385407
      ],
      [
        "樺",
        -11.542653347816534
      ],
      [
        "俸",
        -11.549357525149917
      ],
      [
        "槻",
        -11.552400013630724
      ],
      [
        "藝",
        -11.554578901073087
      ],
      [
        "ä",
        -11.555888516010054
      ],
      [
        "惣",
        -11.56004698116752
      ],
      [
        "讐",
        -11.560485721986666
      ],
      [
        "喚",
        -11.562682318138375
      ],
      [
        "嚢",
        -11.563342238969167
      ],
      [
        "腎",
        -11.563562309391703
      ],
      [
        "懇",
        -11.565104159911185
      ],
      [
        "槽",
        -11.568416152326877
      ],
      [
        "姦",
        -11.56863734232909
      ],
      [
        "昨",
        -11.570630257063815
      ],
      [
        "莫",
        -11.580878759332036
      ],
      [
        "桓",
        -11.581102723497766
      ],
      [
        "嘱",
        -11.581550802365268
      ],
      [
        "隷",
        -11.581759592552256
      ],
      [
        "暁",
        -11.582896244876752
      ],
      [
        "侶",
        -11.584243500042879
      ],
      [
        "肌",
        -11.586267792223575
      ],
      [
        "抄",
        -11.58716879464585
      ],
      [
        "欄",
        -11.588973238569784
      ],
      [
        "惹",
        -11.591459677453225
      ],
      [
        "裔",
        -11.591459677453226
      ],
      [
        "灌",
        -11.59236537206578
      ],
      [
        "叶",
        -11.592818527163926
      ],
      [
        "杜",
        -11.593952314128593
      ],
      [
        "爪",
        -11.594406189091886
      ],
      [
        "汲",
        -11.595541778579925
      ],
      [
        "彗",
        -11.599184355158645
      ],
      [
        "諦",
        -11.602382530343606
      ],
      [
        "遥",
        -11.602611363295551
      ],
      [
        "擦",
        -11.60306918635294
      ],
      [
        "穫",
        -11.603527219108289
      ],
      [
        "拶",
        -11.605590966678765
      ],
      [
        "挨",
        -11.605590966678765
      ],
      [
        "窪",
        -11.608119122461462
      ],
      [
        "ö",
        -11.609040038834209
      ],
      [
        "д",
        -11.609500815248564
      ],
      [
        "毅",
        -11.609731283098306
      ],
      [
        "盲",
        -11.613194689915979
      ],
      [
        "惧",
        -11.61435182959096
      ],
      [
        "溜",
        -11.614583418289431
      ],
      [
        "鱗",
        -11.615278506358793
      ],
      [
        "漬",
        -11.616670133621094
      ],
      [
        "麺",
        -11.618993824675961
      ],
      [
        "辿",
        -11.62202271793782
      ],
      [
        "詐",
        -11.622256090166529
      ],
      [
        "其",
        -11.622489516870548
      ],
      [
        "租",
        -11.623190124088914
      ],
      [
        "央",
        -11.626335306287668
      ],
      [
        "縫",
        -11.627404106660437
      ],
      [
        "@",
        -11.628108166766081
      ],
      [
        "泌",
        -11.628108166766083
      ],
      [
        "黎",
        -11.628342963666764
      ],
      [
        "廟",
        -11.629752903971394
      ],
      [
        "焉",
        -11.629752903971394
      ],
      [
        "聡",
        -11.630929374689895
      ],
      [
        "皿",
        -11.634467114212294
      ],
      [
        "耗",
        -11.641818344816864
      ],
      [
        "棺",
        -11.642056383379108
      ],
      [
        "窯",
        -11.6434858058909
      ],
      [
        "萌",
        -11.644201284095946
      ],
      [
        "絹",
        -11.644439890633766
      ],
      [
        "祇",
        -11.645394886523702
      ],
      [
        "掴",
        -11.646111732429125
      ],
      [
        "耶",
        -11.647307618717587
      ],
      [
        "凌",
        -11.649943613521515
      ],
      [
        "俣",
        -11.652105516827325
      ],
      [
        "霞",
        -11.654513126020099
      ],
      [
        "牟",
        -11.656201908077929
      ],
      [
        "飽",
        -11.657168208426231
      ],
      [
        "韻",
        -11.657893546945793
      ],
      [
        "獅",
        -11.658377398410476
      ],
      [
        "昧",
        -11.659103614851336
      ],
      [
        "拐",
        -11.659345804243442
      ],
      [
        "悠",
        -11.661285433887985
      ],
      [
        "巴",
        -11.661528152334586
      ],
      [
        "泡",
        -11.661770929707735
      ],
      [
        "恥",
        -11.664932410924614
      ],
      [
        "鉢",
        -11.665663405105594
      ],
      [
        "憎",
        -11.666394934029984
      ],
      [
        "迅",
        -11.66932641284613
      ],
      [
        "睡",
        -11.669571091094234
      ],
      [
        "庇",
        -11.673248467124813
      ],
      [
        "堰",
        -11.676446501814642
      ],
      [
        "綬",
        -11.677185964501723
      ],
      [
        "爾",
        -11.67743257362626
      ],
      [
        "腔",
        -11.68089150231978
      ],
      [
        "塵",
        -11.685107778385484
      ],
      [
        "邑",
        -11.689341906731652
      ],
      [
        "輿",
        -11.69159078322997
      ],
      [
        "拉",
        -11.692341534012066
      ],
      [
        "苑",
        -11.693594039179278
      ],
      [
        "卑",
        -11.697612630526253
      ],
      [
        "娯",
        -11.699375855155107
      ],
      [
        "愚",
        -11.700889668984798
      ],
      [
        "榴",
        -11.701647436129937
      ],
      [
        "賑",
        -11.702405777921596
      ],
      [
        "撰",
        -11.703670960269843
      ],
      [
        "枕",
        -11.70544490902763
      ],
      [
        "斯",
        -11.70544490902763
      ],
      [
        "云",
        -11.707222010272773
      ],
      [
        "畔",
        -11.710020994273307
      ],
      [
        "恨",
        -11.710785715183313
      ],
      [
        "■",
        -11.711040752245607
      ],
      [
        "眺",
        -11.711295854204492
      ],
      [
        "й",
        -11.711806253600312
      ],
      [
        "【",
        -11.713083392975145
      ],
      [
        "】",
        -11.714362165520953
      ],
      [
        "漆",
        -11.7202656733937
      ],
      [
        "猶",
        -11.729316679015627
      ],
      [
        "ヂ",
        -11.733481724711261
      ],
      [
        "嘩",
        -11.738712546076103
      ],
      [
        "灘",
        -11.738974806763224
      ],
      [
        "魯",
        -11.740024537860023
      ],
      [
        "’",
        -11.741601203530344
      ],
      [
        "寅",
        -11.745817839085513
      ],
      [
        "廣",
        -11.748462293870475
      ],
      [
        "癖",
        -11.74978714832254
      ],
      [
        "熙",
        -11.75777334804865
      ],
      [
        "誕",
        -11.760275156173533
      ],
      [
        "傘",
        -11.761063894726178
      ],
      [
        "虹",
        -11.761790493223305
      ],
      [
        "★",
        -11.764477583363535
      ],
      [
        "巳",
        -11.765015868933775
      ],
      [
        "伽",
        -11.765554444411427
      ],
      [
        "撫",
        -11.766093310108932
      ],
      [
        "蝶",
        -11.767711651652599
      ],
      [
        "渕",
        -11.767981630054326
      ],
      [
        "冶",
        -11.76960303291285
      ],
      [
        "喰",
        -11.770956213084009
      ],
      [
        "迦",
        -11.771769000986149
      ],
      [
        "哺",
        -11.77285374684858
      ],
      [
        "叡",
        -11.773668079136138
      ],
      [
        "鐵",
        -11.773668079136138
      ],
      [
        "峯",
        -11.775842879490604
      ],
      [
        "摘",
        -11.776244199510378
      ],
      [
        "閑",
        -11.776659650562822
      ],
      [
        "嘘",
        -11.778022419912196
      ],
      [
        "м",
        -11.778568048076755
      ],
      [
        "栖",
        -11.779113974113953
      ],
      [
        "忙",
        -11.78458968933571
      ],
      [
        "樋",
        -11.784864263745376
      ],
      [
        "董",
        -11.785413638841579
      ],
      [
        "ο",
        -11.787889568563969
      ],
      [
        "$",
        -11.788440608662597
      ],
      [
        "萬",
        -11.788991952573832
      ],
      [
        "沸",
        -11.789819538822714
      ],
      [
        "傭",
        -11.791200373057093
      ],
      [
        "于",
        -11.792859894932008
      ],
      [
        "肯",
        -11.794244936695812
      ],
      [
        "亘",
        -11.79479949098347
      ],
      [
        "殉",
        -11.798133290410345
      ],
      [
        "剖",
        -11.799247031295108
      ],
      [
        "坦",
        -11.799525660439716
      ],
      [
        "溢",
        -11.811298746590612
      ],
      [
        "謳",
        -11.812145008976831
      ],
      [
        "肘",
        -11.814405216167811
      ],
      [
        "卸",
        -11.816387096757985
      ],
      [
        "寵",
        -11.818656923224452
      ],
      [
        "貰",
        -11.820078185534856
      ],
      [
        "牌",
        -11.820362680556192
      ],
      [
        "或",
        -11.8209319135263
      ],
      [
        "〇",
        -11.824354132727862
      ],
      [
        "汰",
        -11.82549747999341
      ],
      [
        "憤",
        -11.82893538623524
      ],
      [
        "儲",
        -11.829509521455913
      ],
      [
        "悦",
        -11.832961272306436
      ],
      [
        "諱",
        -11.834691626006643
      ],
      [
        "餅",
        -11.836714163521096
      ],
      [
        "嶽",
        -11.837582219125105
      ],
      [
        "у",
        -11.837871738522896
      ],
      [
        "諮",
        -11.83990072471202
      ],
      [
        "濱",
        -11.845428815562258
      ],
      [
        "糾",
        -11.846012501551632
      ],
      [
        "暑",
        -11.84747320878315
      ],
      [
        "渦",
        -11.847765606443962
      ],
      [
        "帖",
        -11.849521790111236
      ],
      [
        "鴻",
        -11.850694295000471
      ],
      [
        "脆",
        -11.850987636156237
      ],
      [
        "憩",
        -11.854220080910517
      ],
      [
        "蛍",
        -11.855692835216143
      ],
      [
        "盧",
        -11.855987646536896
      ],
      [
        "楚",
        -11.856282544796997
      ],
      [
        "茅",
        -11.858644866858786
      ],
      [
        "牢",
        -11.85894054988658
      ],
      [
        "醍",
        -11.861605638800189
      ],
      [
        "醐",
        -11.862198846584256
      ],
      [
        "詔",
        -11.86279240647268
      ],
      [
        "歪",
        -11.863089318586695
      ],
      [
        "峙",
        -11.865467794493489
      ],
      [
        "圓",
        -11.8660632984519
      ],
      [
        "朋",
        -11.866361183468284
      ],
      [
        "翁",
        -11.868747463479293
      ],
      [
        "隼",
        -11.869643788599857
      ],
      [
        "婆",
        -11.872337594458958
      ],
      [
        "諜",
        -11.87533924759814
      ],
      [
        "ó",
        -11.87563990905334
      ],
      [
        "紳",
        -11.875639909053342
      ],
      [
        "纏",
        -11.879556756453708
      ],
      [
        "濫",
        -11.87985868882086
      ],
      [
        "蒼",
        -11.881067330747587
      ],
      [
        "柵",
        -11.883792128052958
      ],
      [
        "弊",
        -11.88439864815788
      ],
      [
        "璧",
        -11.884702046216132
      ],
      [
        "葺",
        -11.886220418801065
      ],
      [
        "蜜",
        -11.887436778984236
      ],
      [
        "喉",
        -11.888045514350638
      ],
      [
        "逢",
        -11.88987394696534
      ],
      [
        "冥",
        -11.895992980848849
      ],
      [
        "尹",
        -11.896606948630007
      ],
      [
        "頁",
        -11.89691407393713
      ],
      [
        "祷",
        -11.897528607674174
      ],
      [
        "蝦",
        -11.898143519295163
      ],
      [
        "餓",
        -11.899374478049902
      ],
      [
        "ν",
        -11.900606953931785
      ],
      [
        "苻",
        -11.900606953931794
      ],
      [
        "惟",
        -11.903076472067973
      ],
      [
        "醒",
        -11.907723320541185
      ],
      [
        "霜",
        -11.908344535030464
      ],
      [
        "憑",
        -11.914265399895708
      ],
      [
        "箕",
        -11.918650684882822
      ],
      [
        "醤",
        -11.920535995716392
      ],
      [
        "隋",
        -11.922424867661727
      ],
      [
        "紐",
        -11.923055285329085
      ],
      [
        "紹",
        -11.923574182829812
      ],
      [
        "壺",
        -11.924001657631615
      ],
      [
        "眞",
        -11.924317314197271
      ],
      [
        "噛",
        -11.92779612855589
      ],
      [
        "杖",
        -11.9284299425474
      ],
      [
        "迂",
        -11.929064158513878
      ],
      [
        "瑠",
        -11.93479027559064
      ],
      [
        "酢",
        -11.936706290849958
      ],
      [
        "曖",
        -11.937985676908335
      ],
      [
        "蛮",
        -11.93862598427227
      ],
      [
        "壕",
        -11.939266701892425
      ],
      [
        "í",
        -11.943119652524029
      ],
      [
        "欽",
        -11.94601913906637
      ],
      [
        "荻",
        -11.946341823803383
      ],
      [
        "怠",
        -11.948280121922043
      ],
      [
        "翅",
        -11.951194631731669
      ],
      [
        "幌",
        -11.953088641115043
      ],
      [
        "瞭",
        -11.953142368087505
      ],
      [
        "濁",
        -11.954442969787591
      ],
      [
        "稜",
        -11.95476838469159
      ],
      [
        "購",
        -11.956689270828193
      ],
      [
        "梱",
        -11.958681645805978
      ],
      [
        "舘",
        -11.962938364703644
      ],
      [
        "仇",
        -11.96490913228059
      ],
      [
        "頸",
        -11.965566918846644
      ],
      [
        "錐",
        -11.965566918846644
      ],
      [
        "錠",
        -11.965566918846646
      ],
      [
        "棘",
        -11.971837566399707
      ],
      [
        "仔",
        -11.972499927735969
      ],
      [
        "扮",
        -11.976483335456246
      ],
      [
        "〔",
        -11.978481005487849
      ],
      [
        "я",
        -11.980148784377969
      ],
      [
        "杵",
        -11.980148784377976
      ],
      [
        "〕",
        -11.980482674194334
      ],
      [
        "晒",
        -11.980816675530342
      ],
      [
        "崔",
        -11.982153797562336
      ],
      [
        "襄",
        -11.984498071889314
      ],
      [
        "榎",
        -11.98752023668634
      ],
      [
        "拷",
        -11.988866358364369
      ],
      [
        "瞳",
        -11.989203172106368
      ],
      [
        "弧",
        -11.991564050077702
      ],
      [
        "蔑",
        -11.99257756366833
      ],
      [
        "桶",
        -11.993592105510988
      ],
      [
        "膳",
        -11.993592105510992
      ],
      [
        "徽",
        -11.994946431081729
      ],
      [
        "鬱",
        -11.996302593337955
      ],
      [
        "狗",
        -12.000041550750911
      ],
      [
        "柿",
        -12.004820532320855
      ],
      [
        "蔽",
        -12.005847577933457
      ],
      [
        "ゥ",
        -12.00757602181237
      ],
      [
        "捻",
        -12.01134304079092
      ],
      [
        "此",
        -12.014447562053178
      ],
      [
        "痺",
        -12.01686887071805
      ],
      [
        "漑",
        -12.020338084917267
      ],
      [
        "譚",
        -12.021033374352491
      ],
      [
        "梓",
        -12.021729147551484
      ],
      [
        "凄",
        -12.023819376474616
      ],
      [
        "ч",
        -12.025215293630062
      ],
      [
        "琵",
        -12.025215293630062
      ],
      [
        "鵬",
        -12.02556457759793
      ],
      [
        "寂",
        -12.026263511744727
      ],
      [
        "琶",
        -12.027312829773647
      ],
      [
        "瀧",
        -12.02766284727452
      ],
      [
        "粟",
        -12.027662847274524
      ],
      [
        "戊",
        -12.028713635451533
      ],
      [
        "乞",
        -12.030116406138866
      ],
      [
        "唇",
        -12.034689048600153
      ],
      [
        "埴",
        -12.035394391595105
      ],
      [
        "è",
        -12.036100232449975
      ],
      [
        "伺",
        -12.03680657186808
      ],
      [
        "謁",
        -12.038574606256475
      ],
      [
        "扁",
        -12.039991287902371
      ],
      [
        "麟",
        -12.040700382056901
      ],
      [
        "梗",
        -12.04354179754201
      ],
      [
        "侮",
        -12.043897542828386
      ],
      [
        "宙",
        -12.044533212986174
      ],
      [
        "賓",
        -12.048891310955923
      ],
      [
        "狐",
        -12.049248964747054
      ],
      [
        "庸",
        -12.049606746500185
      ],
      [
        "炊",
        -12.049964656306914
      ],
      [
        "鈍",
        -12.050680860448047
      ],
      [
        "ل",
        -12.052832555714538
      ],
      [
        "渠",
        -12.053191622141807
      ],
      [
        "ρ",
        -12.053191622141817
      ],
      [
        "蚕",
        -12.053550817544128
      ],
      [
        "杏",
        -12.053910142014118
      ],
      [
        "罹",
        -12.053910142014118
      ],
      [
        "溺",
        -12.057149885633544
      ],
      [
        "糞",
        -12.05895428884623
      ],
      [
        "ぁ",
        -12.060038495662717
      ],
      [
        "峨",
        -12.06040015931552
      ],
      [
[...]
