{
  "version": "1.0",
  "truncation": null,
  "padding": null,
  "added_tokens": [
    {
      "id": 0,
      "content": "<pad>",
      "single_word": false,
      "lstrip": false,
      "rstrip": false,
      "normalized": false,
      "special": true
    },
    {
      "id": 1,
      "content": "<s>",
      "single_word": false,
      "lstrip": false,
      "rstrip": false,
      "normalized": false,
      "special": true
    },
    {
      "id": 2,
      "content": "</s>",
      "single_word": false,
      "lstrip": false,
      "rstrip": false,
      "normalized": false,
      "special": true
    },
    {
      "id": 3,
      "content": "<unk>",
      "single_word": false,
      "lstrip": false,
      "rstrip": false,
      "normalized": false,
      "special": true
    },
    {
      "id": 4,
      "content": "<mask>",
      "single_word": false,
      "lstrip": false,
      "rstrip": false,
      "normalized": false,
      "special": true
    }
  ],
  "normalizer": {
    "type": "NFKC"
  },
  "pre_tokenizer": {
    "type": "UnicodeScripts"
  },
  "post_processor": {
    "type": "TemplateProcessing",
    "single": [
      {
        "SpecialToken": {
          "id": "<s>",
          "type_id": 0
        }
      },
      {
        "Sequence": {
          "id": "A",
          "type_id": 0
        }
      },
      {
        "SpecialToken": {
          "id": "</s>",
          "type_id": 0
        }
      }
    ],
    "pair": [
      {
        "Sequence": {
          "id": "A",
          "type_id": 0
        }
      },
      {
        "Sequence": {
          "id": "B",
          "type_id": 1
        }
      }
    ],
    "special_tokens": {
      "</s>": {
        "id": "</s>",
        "ids": [
          2
        ],
        "tokens": [
          "</s>"
        ]
      },
      "<s>": {
        "id": "<s>",
        "ids": [
          1
        ],
        "tokens": [
          "<s>"
        ]
      }
    }
  },
  "decoder": {
    "type": "Metaspace",
    "replacement": "▁",
    "prepend_scheme": "always",
    "split": true
  },
  "model": {
    "type": "Unigram",
    "unk_id": 3,
    "vocab": [
      [
        "<pad>",
        0.0
      ],
      [
        "<s>",
        0.0
      ],
      [
        "</s>",
        0.0
      ],
      [
        "<unk>",
        0.0
      ],
      [
        "<mask>",
        0.0
      ],
      [
        "、",
        -3.281782800566752
      ],
      [
        "の",
        -3.439350740600613
      ],
      [
        "。",
        -3.682284772280166
      ],
      [
        "を",
        -4.05516710630863
      ],
      [
        "は",
        -4.099202624333019
      ],
      [
        "に",
        -4.160844318125971
      ],
      [
        "が",
        -4.249413751222969
      ],
      [
        "・",
        -4.722961749154663
      ],
      [
        "で",
        -4.75451799628695
      ],
      [
        "年",
        -4.771711354799505
      ],
      [
        "と",
        -4.789099536325146
      ],
      [
        ")",
        -4.932653247912423
      ],
      [
        "(",
        -4.935812184579245
      ],
      [
        " ",
        -5.029359181665871
      ],
      [
        "した",
        -5.2643603441933315
      ],
      [
        "ス",
        -5.427837108146541
      ],
      [
        "し",
        -5.430196556631234
      ],
      [
        "」",
        -5.509731485859042
      ],
      [
        "も",
        -5.5473251498818605
      ],
      [
        "「",
        -5.560322254346136
      ],
      [
        "月",
        -5.5673959231332155
      ],
      [
        "する",
        -5.690631394412126
      ],
      [
        "い",
        -5.6994251769390445
      ],
      [
        "_",
        -5.7372897638642595
      ],
      [
        "から",
        -5.762040104077464
      ],
      [
        "1",
        -5.770627392346453
      ],
      [
        "2",
        -5.811868471260258
      ],
      [
        "や",
        -5.847378136269981
      ],
      [
        "た",
        -5.89865397541722
      ],
      [
        "ト",
        -5.93712481516417
      ],
      [
        "る",
        -5.943659325349712
      ],
      [
        "3",
        -5.954619441736698
      ],
      [
        "である",
        -5.963990444307019
      ],
      [
        "日",
        -6.008306185882496
      ],
      [
        "な",
        -6.0136506137379815
      ],
      [
        "された",
        -6.035671252566003
      ],
      [
        "として",
        -6.0482005396842045
      ],
      [
        "ル",
        -6.058859251440566
      ],
      [
        "ア",
        -6.073177585826132
      ],
      [
        "4",
        -6.084263596737847
      ],
      [
        "り",
        -6.097313307256387
      ],
      [
        "ド",
        -6.13744514658538
      ],
      [
        "ク",
        -6.138784193909993
      ],
      [
        "5",
        -6.139205727190339
      ],
      [
        "ART",
        -6.14612478998486
      ],
      [
        "大",
        -6.1973354923417965
      ],
      [
        "か",
        -6.218334950588618
      ],
      [
        "では",
        -6.228185091355037
      ],
      [
        "人",
        -6.265383624126187
      ],
      [
        "く",
        -6.294250399831421
      ],
      [
        "リ",
        -6.3355811191768066
      ],
      [
        "6",
        -6.339634841000709
      ],
      [
        "『",
        -6.342935756505748
      ],
      [
        "ン",
        -6.343134826693696
      ],
      [
        "』",
        -6.358223110333967
      ],
      [
        "て",
        -6.361301150334215
      ],
      [
        "イ",
        -6.3666908370348185
      ],
      [
        "この",
        -6.435342499022779
      ],
      [
        "マ",
        -6.442487068466908
      ],
      [
        "して",
        -6.446327971907676
      ],
      [
        "19",
        -6.45394447014195
      ],
      [
        "9",
        -6.456499665222928
      ],
      [
        "7",
        -6.461933323233614
      ],
      [
        "ラ",
        -6.469386116523962
      ],
      [
        "中",
        -6.481201091954093
      ],
      [
        "8",
        -6.498414153317368
      ],
      [
        "ロ",
        -6.507611749730312
      ],
      [
        "ー",
        -6.534764372387762
      ],
      [
        "一",
        -6.534857596041547
      ],
      [
        "上",
        -6.539503424676358
      ],
      [
        "には",
        -6.55900352816143
      ],
      [
        "長",
        -6.573002305327547
      ],
      [
        "している",
        -6.582976926842715
      ],
      [
        "A",
        -6.584387122974292
      ],
      [
        "ム",
        -6.585027482664071
      ],
      [
        "という",
        -6.607355641971983
      ],
      [
        "カ",
        -6.607623445027217
      ],
      [
        "本",
        -6.610248179120267
      ],
      [
        "き",
        -6.61276887987195
      ],
      [
        "コ",
        -6.641315525423307
      ],
      [
        "国",
        -6.650864378904981
      ],
      [
        "った",
        -6.651631088034014
      ],
      [
        "その",
        -6.658315093388342
      ],
      [
        "戦",
        -6.67810504181298
      ],
      [
        "つ",
        -6.68033384000192
      ],
      [
        "者",
        -6.681151312139914
      ],
      [
        "う",
        -6.696665062747488
      ],
      [
        "後",
        -6.6992088164419386
      ],
      [
        "地",
        -6.699334317866503
      ],
      [
        "山",
        -6.70044748995749
      ],
      [
        "同",
        -6.7015261225188425
      ],
      [
        "S",
        -6.706797658497782
      ],
      [
        "また",
        -6.724978578420725
      ],
      [
        "され",
        -6.741629139801999
      ],
      [
        "ズ",
        -6.7442220350171525
      ],
      [
        "ら",
        -6.752230328205792
      ],
      [
        "IC",
        -6.769675211105751
      ],
      [
        "ST",
        -6.777092676252943
      ],
      [
        "年に",
        -6.777355009148609
      ],
      [
        "レ",
        -6.785667307674494
      ],
      [
        "田",
        -6.803785763132801
      ],
      [
        "LE",
        -6.806640292321738
      ],
      [
        "C",
        -6.808507085625395
      ],
      [
        "め",
        -6.812743959482759
      ],
      [
        "フ",
        -6.818286871937882
      ],
      [
        "子",
        -6.828827685819602
      ],
      [
        "エ",
        -6.834079134781776
      ],
      [
        "出",
        -6.838920519212381
      ],
      [
        "タ",
        -6.846167878744991
      ],
      [
        "第",
        -6.856315983609823
      ],
      [
        "など",
        -6.860381710264463
      ],
      [
        "学",
        -6.86468082600971
      ],
      [
        "-",
        -6.865858740719219
      ],
      [
        "10",
        -6.866636171566455
      ],
      [
        "ミ",
        -6.873542218635638
      ],
      [
        "M",
        -6.874690958565937
      ],
      [
        "下",
        -6.8791157447056825
      ],
      [
        "e",
        -6.881465329351066
      ],
      [
        "部",
        -6.882557641983794
      ],
      [
        "行",
        -6.884995067651129
      ],
      [
        "日本",
        -6.9038383628379485
      ],
      [
        "ッ",
        -6.90666401503265
      ],
      [
        "シ",
        -6.907390112264242
      ],
      [
        "わ",
        -6.907888898976157
      ],
      [
        "用",
        -6.907927417164867
      ],
      [
        "ナ",
        -6.9082076724944965
      ],
      [
        "名",
        -6.927913788434539
      ],
      [
        "川",
        -6.92812582962363
      ],
      [
        "リー",
        -6.929492621532582
      ],
      [
        "P",
        -6.935986135409854
      ],
      [
        "生",
        -6.937853376387551
      ],
      [
        "市",
        -6.9538777910835154
      ],
      [
        "ブ",
        -6.956086971353095
      ],
      [
        "体",
        -6.960044028690179
      ],
      [
        "ている",
        -6.964885042519898
      ],
      [
        "家",
        -6.96764215470988
      ],
      [
        "される",
        -6.990624425285631
      ],
      [
        "前",
        -6.996369100680758
      ],
      [
        "ない",
        -7.006367029645618
      ],
      [
        "回",
        -7.01078311057611
      ],
      [
        "高",
        -7.023134933259419
      ],
      [
        "す",
        -7.025008237269091
      ],
      [
        "手",
        -7.031289956763342
      ],
      [
        "o",
        -7.03214876261036
      ],
      [
        "会",
        -7.042186720220981
      ],
      [
        "軍",
        -7.051126607785001
      ],
      [
        "って",
        -7.0534086319765095
      ],
      [
        "数",
        -7.053935550349918
      ],
      [
        "されている",
        -7.0556733407183785
      ],
      [
        "D",
        -7.064890111810875
      ],
      [
        "グ",
        -7.066785069984277
      ],
      [
        "分",
        -7.066996881822844
      ],
      [
        "大学",
        -7.069680011317423
      ],
      [
        "m",
        -7.073610244659289
      ],
      [
        "作",
        -7.074595169014293
      ],
      [
        "新",
        -7.080000909519413
      ],
      [
        "T",
        -7.080083243839978
      ],
      [
        "み",
        -7.083226276920811
      ],
      [
        "え",
        -7.092174290060507
      ],
      [
        "となった",
        -7.093222558330277
      ],
      [
        "オ",
        -7.094671193188164
      ],
      [
        "県",
        -7.095306846286043
      ],
      [
        "ニ",
        -7.095905550731361
      ],
      [
        "ット",
        -7.100407885019559
      ],
      [
        "ウ",
        -7.101687813297463
      ],
      [
        "発",
        -7.102032162239228
      ],
      [
        ".",
        -7.103139403604375
      ],
      [
        "E",
        -7.111628672835026
      ],
      [
        "け",
        -7.1152452933751125
      ],
      [
        "力",
        -7.121370866746998
      ],
      [
        "線",
        -7.12995963508234
      ],
      [
        "水",
        -7.132913808766695
      ],
      [
        "合",
        -7.136023822606326
      ],
      [
        "位",
        -7.139053125151717
      ],
      [
        "まで",
        -7.139054352369504
      ],
      [
        "B",
        -7.14444406246696
      ],
      [
        "バ",
        -7.144807037007883
      ],
      [
        "さ",
        -7.145000621610384
      ],
      [
        "スト",
        -7.145967265041621
      ],
      [
        "i",
        -7.148098091402346
      ],
      [
        "法",
        -7.1494418975672165
      ],
      [
        "キ",
        -7.151257869256943
      ],
      [
        "化",
        -7.155879758952372
      ],
      [
        "サ",
        -7.1586162654005605
      ],
      [
        "テ",
        -7.159022034404348
      ],
      [
        "機",
        -7.166096782636892
      ],
      [
        "12",
        -7.17031002047597
      ],
      [
        "日に",
        -7.17211026299951
      ],
      [
        "ジ",
        -7.175002411508469
      ],
      [
        "ター",
        -7.175223709458887
      ],
      [
        "れ",
        -7.185579357274772
      ],
      [
        "パ",
        -7.192367879577446
      ],
      [
        "ため",
        -7.201025261899412
      ],
      [
        "s",
        -7.2102980672543655
      ],
      [
        "東",
        -7.213248657420554
      ],
      [
        "ま",
        -7.217354877521828
      ],
      [
        "性",
        -7.218170375107954
      ],
      [
        "じ",
        -7.220418043839702
      ],
      [
        "北",
        -7.220505226426793
      ],
      [
        "三",
        -7.2265435649641425
      ],
      [
        "外",
        -7.232376780850302
      ],
      [
        "主",
        -7.237671839015359
      ],
      [
        "入",
        -7.2378210304825
      ],
      [
        "a",
        -7.238046448876748
      ],
      [
        "によって",
        -7.244733941127009
      ],
      [
        "チ",
        -7.246912240676915
      ],
      [
        "事",
        -7.249090361659192
      ],
      [
        "小",
        -7.249680908619732
      ],
      [
        "ん",
        -7.252092521641066
      ],
      [
        "L",
        -7.2561656216443176
      ],
      [
        "実",
        -7.257197678742891
      ],
      [
        "c",
        -7.265099025867377
      ],
      [
        "であった",
        -7.270197580042408
      ],
      [
        "プ",
        -7.271455913628742
      ],
      [
        "もの",
        -7.275450594317199
      ],
      [
        "所",
        -7.278188801589367
      ],
      [
        "がある",
        -7.2790669803261405
      ],
      [
        "11",
        -7.283422973156803
      ],
      [
        "R",
        -7.28523485694916
      ],
      [
        "I",
        -7.2853996680624515
      ],
      [
        "内",
        -7.298662604317592
      ],
      [
        "社",
        -7.300162400795889
      ],
      [
        "O",
        -7.302865934150152
      ],
      [
        "していた",
        -7.304358860077521
      ],
      [
        "ノ",
        -7.305881520578886
      ],
      [
        "により",
        -7.307029010421699
      ],
      [
        "いた",
        -7.311055706535754
      ],
      [
        "ール",
        -7.3110807321350535
      ],
      [
        "見",
        -7.311400013238185
      ],
      [
        "こ",
        -7.312990636129626
      ],
      [
        "町",
        -7.313483168311489
      ],
      [
        "面",
        -7.315522166538313
      ],
      [
        "へ",
        -7.3174250309415285
      ],
      [
        "ディ",
        -7.318701215155716
      ],
      [
        "による",
        -7.321280870442662
      ],
      [
        "ハ",
        -7.324278368570944
      ],
      [
        "立",
        -7.325672387636926
      ],
      [
        "車",
        -7.326044262925162
      ],
      [
        "的な",
        -7.326299814133643
      ],
      [
        "G",
        -7.329164806935479
      ],
      [
        "定",
        -7.329538704600795
      ],
      [
        "目",
        -7.3410130806807725
      ],
      [
        "西",
        -7.3477807230302705
      ],
      [
        "島",
        -7.350843539472226
      ],
      [
        "F",
        -7.357070985966516
      ],
      [
        "道",
        -7.362041115880659
      ],
      [
        "方",
        -7.364654516067656
      ],
      [
        "原",
        -7.364761100110055
      ],
      [
        "場",
        -7.3661230772815465
      ],
      [
        "間",
        -7.3680697708506155
      ],
      [
        "南",
        -7.368732111873721
      ],
      [
        "的",
        -7.369967479365744
      ],
      [
        "駅",
        -7.379395668940127
      ],
      [
        "イン",
        -7.384644310505575
      ],
      [
        "であり",
        -7.389664143084676
      ],
      [
        "野",
        -7.393825190475367
      ],
      [
        "書",
        -7.395604891648551
      ],
      [
        "p",
        -7.402736217050373
      ],
      [
        "全",
        -7.407328924621307
      ],
      [
        "正",
        -7.4083321566158755
      ],
      [
        "ネ",
        -7.409797656077835
      ],
      [
        "度",
        -7.412935655411918
      ],
      [
        "王",
        -7.415393589677745
      ],
      [
        "t",
        -7.417313394194155
      ],
      [
        "こと",
        -7.420378844195918
      ],
      [
        "メ",
        -7.42174202629359
      ],
      [
        "モ",
        -7.423848626889024
      ],
      [
        "ティ",
        -7.42544341521268
      ],
      [
        "デ",
        -7.425847751615148
      ],
      [
        "州",
        -7.426688539805928
      ],
      [
        "N",
        -7.435449316990503
      ],
      [
        "セ",
        -7.441074276887473
      ],
      [
        "バー",
        -7.44703786691146
      ],
      [
        "元",
        -7.450751932259662
      ],
      [
        "初",
        -7.453040242034966
      ],
      [
        "ビ",
        -7.454408793504843
      ],
      [
        "語",
        -7.457812751933698
      ],
      [
        "時",
        -7.458077693317557
      ],
      [
        "期",
        -7.463489779529102
      ],
      [
        "金",
        -7.468342045518989
      ],
      [
        "物",
        -7.473843941027768
      ],
      [
        "進",
        -7.475805582001771
      ],
      [
        "現",
        -7.479051180578521
      ],
      [
        "号",
        -7.480573016089982
      ],
      [
        "点",
        -7.48593639250527
      ],
      [
        "お",
        -7.488302919382267
      ],
      [
        "より",
        -7.495417874189041
      ],
      [
        "代",
        -7.49847414968437
      ],
      [
        "u",
        -7.5031599814173315
      ],
      [
        "あ",
        -7.507050430929517
      ],
      [
        "となる",
        -7.507227185172116
      ],
      [
        "海",
        -7.50786197600576
      ],
      [
        "られた",
        -7.508771800780355
      ],
      [
        "不",
        -7.509868495916605
      ],
      [
        "明",
        -7.514193755941077
      ],
      [
        "W",
        -7.5154556042929155
      ],
      [
        "レー",
        -7.522627476209985
      ],
      [
        "その後",
        -7.525428798786454
      ],
      [
        "ック",
        -7.528499752728408
      ],
      [
        "0",
        -7.5337948827074985
      ],
      [
        "ダ",
        -7.534028956764985
      ],
      [
        "、「",
        -7.537479552757283
      ],
      [
        "重",
        -7.544709125105092
      ],
      [
        "しかし",
        -7.5501974022587
      ],
      [
        "神",
        -7.5531395252636955
      ],
      [
        "ラン",
        -7.560836267079555
      ],
      [
        "だった",
        -7.563873164718387
      ],
      [
        "動",
        -7.565140200970822
      ],
      [
        "ツ",
        -7.566390539980478
      ],
      [
        "H",
        -7.566695037411222
      ],
      [
        "気",
        -7.571130867332789
      ],
      [
        "20",
        -7.573529202715324
      ],
      [
        "への",
        -7.573607856577382
      ],
      [
        "ガ",
        -7.573679873134264
      ],
      [
        "成",
        -7.573873524177403
      ],
      [
        "文",
        -7.574319792610474
      ],
      [
        "それ",
        -7.578916957674538
      ],
      [
        "式",
        -7.581746808649637
      ],
      [
        "せ",
        -7.584136159196534
      ],
      [
        "ボ",
        -7.584417110931156
      ],
      [
        "g",
        -7.586304650440971
      ],
      [
        "公",
        -7.58792710353722
      ],
      [
        "18",
        -7.5916784415328475
      ],
      [
        "17",
        -7.596220475589474
      ],
      [
        "世",
        -7.597521376527281
      ],
      [
        "なかった",
        -7.599364505294693
      ],
      [
        "村",
        -7.601941522919272
      ],
      [
        "側",
        -7.609676767959101
      ],
      [
        "最",
        -7.612010564703493
      ],
      [
        "でも",
        -7.612824085648894
      ],
      [
        "次",
        -7.61738823028128
      ],
      [
        "ケ",
        -7.623694311863405
      ],
      [
        "ず",
        -7.6247378997488475
      ],
      [
        "通",
        -7.627604471759685
      ],
      [
        "流",
        -7.627693000118564
      ],
      [
        "K",
        -7.634080790945628
      ],
      [
        "集",
        -7.637291493449752
      ],
      [
        "ペ",
        -7.642374645741022
      ],
      [
        "員",
        -7.64242603018193
      ],
      [
        "平",
        -7.644168003322239
      ],
      [
        "天",
        -7.652743515186707
      ],
      [
        "ラー",
        -7.657506948105363
      ],
      [
        "っ",
        -7.658492981198593
      ],
      [
        "無",
        -7.659405018599633
      ],
      [
        "区",
        -7.659486360911679
      ],
      [
        "石",
        -7.667172229215263
      ],
      [
        "ていた",
        -7.668170516321837
      ],
      [
        "られ",
        -7.670997135236959
      ],
      [
        "アン",
        -7.674333755343328
      ],
      [
        "城",
        -7.67443654667969
      ],
      [
        "知",
        -7.676112795600096
      ],
      [
        "言",
        -7.677883008100693
      ],
      [
        "にも",
        -7.678393264005896
      ],
      [
        "ロー",
        -7.680592551738341
      ],
      [
        "U",
        -7.6809708077691266
      ],
      [
        "er",
        -7.682469457150265
      ],
      [
        "k",
        -7.683580437633818
      ],
      [
        "b",
        -7.684642634217127
      ],
      [
        "当",
        -7.68524464038744
      ],
      [
        "着",
        -7.685854839380312
      ],
      [
        "ば",
        -7.6879702026604555
      ],
      [
        "d",
        -7.6965435047879645
      ],
      [
        "的に",
        -7.7016340574712885
      ],
      [
        "ヒ",
        -7.7023370067620185
      ],
      [
        "V",
        -7.714475114856265
      ],
      [
        "マン",
        -7.714727985414742
      ],
      [
        "近",
        -7.714954215196954
      ],
      [
        "h",
        -7.715856219524158
      ],
      [
        "ライ",
        -7.717455158789564
      ],
      [
        "15",
        -7.720264885592204
      ],
      [
        "世界",
        -7.721912119842818
      ],
      [
        "理",
        -7.723449834533332
      ],
      [
        "n",
        -7.7248293051759696
      ],
      [
        "だ",
        -7.726188070911816
      ],
      [
        "自",
        -7.726194529108403
      ],
      [
        "務",
        -7.729214061008117
      ],
      [
        "昭和",
        -7.730198963903913
      ],
      [
        "直",
        -7.730889940724682
      ],
      [
        "J",
        -7.731303592239032
      ],
      [
        "有",
        -7.731366283040016
      ],
      [
        "役",
        -7.732233153713878
      ],
      [
        "形",
        -7.73835695112316
      ],
      [
        "約",
        -7.739253693012374
      ],
      [
        "団",
        -7.73973261928357
      ],
      [
        "教",
        -7.742398232707513
      ],
      [
        "ヤ",
        -7.744499317424632
      ],
      [
        "コン",
        -7.744563679080107
      ],
      [
        "場合",
        -7.745423319522288
      ],
      [
        "信",
        -7.747463489944234
      ],
      [
        "放送",
        -7.748134770699849
      ],
      [
        "後に",
        -7.749383958441394
      ],
      [
        "二",
        -7.750656964298953
      ],
      [
        "木",
        -7.752651007404321
      ],
      [
        "リア",
        -7.757516291551104
      ],
      [
        "保",
        -7.766741453580535
      ],
      [
        "種",
        -7.771236527317473
      ],
      [
        "において",
        -7.773187153030779
      ],
      [
        "れた",
        -7.773712892488014
      ],
      [
        "型",
        -7.775312468701079
      ],
      [
        "とも",
        -7.77901905026107
      ],
      [
        "多",
        -7.779273625732129
      ],
      [
        "民",
        -7.781530859815133
      ],
      [
        "続",
        -7.78286470334513
      ],
      [
        "作品",
        -7.7855067022055415
      ],
      [
        "アメリカ",
        -7.787640636522394
      ],
      [
        "16",
        -7.790101661223451
      ],
      [
        "月に",
        -7.800932156761814
      ],
      [
        "30",
        -7.805125814924459
      ],
      [
        "などの",
        -7.80651986327654
      ],
      [
        "和",
        -7.8069006391814195
      ],
      [
        "ゴ",
        -7.808742216750112
      ],
      [
        "ソ",
        -7.809582113962897
      ],
      [
        "ベ",
        -7.809772676289814
      ],
      [
        "官",
        -7.812924129428195
      ],
      [
        "げ",
        -7.815163946506374
      ],
      [
        "e ",
        -7.81794265632716
      ],
      [
        "ち",
        -7.8188605203482915
      ],
      [
        "取",
        -7.825502960663771
      ],
      [
        "曲",
        -7.828129500978898
      ],
      [
        "使",
        -7.829404981069107
      ],
      [
        "相",
        -7.831912953562156
      ],
      [
        "活動",
        -7.832275975111285
      ],
      [
        "ピ",
        -7.833055413668447
      ],
      [
        "業",
        -7.834754721135447
      ],
      [
        ":",
        -7.843343771914647
      ],
      [
        "先",
        -7.845756980149364
      ],
      [
        "アル",
        -7.852203844334548
      ],
      [
        "様",
        -7.853826931202061
      ],
      [
        "任",
        -7.857680132601967
      ],
      [
        "々",
        -7.862864566536336
      ],
      [
        "馬",
        -7.8636501008631825
      ],
      [
        "院",
        -7.866511868013365
      ],
      [
        "記",
        -7.866771883179522
      ],
      [
        "われ",
        -7.866883531964122
      ],
      [
        "来",
        -7.868173865372613
      ],
      [
        "っている",
        -7.868330272548738
      ],
      [
        "別",
        -7.87027171579401
      ],
      [
        "00",
        -7.870434895859317
      ],
      [
        "開",
        -7.872861535092923
      ],
      [
        "半",
        -7.876584329347718
      ],
      [
        "隊",
        -7.883968447731771
      ],
      [
        ",",
        -7.886614648666866
      ],
      [
        "再",
        -7.888049438119488
      ],
      [
        "達",
        -7.8881312659689105
      ],
      [
        "東京",
        -7.889805945645291
      ],
      [
        "両",
        -7.8917039882741165
      ],
      [
        "権",
        -7.894552252377185
      ],
      [
        "電",
        -7.8968136908802595
      ],
      [
        "/",
        -7.897502018253361
      ],
      [
        "ギ",
        -7.902758794293911
      ],
      [
        "安",
        -7.903209503974738
      ],
      [
        "フィ",
        -7.904110279503593
      ],
      [
        "口",
        -7.907414962111609
      ],
      [
        "命",
        -7.907667888779844
      ],
      [
        "r",
        -7.910189496867025
      ],
      [
        "y",
        -7.911963576896504
      ],
      [
        "局",
        -7.916688452513654
      ],
      [
        "船",
        -7.917528129431657
      ],
      [
        "リン",
        -7.918211820563862
      ],
      [
        ") ",
        -7.918613714283156
      ],
      [
        "郡",
        -7.920952800286097
      ],
      [
        "起",
        -7.924063879827392
      ],
      [
        "14",
        -7.92796419510576
      ],
      [
        "f",
        -7.92851390148706
      ],
      [
        "映画",
        -7.9290663919790365
      ],
      [
        "年には",
        -7.931862806481163
      ],
      [
        "制",
        -7.932045462385377
      ],
      [
        "となり",
        -7.933826064979472
      ],
      [
        "撃",
        -7.934619683041129
      ],
      [
        "ダー",
        -7.935271949858835
      ],
      [
        "レン",
        -7.935595255814221
      ],
      [
        "使用",
        -7.936299373369065
      ],
      [
        "よう",
        -7.938424334446491
      ],
      [
        "産",
        -7.945156758588858
      ],
      [
        "特",
        -7.948190477207744
      ],
      [
        "等",
        -7.948995337229054
      ],
      [
        "連",
        -7.949127187161119
      ],
      [
        "歳",
        -7.949572932414977
      ],
      [
        "意",
        -7.952777578726572
      ],
      [
        "l",
        -7.953309357331525
      ],
      [
        "む",
        -7.958094092571175
      ],
      [
        "宮",
        -7.962017553572979
      ],
      [
        "サン",
        -7.96298067684679
      ],
      [
        "歌",
        -7.9642687777785675
      ],
      [
        "プロ",
        -7.967017711352705
      ],
      [
        "総",
        -7.9680046937679965
      ],
      [
        "量",
        -7.968108812971151
      ],
      [
        "同年",
        -7.969029944596658
      ],
      [
        "退",
        -7.974318238394094
      ],
      [
        "空",
        -7.974326641183147
      ],
      [
        "得",
        -7.978631727969887
      ],
      [
        "話",
        -7.978973544402267
      ],
      [
        "年の",
        -7.9810249912147615
      ],
      [
        "死",
        -7.982801918977895
      ],
      [
        "頭",
        -7.983125609012493
      ],
      [
        "研究",
        -7.9838708029713406
      ],
      [
        "ヘ",
        -7.984013974708656
      ],
      [
        "13",
        -7.985160379675092
      ],
      [
        "色",
        -7.987075798283602
      ],
      [
        "キャ",
        -7.98819099058216
      ],
      [
        "党",
        -7.9886034990253965
      ],
      [
        "ar",
        -7.989341411416703
      ],
      [
        "義",
        -7.989650606443673
      ],
      [
        "ザ",
        -7.9897601888871
      ],
      [
        "土",
        -7.989782812926055
      ],
      [
        "武",
        -7.990480287724317
      ],
      [
        "ヴィ",
        -7.991002925848893
      ],
      [
        "たち",
        -7.991775644047667
      ],
      [
        "広",
        -7.992579231791479
      ],
      [
        "ること",
        -7.995798692785623
      ],
      [
        "ーン",
        -8.001729885717074
      ],
      [
        "んだ",
        -8.007990978701246
      ],
      [
        "になった",
        -8.008848181482307
      ],
      [
        "対",
        -8.0110003696836
      ],
      [
        "勝",
        -8.011862796928165
      ],
      [
        "台",
        -8.012624920721752
      ],
      [
        "番",
        -8.01558306687119
      ],
      [
        "兵",
        -8.016139712754807
      ],
      [
        "との",
        -8.016285463823053
      ],
      [
        "シュ",
        -8.017712847914426
      ],
      [
        "v",
        -8.0181735895152
      ],
      [
        "番組",
        -8.023044579942074
      ],
      [
        "なく",
        -8.023309357099315
      ],
      [
        "すること",
        -8.024475382675408
      ],
      [
        "える",
        -8.025183000448761
      ],
      [
        "賞",
        -8.02801276825594
      ],
      [
        "パー",
        -8.029267093462154
      ],
      [
        "人の",
        -8.03131847085982
      ],
      [
        "加",
        -8.03398618762913
      ],
      [
        "館",
        -8.034441755879682
      ],
      [
        "士",
        -8.035426127810736
      ],
      [
        "られる",
        -8.036884190816673
      ],
      [
        "とする",
        -8.046871647705627
      ],
      [
        "画",
        -8.0471649120947
      ],
      [
        "職",
        -8.04819509784315
      ],
      [
        "代表",
        -8.050064462171242
      ],
      [
        "各",
        -8.052576494759373
      ],
      [
        "in",
        -8.055004525134986
      ],
      [
        "井",
        -8.05539016284667
      ],
      [
        "変",
        -8.055774192680659
      ],
      [
        "朝",
        -8.0571811377678
      ],
      [
        "氏",
        -8.057715333521369
      ],
      [
        "級",
        -8.062384102670778
      ],
      [
        "古",
        -8.063350462051055
      ],
      [
        "改",
        -8.063353024983694
      ],
      [
        "工",
        -8.063978213759343
      ],
      [
        "に入",
        -8.064855088043302
      ],
      [
        "政",
        -8.067212454987255
      ],
      [
        "or",
        -8.069783216673796
      ],
      [
        "心",
        -8.071607378166709
      ],
      [
        "格",
        -8.073161030850725
      ],
      [
        "ポ",
        -8.074477133988559
      ],
      [
        "系",
        -8.074775932720005
      ],
      [
        "科",
        -8.074918367934156
      ],
      [
        "決",
        -8.075335554721468
      ],
      [
        "結",
        -8.076889658604093
      ],
      [
        "および",
        -8.077250462020755
      ],
      [
        "チーム",
        -8.07760969631521
      ],
      [
        "にある",
        -8.07904760384096
      ],
      [
        "解",
        -8.084438115897965
      ],
      [
        "松",
        -8.084754543901166
      ],
      [
        "向",
        -8.089221485293308
      ],
      [
        "存在",
        -8.091491245132705
      ],
      [
        "派",
        -8.091719820056438
      ],
      [
        "カー",
        -8.092372284337284
      ],
      [
        "選",
        -8.09567443559266
      ],
      [
        "ベル",
        -8.098255091174781
      ],
      [
        "演",
        -8.09840649795935
      ],
      [
        "寺",
        -8.101617052567883
      ],
      [
        "について",
        -8.103799257316961
      ],
      [
        "地域",
        -8.10467782573957
      ],
      [
        "開発",
        -8.106031673824525
      ],
      [
        "\"",
        -8.108785969462774
      ],
      [
        "表",
        -8.114065121926773
      ],
      [
        "年代",
        -8.115681007084271
      ],
      [
        "さらに",
        -8.116581754224152
      ],
      [
        "橋",
        -8.117866172578887
      ],
      [
        "藤",
        -8.118441763285842
      ],
      [
        "ップ",
        -8.118744943026805
      ],
      [
        "白",
        -8.123422712052509
      ],
      [
        "なお",
        -8.123942554025883
      ],
      [
        "ュ",
        -8.130004575975848
      ],
      [
        "身",
        -8.131207765384582
      ],
      [
        "テレビ",
        -8.135013636153104
      ],
      [
        "ワ",
        -8.13750521626672
      ],
      [
        "年から",
        -8.139214310368116
      ],
      [
        "めた",
        -8.142162934816064
      ],
      [
        "されていた",
        -8.14218755907819
      ],
      [
        "ソン",
        -8.142492412032631
      ],
      [
        "組",
        -8.14280842460465
      ],
      [
        "強",
        -8.143538467168758
      ],
      [
        "店",
        -8.143637064030594
      ],
      [
        "交",
        -8.145774974591372
      ],
      [
        "ある",
        -8.150454693208877
      ],
      [
        "現在",
        -8.151058163020279
      ],
      [
        "ジェ",
        -8.153441070579058
      ],
      [
        "できる",
        -8.155256873581683
      ],
      [
        "ど",
        -8.155558987943198
      ],
      [
        "とは",
        -8.158993347133334
      ],
      [
        "光",
        -8.16165046890435
      ],
      [
        "び",
        -8.162496239526245
      ],
      [
        "ジャ",
        -8.16280127605865
      ],
      [
        "en",
        -8.1656946770254
      ],
      [
        "フェ",
        -8.166953601687554
      ],
      [
        "付",
        -8.16724828896772
      ],
      [
        "ション",
        -8.169124403137047
      ],
      [
        "ドイツ",
        -8.169740203657456
      ],
      [
        "試合",
        -8.17076089475437
      ],
      [
        "an",
        -8.172324901193221
      ],
      [
        "以降",
        -8.1730015849086
      ],
      [
        "参加",
        -8.173379158488167
      ],
      [
        "学校",
        -8.1749199598328
      ],
      [
        "経",
        -8.17612868142623
      ],
      [
        "屋",
        -8.176135424035376
      ],
      [
        "スター",
        -8.177929154252146
      ],
      [
        "十",
        -8.178390233261624
      ],
      [
        "称",
        -8.17915353545984
      ],
      [
        "風",
        -8.17959852379101
      ],
      [
        "いて",
        -8.181794812624366
      ],
      [
        "女",
        -8.182195003410953
      ],
      [
        "on",
        -8.184936201016997
      ],
      [
        "収",
        -8.185218055158115
      ],
      [
        "っていた",
        -8.185851559786714
      ],
      [
        "装",
        -8.189944038155803
      ],
      [
        "- ",
        -8.189976997565788
      ],
      [
        "伝",
        -8.19033168900682
      ],
      [
        "ホ",
        -8.190458749402103
      ],
      [
        "ッド",
        -8.190474621777476
      ],
      [
        "修",
        -8.190691902525709
      ],
      [
        "ことを",
        -8.192938903775444
      ],
      [
        "マー",
        -8.197237626590997
      ],
      [
        "ニー",
        -8.197293783160141
      ],
      [
        ", ",
        -8.20085841982177
      ],
      [
        "関係",
        -8.201505417409074
      ],
      [
        "音",
        -8.201791939139385
      ],
      [
        "関",
        -8.20260220930838
      ],
      [
        "乗",
        -8.202723466754161
      ],
      [
        "論",
        -8.203852518443083
      ],
      [
        "以",
        -8.206200221037765
      ],
      [
        "=",
        -8.206743446973817
      ],
      [
        "における",
        -8.206945461626825
      ],
      [
        "親",
        -8.207685194126599
      ],
      [
        "トン",
        -8.208567572767684
      ],
      [
        "シーズン",
        -8.209171804159011
      ],
      [
        "リーグ",
        -8.209461839740639
      ],
      [
        "転",
        -8.209990969833404
      ],
      [
        "25",
        -8.210037301952822
      ],
      [
        "食",
        -8.213543077474812
      ],
      [
        "!",
        -8.21624537319847
      ],
      [
        "急",
        -8.216566800652707
      ],
      [
        "万",
        -8.216899687676248
      ],
      [
        "大会",
        -8.21817750279882
      ],
      [
        "路",
        -8.219155965798015
      ],
      [
        "父",
        -8.219459095404725
      ],
      [
        "品",
        -8.221297912922909
      ],
      [
        "版",
        -8.221891173880001
      ],
      [
        "ぐ",
        -8.222157316864275
      ],
      [
        "残",
        -8.222787075163904
      ],
      [
        "明治",
        -8.222857548732426
      ],
      [
        "反",
        -8.22525805445096
      ],
      [
        "時間",
        -8.22638546108424
      ],
      [
        "しい",
        -8.22711699467582
      ],
      [
        "める",
        -8.227464520766548
      ],
      [
        "愛",
        -8.2278902800129
      ],
      [
        "ナー",
        -8.228691051416812
      ],
      [
        "助",
        -8.230017847490437
      ],
      [
        "時代",
        -8.235311124217844
      ],
      [
        "感",
        -8.235420573941814
      ],
      [
        "在",
        -8.236985310509802
      ],
      [
        "アー",
        -8.241117187512558
      ],
      [
        "50",
        -8.241938108130494
      ],
      [
        "末",
        -8.242605532540725
      ],
      [
        "フランス",
        -8.243089421408229
      ],
      [
        "のみ",
        -8.246730470442431
      ],
      [
        "議",
        -8.248718660226304
      ],
      [
        "米",
        -8.24907535184569
      ],
      [
        "例",
        -8.250036676440804
      ],
      [
        "河",
        -8.250191118401897
      ],
      [
        "オー",
        -8.252454000369669
      ],
      [
        "当時",
        -8.255034859751758
      ],
      [
        "置",
        -8.255965979946298
      ],
      [
        "移",
        -8.256091176872436
      ],
      [
        "モン",
        -8.258460782988985
      ],
      [
        "室",
        -8.260674155169232
      ],
      [
        "楽",
        -8.262347736652954
      ],
      [
        "艦",
        -8.263465377756502
      ],
      [
        "旧",
        -8.264080684217603
      ],
      [
        "鉄道",
        -8.264703761866938
      ],
      [
        "従",
        -8.265970319617963
      ],
      [
        "落",
        -8.266700816897293
      ],
      [
        "調",
        -8.268854448369439
      ],
      [
        "ね",
        -8.26934871401032
      ],
      [
        "そ",
        -8.269954942117813
      ],
      [
        "ように",
        -8.27080549704468
      ],
      [
        "放",
        -8.271633866431236
      ],
      [
        "佐",
        -8.275975099397492
      ],
      [
        "渡",
        -8.279459292785537
      ],
      [
        "平成",
        -8.280525957905226
      ],
      [
        "司",
        -8.281448490298725
      ],
      [
        "領",
        -8.285380268703173
      ],
      [
        "敗",
        -8.289234108438936
      ],
      [
        "今",
        -8.290246929196082
      ],
      [
        "となっている",
        -8.292182239264092
      ],
      [
        "シー",
        -8.292623119364995
      ],
      [
        "谷",
        -8.294162533167116
      ],
      [
        "男",
        -8.295123726583668
      ],
      [
        "かれ",
        -8.295566476338616
      ],
      [
        "れる",
        -8.29607857836258
      ],
      [
        "えた",
        -8.296092071131726
      ],
      [
        "すると",
        -8.301951137534395
      ],
      [
        "編",
        -8.302103594875554
      ],
      [
        "ブル",
        -8.304167732473415
      ],
      [
        "岡",
        -8.304733750611595
      ],
      [
        "開催",
        -8.311944176351094
      ],
      [
        "良",
        -8.313520657717092
      ],
      [
        "際",
        -8.314501327089781
      ],
      [
        "質",
        -8.314822484005544
      ],
      [
        "視",
        -8.316578867807175
      ],
      [
        "カル",
        -8.317452976731254
      ],
      [
        "省",
        -8.318339553801836
      ],
      [
        "利用",
        -8.318904450536717
      ],
      [
        "常",
        -8.32121359678193
      ],
      [
        "ひ",
        -8.322855157246332
      ],
      [
        "会社",
        -8.3242101514881
      ],
      [
        "社会",
        -8.32654664799222
      ],
      [
        "終",
        -8.326933212680906
      ],
      [
        "上げ",
        -8.32728082559471
      ],
      [
        "世紀",
        -8.327806574745335
      ],
      [
        "多くの",
        -8.328080631893803
      ],
      [
        "21",
        -8.328220845464195
      ],
      [
        "問題",
        -8.328470072160565
      ],
      [
        "ことが",
        -8.32902765561705
      ],
      [
        "美",
        -8.329290458663776
      ],
      [
        "音楽",
        -8.333527771747264
      ],
      [
        "ウェ",
        -8.33445622013552
      ],
      [
        "四",
        -8.33657865919097
      ],
      [
        "ワー",
        -8.339494999598434
      ],
      [
        "監督",
        -8.339892485500195
      ],
      [
        "国際",
        -8.340027475601188
      ],
      [
        "付け",
        -8.340226178178645
      ],
      [
        "優勝",
        -8.343842375211212
      ],
      [
        "日の",
        -8.343866003867479
      ],
      [
        "確",
        -8.345100698632255
      ],
      [
        "これは",
        -8.345962205562028
      ],
      [
        "エン",
        -8.346250816483444
      ],
      [
        "低",
        -8.34646715086874
      ],
      [
        "登場",
        -8.350483751938839
      ],
      [
        "24",
        -8.350957793400399
      ],
      [
        "一般",
        -8.351383910208932
      ],
      [
        "記録",
        -8.353238573200576
      ],
      [
        "取り",
        -8.354004018164357
      ],
      [
        "があり",
        -8.354545701074642
      ],
      [
        "ックス",
        -8.355936327780347
      ],
      [
        "イギリス",
        -8.356653198242306
      ],
      [
        "しており",
        -8.35684834078713
      ],
      [
        "走",
        -8.357637154741488
      ],
      [
        "好",
        -8.35956149547118
      ],
      [
        "母",
        -8.360519933937336
      ],
      [
        "打",
        -8.36394188747667
      ],
      [
        "生まれ",
        -8.365178015466872
      ],
      [
        "異",
        -8.36680602213316
      ],
      [
        "守",
        -8.36701307726042
      ],
      [
        "帯",
        -8.367891546182642
      ],
      [
        "ゼ",
        -8.370602184439486
      ],
      [
        "利",
        -8.37061455411331
      ],
      [
        "吉",
        -8.372756245172281
      ],
      [
        "戦争",
        -8.373510378195654
      ],
      [
        "ゲーム",
        -8.373901769237511
      ],
      [
        "失",
        -8.374248141099125
      ],
      [
        "ヌ",
        -8.375271011564347
      ],
      [
        "に対して",
        -8.376314607337449
      ],
      [
        "ぶ",
        -8.377065012856015
      ],
      [
        "X",
        -8.377764480155928
      ],
      [
        "料",
        -8.377791067494758
      ],
      [
        "もある",
        -8.377860911835148
      ],
      [
        "チェ",
        -8.379211194980577
      ],
      [
        "アイ",
        -8.381557364569407
      ],
      [
        "送",
        -8.381708527837874
      ],
      [
        "配",
        -8.3821005936884
      ],
      [
        "崎",
        -8.38448447586546
      ],
      [
        "増",
        -8.385106608074132
      ],
      [
        "夫",
        -8.385820909180062
      ],
      [
        "』(",
        -8.385951121057234
      ],
      [
        "鉄",
        -8.386231910084533
      ],
      [
        "族",
        -8.386298000081618
      ],
      [
        "率",
        -8.386764486891558
      ],
      [
        "建",
        -8.386767806476612
      ],
      [
        "際に",
        -8.387629419596163
      ],
      [
        "シリーズ",
        -8.387900390986
      ],
      [
        "真",
        -8.38837495710602
      ],
      [
        "ニア",
        -8.389231283460337
      ],
      [
        "ビー",
        -8.390144038034697
      ],
      [
        "類",
        -8.391835423371294
      ],
      [
        "ファ",
        -8.392123626208472
      ],
      [
        "字",
        -8.392977144444915
      ],
      [
        "共",
        -8.393877155598982
      ],
      [
        "火",
        -8.394214327693948
      ],
      [
        "したが",
        -8.39508570961947
      ],
      [
        "英",
        -8.397465544530363
      ],
      [
        "校",
        -8.398813658893244
      ],
      [
        "太",
        -8.399802210021004
      ],
      [
        "w",
        -8.401173974040008
      ],
      [
        "消",
        -8.402499355853779
      ],
      [
        "40",
        -8.403067184517345
      ],
      [
        "参",
        -8.403518560711577
      ],
      [
        "差",
        -8.40398303565116
      ],
      [
        "門",
        -8.405242442126264
      ],
      [
        "切",
        -8.405379427367322
      ],
      [
        "中国",
        -8.407098722821923
      ],
      [
        "開始",
        -8.409061363666723
      ],
      [
        "防",
        -8.409320093420092
      ],
      [
        "殺",
        -8.409720556480098
      ],
      [
        "説",
        -8.412417804948575
      ],
      [
        "優",
        -8.413570034395573
      ],
      [
        "いる",
        -8.416342310363298
      ],
      [
        "を受け",
        -8.41946950771541
      ],
      [
        "造",
        -8.420018762412914
      ],
      [
        "だけ",
        -8.420766939282654
      ],
      [
        "22",
        -8.422272098431767
      ],
      [
        "計画",
        -8.422848408488575
      ],
      [
        "ており",
        -8.425547075113506
      ],
      [
        "者の",
        -8.427052577898415
      ],
      [
        "そして",
        -8.427866381556056
      ],
      [
        "足",
        -8.428244002054825
      ],
      [
        "23",
        -8.4300610890666
      ],
      [
        "にて",
        -8.433071029393208
      ],
      [
        "th",
        -8.434451057928676
      ],
      [
        "とした",
        -8.435596468545985
      ],
      [
        "Y",
        -8.437154529473876
      ],
      [
        "千",
        -8.439023524283725
      ],
      [
        "断",
        -8.441070113956746
      ],
      [
        "図",
        -8.442034755285425
      ],
      [
        "政府",
        -8.442181258058703
      ],
      [
        "ルー",
        -8.442647907681513
      ],
      [
        "とともに",
        -8.442756462101896
      ],
      [
        "福",
        -8.44821341091244
      ],
      [
        "座",
        -8.44948148537911
      ],
      [
        "出場",
        -8.450089210511731
      ],
      [
        "離",
        -8.451244134990432
      ],
      [
        "を見",
        -8.451707161749288
      ],
      [
        "結果",
        -8.454953648684647
      ],
      [
        "観",
        -8.455577822881105
      ],
      [
        "中に",
        -8.456839832264802
      ],
      [
        "計",
        -8.458473852259768
      ],
      [
        "なる",
        -8.459246942426864
      ],
      [
        "日本の",
        -8.461343200059778
      ],
      [
        "源",
        -8.462670512630039
      ],
      [
        "器",
        -8.463873025732092
      ],
      [
        "ランド",
        -8.463971177304012
      ],
      [
        "興",
        -8.46446728695078
      ],
      [
        "引き",
        -8.465020486602281
      ],
      [
        "ic",
        -8.465029179478755
      ],
      [
        "支",
        -8.46503972790569
      ],
      [
        "選手",
        -8.465135807280747
      ],
      [
        "始",
        -8.467634411909065
      ],
      [
        "後の",
        -8.46844148604764
      ],
      [
        "応",
        -8.468540101583494
      ],
      [
        "住",
        -8.468899905520802
      ],
      [
        "ドル",
        -8.469365552312478
      ],
      [
        "ング",
        -8.469872626430629
      ],
      [
        "になる",
        -8.47066188960714
      ],
      [
        "描",
        -8.471605889248739
      ],
      [
        "素",
        -8.472513445299738
      ],
      [
        "ヴァ",
        -8.47351703260728
      ],
      [
        "事業",
        -8.474921782090336
      ],
      [
        "教育",
        -8.47559955289201
      ],
      [
        "花",
        -8.47707487483504
      ],
      [
        "サー",
        -8.478582842727452
      ],
      [
        "基",
        -8.480004745596068
      ],
      [
        "接",
        -8.480133836165374
      ],
      [
        "陸",
        -8.481178660755592
      ],
      [
        "28",
        -8.483849111050327
      ],
      [
        "頃",
        -8.48543910049096
      ],
      [
        "星",
        -8.486386950156072
      ],
      [
        "製",
        -8.486412098297588
      ],
      [
        "バス",
        -8.486727096930577
      ],
      [
        "波",
        -8.487630303945481
      ],
      [
        "郎",
        -8.487942001492957
      ],
      [
        "将",
        -8.488804929362534
      ],
      [
        "」(",
        -8.489765823729599
      ],
      [
        "ロン",
        -8.491899060242572
      ],
      [
        "建設",
        -8.492355914555805
      ],
      [
        "s ",
        -8.494276003834258
      ],
      [
        "オン",
        -8.495742029531574
      ],
      [
        "師",
        -8.495763950772698
      ],
      [
        "発表",
        -8.495817567423925
      ],
      [
        "少",
        -8.497081517602455
      ],
      [
        "26",
        -8.497366464186044
      ],
      [
        "文化",
        -8.49865291438339
      ],
      [
        "27",
        -8.499554167479264
      ],
      [
        "地方",
        -8.500424116476744
      ],
      [
        "ほか",
        -8.500600651705001
      ],
      [
        "させ",
        -8.503283856703362
      ],
      [
        "青",
        -8.50373803476127
      ],
      [
        "界",
        -8.50463736171885
      ],
      [
        "満",
        -8.505086899410124
      ],
      [
        "ハー",
        -8.505239909708916
      ],
      [
        "よ",
        -8.505993511457692
      ],
      [
        "津",
        -8.50615473311798
      ],
      [
        "es",
        -8.507301140061141
      ],
      [
        "2008",
        -8.508185924435685
      ],
      [
        "ご",
        -8.508389799724998
      ],
      [
        "、『",
        -8.508845994090159
      ],
      [
        "持",
        -8.510130910300237
      ],
      [
        "つの",
        -8.51054839063307
      ],
      [
        "都市",
        -8.510799993335375
      ],
      [
        "域",
        -8.515758568852606
      ],
      [
        "エル",
        -8.516079085864076
      ],
      [
        "ろ",
        -8.518750234033028
      ],
      [
        "べ",
        -8.519226401182184
      ],
      [
        "レイ",
        -8.520251101402732
      ],
      [
        "%",
        -8.520417022553644
      ],
      [
        "要",
        -8.520903904344824
      ],
      [
        "事件",
        -8.521283741571272
      ],
      [
        "根",
        -8.521523168887418
      ],
      [
        "かった",
        -8.522068173505808
      ],
      [
        "破",
        -8.523851721558506
      ],
      [
        "シャ",
        -8.524144770583257
      ],
      [
        "問",
        -8.525604423806405
      ],
      [
        "シン",
        -8.52604976028196
      ],
      [
        "砲",
        -8.527840046402698
      ],
      [
        "可能",
        -8.527851749371026
      ],
      [
        "サイ",
        -8.528994300031073
      ],
      [
        "ぎ",
        -8.530726712323544
      ],
      [
        "客",
        -8.530807826765473
      ],
      [
        "ッチ",
        -8.531394214380006
      ],
      [
        "al",
        -8.534117350527753
      ],
      [
        "五",
        -8.534132448121998
      ],
      [
        "グラ",
        -8.535136610959688
      ],
      [
        "ボー",
        -8.536737791557934
      ],
      [
        "久",
        -8.538028627029425
      ],
      [
        "主義",
        -8.538180545972054
      ],
      [
        "現在の",
        -8.538407288782636
      ],
      [
        "他",
        -8.538758636207127
      ],
      [
        "何",
        -8.539229678905578
      ],
      [
        "聖",
        -8.539251332715295
      ],
      [
        "年間",
        -8.540976218011123
      ],
      [
        "留",
        -8.541462488023036
      ],
      [
        "中央",
        -8.542812680274567
      ],
      [
        "売",
        -8.543118837984938
      ],
      [
        "があった",
        -8.545097114433515
      ],
      [
        "出身",
        -8.545181948333992
      ],
      [
        "著",
        -8.545975818142269
      ],
      [
        "経済",
        -8.547592404968007
      ],
      [
        "葉",
        -8.547618646742025
      ],
      [
        "コー",
        -8.548025349106313
      ],
      [
        "変更",
        -8.550051451679344
      ],
      [
        "アルバム",
        -8.550106928562002
      ],
      [
        "証",
        -8.550542460152215
      ],
      [
        "ながら",
        -8.5508111258159
      ],
      [
        "st",
        -8.551738167471251
      ],
      [
        "題",
        -8.551889239324161
      ],
      [
        "デビュー",
        -8.55207663212606
      ],
      [
        "入れ",
        -8.553071579489263
      ],
      [
        "材",
        -8.554239423422068
      ],
      [
        "条",
        -8.554591344333486
      ],
      [
        "声",
        -8.555867344827396
      ],
      [
        "積",
        -8.555988357325418
      ],
      [
        "担当",
        -8.557667950455789
      ],
      [
        "京",
        -8.559515497841819
      ],
      [
        "ると",
        -8.560046469662717
      ],
      [
        "ゲ",
        -8.560854235039754
      ],
      [
        "29",
        -8.561802631799916
      ],
      [
        "弾",
        -8.566024490365415
      ],
      [
        "バイ",
        -8.566092644025815
      ],
      [
        "レス",
        -8.566133982444303
      ],
      [
        "過",
        -8.567828554334948
      ],
      [
        "他の",
        -8.567873530108661
      ],
      [
        "re",
        -8.568691031879991
      ],
      [
        "教授",
        -8.569585723651267
      ],
      [
        "挙",
        -8.57018054159377
      ],
      [
        "テン",
        -8.571070695915841
      ],
      [
        "育",
        -8.571255043368595
      ],
      [
        "単",
        -8.574085015932335
      ],
      [
        "と共に",
        -8.574917231687675
      ],
      [
        "園",
        -8.578605484742164
      ],
      [
        "られている",
        -8.57937751677635
      ],
      [
        "ガー",
        -8.57947608612384
      ],
      [
        "創",
        -8.580273559681
      ],
      [
        "思",
        -8.581714529076015
      ],
      [
        "街",
        -8.582891644013893
      ],
      [
        "藩",
        -8.583649699806882
      ],
      [
        "特に",
        -8.583717400642948
      ],
      [
        "圧",
        -8.584193138086231
      ],
      [
        "契約",
        -8.584461662587115
      ],
      [
        "黒",
        -8.589700760457221
      ],
      [
        "ほど",
        -8.59060760403055
      ],
      [
        "km",
        -8.592240109196021
      ],
      [
        "継",
        -8.592369737404766
      ],
      [
        "機関",
        -8.593079560413734
      ],
      [
        "カン",
        -8.593664106680297
      ],
      [
        "んで",
        -8.594002026958798
      ],
      [
        "it",
        -8.594137598843687
      ],
      [
        "悪",
        -8.595067142187798
      ],
      [
        "2006",
        -8.59620911598849
      ],
      [
        "トラ",
        -8.600045024688038
      ],
      [
        "翌",
        -8.600552369961541
      ],
      [
        "清",
        -8.601660282352201
      ],
      [
        "深",
        -8.603055690418264
      ],
      [
        "とき",
        -8.603131301376605
      ],
      [
        "」「",
        -8.603440470153537
      ],
      [
        "史",
        -8.60668819571845
      ],
      [
        "ことから",
        -8.606694767099349
      ],
      [
        "八",
        -8.606790187364638
      ],
      [
        "商",
        -8.606813434482614
      ],
      [
        "スク",
        -8.607159756916394
      ],
      [
        "攻撃",
        -8.608058351914949
      ],
      [
        "だが",
        -8.609859279351772
      ],
      [
        "除",
        -8.610325328356874
      ],
      [
        "リング",
        -8.611085836314885
      ],
      [
        "左",
        -8.613006630124522
      ],
      [
        "赤",
        -8.613729574279903
      ],
      [
        "マイ",
        -8.616213110502743
      ],
      [
        "ヴェ",
        -8.617655310891879
      ],
      [
        "端",
        -8.618464763765909
      ],
      [
        "これ",
        -8.62015047896612
      ],
      [
        "状",
        -8.621676902845223
      ],
      [
        "タイ",
        -8.622431659597302
      ],
      [
        "治",
        -8.622460919748384
      ],
      [
        "属",
        -8.625484501569073
      ],
      [
        "ようになった",
        -8.62618313212909
      ],
      [
        "le",
        -8.628046969628304
      ],
      [
        "難",
        -8.628591994365763
      ],
      [
        "越",
        -8.628724948953273
      ],
      [
        "ハイ",
        -8.630021580286037
      ],
      [
        "させる",
        -8.631363767308088
      ],
      [
        "多く",
        -8.631491876979242
      ],
      [
        "席",
        -8.633139312272347
      ],
      [
        "前に",
        -8.635642373829734
      ],
      [
        "去",
        -8.635775573741194
      ],
      [
        "所属",
        -8.637657958654692
      ],
      [
        "モー",
        -8.638400518471727
      ],
      [
        "管",
        -8.639162994346368
      ],
      [
        "からの",
        -8.639274292821648
      ],
      [
        "情報",
        -8.63937568565187
      ],
      [
        "バル",
        -8.639652568543065
      ],
      [
        "若",
        -8.645584949164677
      ],
      [
        "洋",
        -8.646186817591664
      ],
      [
        "is",
        -8.646322397882107
      ],
      [
        "at",
        -8.646358346588132
      ],
      [
        "入り",
        -8.64879669364432
      ],
      [
        "ハン",
        -8.649035635941487
      ],
      [
        "複",
        -8.64920401107393
      ],
      [
        "御",
        -8.649754049484947
      ],
      [
        "部分",
        -8.650986167969407
      ],
      [
        "求",
        -8.652503506999194
      ],
      [
        "春",
        -8.65311523265413
      ],
      [
        "示",
        -8.653438383866792
      ],
      [
        "戦で",
        -8.655215213964087
      ],
      [
        "林",
        -8.655848835785116
      ],
      [
        "選挙",
        -8.656360632812156
      ],
      [
        "ために",
        -8.657367970339621
      ],
      [
        "トル",
        -8.658012697408617
      ],
      [
        "徳",
        -8.658187434057991
      ],
      [
        "中心",
        -8.658800310836028
      ],
      [
        "出演",
        -8.658883501353486
      ],
      [
        "を行う",
        -8.659254254354998
      ],
      [
        "右",
        -8.659346552751238
      ],
      [
        "場所",
        -8.659916039793908
      ],
      [
        "永",
        -8.660152670762928
      ],
      [
        "周",
        -8.660830752929689
      ],
      [
        "運",
        -8.661805915049154
      ],
      [
        "尾",
        -8.662354412250606
      ],
      [
        "ノー",
        -8.663222528986338
      ],
      [
        "ウン",
        -8.663508647100652
      ],
      [
        "与",
        -8.664342924822842
      ],
      [
        "早",
        -8.665322191968167
      ],
      [
        "プラ",
        -8.66724821298905
      ],
      [
        "を持つ",
        -8.66736847695804
      ],
      [
        "政治",
        -8.668137729034182
      ],
      [
        "ch",
        -8.668544545520257
      ],
      [
        "薬",
        -8.668914914425518
      ],
      [
        "女性",
        -8.66919643632179
      ],
      [
        "極",
        -8.669284663959628
      ],
      [
        "速",
        -8.669384128223669
      ],
      [
        "独",
        -8.670213380468804
      ],
      [
        "ウィ",
        -8.673916287892597
      ],
      [
        "ユ",
        -8.674647089344607
      ],
      [
        "養",
        -8.674948152524534
      ],
      [
        "ザー",
        -8.675407291123587
      ],
      [
        "ケー",
        -8.676135272834806
      ],
      [
        "遺",
        -8.67697506675748
      ],
      [
        "比",
        -8.677255987594569
      ],
      [
        "短",
        -8.679434805754974
      ],
      [
        "と呼ばれる",
        -8.679693076466432
      ],
      [
        "返",
        -8.68026972798124
      ],
      [
        "デン",
        -8.680468164797318
      ],
      [
        "クロ",
        -8.681318433293711
      ],
      [
        "マル",
        -8.681619309671628
      ],
      [
        "及び",
        -8.684507527304893
      ],
      [
        "勢",
        -8.684606076259712
      ],
      [
        "個",
        -8.684802264478213
      ],
      [
        "蔵",
        -8.685494445976644
      ],
      [
        "航空",
        -8.685528417455496
      ],
      [
        "技術",
        -8.685871146973769
      ],
      [
        "まり",
        -8.686837185545293
      ],
      [
        "未",
        -8.68873294930598
      ],
      [
        "争",
        -8.68904429750716
      ],
      [
        "必要",
        -8.691018841529965
      ],
      [
        "100",
        -8.69411317523263
      ],
      [
        "決定",
        -8.695697684009488
      ],
      [
        "発売",
        -8.696066752399119
      ],
      [
        "タン",
        -8.697775706681501
      ],
      [
        "まった",
        -8.699400788908005
      ],
      [
        "ブラ",
        -8.699586399042373
      ],
      [
        "ジュ",
        -8.699665445770579
      ],
      [
        "戻",
        -8.702812428290272
      ],
      [
        "ジョン",
        -8.703609605857128
      ],
      [
        "x",
        -8.705775033972676
      ],
      [
        "ところ",
        -8.706122996904439
      ],
      [
        "沢",
        -8.70891320565054
      ],
      [
        "略",
        -8.710466718699191
      ],
      [
        "31",
        -8.710907772365584
      ],
      [
        "章",
        -8.71112222886378
      ],
      [
        "の大",
        -8.711132088707773
      ],
      [
        "夜",
        -8.711996911364789
      ],
      [
        "巻",
        -8.7128723596051
      ],
      [
        "限",
        -8.713825195007146
      ],
      [
        "の中で",
        -8.715068222489007
      ],
      [
        "甲",
        -8.715245069410193
      ],
      [
        "球",
        -8.715682239115255
      ],
      [
        "発生",
        -8.71569238050984
      ],
      [
        "それぞれ",
        -8.717377661228566
      ],
      [
        "降",
        -8.718062419976498
      ],
      [
        "高校",
        -8.719108997188872
      ],
      [
        "しく",
        -8.721242030696487
      ],
      [
        "かけ",
        -8.722217483877284
      ],
      [
        "つけ",
        -8.723069853986457
      ],
      [
        "盤",
        -8.725222835393263
      ],
      [
        "としては",
        -8.726307952096924
      ],
      [
        "資",
        -8.727892646262378
      ],
      [
        "ヨ",
        -8.72808863098771
      ],
      [
        "認",
        -8.729157155313057
      ],
      [
        "味",
        -8.731963801049782
      ],
      [
        "に対する",
        -8.733004202160982
      ],
      [
        "堂",
        -8.733458776831307
      ],
      [
        "クス",
        -8.733498968436372
      ],
      [
        "ピー",
        -8.733504270229254
      ],
      [
        "歴史",
        -8.734346080882569
      ],
      [
        "販売",
        -8.735186372813416
      ],
      [
        "ではない",
        -8.735499191650064
      ],
      [
        "ウス",
        -8.735573527791816
      ],
      [
        "江",
        -8.737226783274082
      ],
      [
        "グループ",
        -8.737760742335674
      ],
      [
        "投",
        -8.73812730473896
      ],
      [
        "年まで",
        -8.739369192137172
      ],
      [
        "2005",
        -8.739662603148851
      ],
      [
        "卒業",
        -8.739942865399453
      ],
      [
        "状態",
        -8.740121460306934
      ],
      [
        "移籍",
        -8.740276431103185
      ],
      [
        "地区",
        -8.740507789894327
      ],
      [
        "評",
        -8.740557131058004
      ],
      [
        "都",
        -8.741453014622493
      ],
      [
        "ではなく",
        -8.742239715855847
      ],
      [
        "調査",
        -8.743317224232165
      ],
      [
        "非",
        -8.743931215564709
      ],
      [
        "予",
        -8.746352212787379
      ],
      [
        "システム",
        -8.746575079382687
      ],
      [
        "細",
        -8.749195627863696
      ],
      [
        "劇",
        -8.751106723171688
      ],
      [
        "居",
        -8.753057148219277
      ],
      [
        "病",
        -8.753289161170736
      ],
      [
        "クリ",
        -8.753752900415728
      ],
      [
        "戸",
        -8.754803630243792
      ],
      [
        "森",
        -8.756830417918696
      ],
      [
        ": ",
        -8.757787924622711
      ],
      [
        "2000",
        -8.758555892384138
      ],
      [
        "志",
        -8.758810803326377
      ],
      [
        "されて",
        -8.759052846933827
      ],
      [
        "宗",
        -8.759298612844496
      ],
      [
        "採用",
        -8.759915826905806
      ],
      [
        "突",
        -8.760113126646779
      ],
      [
        "祭",
        -8.760295294047625
      ],
      [
        "ro",
        -8.761008161294269
      ],
      [
        "時に",
        -8.763203908625131
      ],
      [
        "チャ",
        -8.763321742644607
      ],
      [
        "段",
        -8.765511794490848
      ],
      [
        "円",
        -8.766373562954552
      ],
      [
        "ニュー",
        -8.76724040091877
      ],
      [
        "呼ばれ",
        -8.7672638529369
      ],
      [
        "フォー",
        -8.769316473831664
      ],
      [
        "伊",
        -8.769637040956866
      ],
      [
        "令",
        -8.770217025662655
      ],
      [
        "岩",
        -8.770271353003416
      ],
      [
        "角",
        -8.770844430650643
      ],
      [
        "告",
        -8.771560205326416
      ],
      [
        "群",
        -8.772128224300085
      ],
      [
        "設置",
        -8.772475621298407
      ],
      [
        "スタン",
        -8.773964803551547
      ],
      [
        "終了",
        -8.774269816068509
      ],
      [
        "推",
        -8.775614759124652
      ],
      [
        "秀",
        -8.775783759586519
      ],
      [
        "当時の",
        -8.77610344815227
      ],
      [
        "紙",
        -8.776126723345465
      ],
      [
        "60",
        -8.77694711215753
      ],
      [
        "勝利",
        -8.777549560033524
      ],
      [
        "ロシア",
        -8.77990123803752
      ],
      [
        "y ",
        -8.781544453743715
      ],
      [
        "選手権",
        -8.784505866120863
      ],
      [
        "帝国",
        -8.785433440829516
      ],
      [
        "密",
        -8.785611543718268
      ],
      [
        "秋",
        -8.786456852306207
      ],
      [
        "帰",
        -8.78713064130081
      ],
      [
        "豊",
        -8.787774741100662
      ],
      [
        "初めて",
        -8.789299370645399
      ],
      [
        "農",
        -8.789435483509038
      ],
      [
        "ヴ",
        -8.792942701524431
      ],
      [
        "といった",
        -8.793165939783966
      ],
      [
        "以上",
        -8.79376716588275
      ],
      [
        "大阪",
        -8.795983931031884
      ],
      [
        "については",
        -8.797445532509103
      ],
      [
        "想",
        -8.797605317027095
      ],
      [
        "案",
        -8.80063163967431
      ],
      [
        "存",
        -8.800642807068948
      ],
      [
        "部隊",
        -8.80130616199873
      ],
      [
        "制作",
        -8.802550976913277
      ],
      [
        "議会",
        -8.802855518118555
      ],
      [
        "費",
        -8.804700095789059
      ],
      [
        "丸",
        -8.805434533165375
      ],
      [
        "大きな",
        -8.805585500295695
      ],
      [
        "に関する",
        -8.80606524764997
      ],
      [
        "首",
        -8.80780916647124
      ],
      [
        "組織",
        -8.80869526358869
      ],
      [
        "照",
        -8.809795756404167
      ],
      [
        "バン",
        -8.81052891190167
      ],
      [
        "私",
        -8.813734336783428
      ],
      [
        "復",
        -8.815255820007454
      ],
      [
        "させた",
        -8.81533597674398
      ],
      [
        "航",
        -8.81684909299064
      ],
      [
        "ガン",
        -8.81811036970294
      ],
      [
        "施設",
        -8.818198565477466
      ],
      [
        "補",
        -8.818319785514058
      ],
      [
        "技",
        -8.818537269337488
      ],
      [
        "生活",
        -8.819632284016082
      ],
      [
        "換",
        -8.820378063107759
      ],
      [
        "彼は",
        -8.822570901579331
      ],
      [
        "受",
        -8.822663973249623
      ],
      [
        "海軍",
        -8.82470193272416
      ],
      [
        "行われた",
        -8.827661959288525
      ],
      [
        "生産",
        -8.828013154088618
      ],
      [
        "を受けた",
        -8.828417049959139
      ],
      [
        "最も",
        -8.828902759998252
      ],
      [
        "にかけて",
        -8.829970237099225
      ],
      [
        "獲得",
        -8.830487923161707
      ],
      [
        "全国",
        -8.834181235803957
      ],
      [
        "を経て",
        -8.83560676730456
      ],
      [
        "チャー",
        -8.837503158804836
      ],
      [
        "ダン",
        -8.838620565636678
      ],
      [
        "に就任",
        -8.8399552777281
      ],
      [
        "a ",
        -8.84112082481714
      ],
      [
        "z",
        -8.841483802598027
      ],
      [
        "張",
        -8.842854208786006
      ],
      [
        "ただし",
        -8.844644411761356
      ],
      [
        "同じ",
        -8.845365424817132
      ],
      [
        "術",
        -8.846345485829557
      ],
      [
        "高い",
        -8.847479961153288
      ],
      [
        "製造",
        -8.847602686029653
      ],
      [
        "ユー",
        -8.84792319164565
      ],
      [
        "検",
        -8.848118472320364
      ],
      [
        "追",
        -8.849715082342447
      ],
      [
        "熱",
        -8.850754641783615
      ],
      [
        "害",
        -8.851410167666405
      ],
      [
        "指",
        -8.852261738574542
      ],
      [
        "報",
        -8.852315820823636
      ],
      [
        "あり",
        -8.852608247580346
      ],
      [
        "脱",
        -8.853137709814856
      ],
      [
        "ra",
        -8.854054342848546
      ],
      [
        "ジャー",
        -8.854992292890332
      ],
      [
        "射",
        -8.855505160964572
      ],
      [
        "ファン",
        -8.85586128690253
      ],
      [
        "運動",
        -8.857736849334874
      ],
      [
        "抜",
        -8.858129437791193
      ],
      [
        "港",
        -8.86148591314035
      ],
      [
        "えて",
        -8.862384998725837
      ],
      [
        "板",
        -8.86417422618728
      ],
      [
        "妻",
        -8.864374369156371
      ],
      [
        "ri",
        -8.865101222856184
      ],
      [
        "激",
        -8.865574030395964
      ],
      [
        "ダイ",
        -8.86642022315277
      ],
      [
        "雄",
        -8.868383865157197
      ],
      [
        "盛",
        -8.871775180619167
      ],
      [
        "目的",
        -8.871894926654752
      ],
      [
        "果",
        -8.87276944517042
      ],
      [
        "〜",
        -8.873150052413644
      ],
      [
        "一部",
        -8.8733841156003
      ],
      [
        "メンバー",
        -8.873812212689977
      ],
      [
        "刑",
        -8.874587377723474
      ],
      [
        "ol",
        -8.87729843998129
      ],
      [
        "通り",
        -8.87757184346282
      ],
      [
        "像",
        -8.878001856365554
      ],
      [
        "血",
        -8.87809099108717
      ],
      [
        "活躍",
        -8.878128126080483
      ],
      [
        "ホーム",
        -8.878959952042365
      ],
      [
        "自由",
        -8.879540839215192
      ],
      [
        "節",
        -8.87964195656975
      ],
      [
        "ッシュ",
        -8.882369366745616
      ],
      [
        "収録",
        -8.882499925753658
      ],
      [
        "適",
        -8.883606313094706
      ],
      [
        "フラン",
        -8.884564239479028
      ],
      [
        "公開",
        -8.885315131634771
      ],
      [
        "かつて",
        -8.885374732166273
      ],
      [
        "倉",
        -8.88708039871179
      ],
      [
        "寄",
        -8.8881667194912
      ],
      [
        "しない",
        -8.888333355208138
      ],
      [
        "になって",
        -8.888353126272536
      ],
      [
        "ような",
        -8.88931648602468
      ],
      [
        "ものである",
        -8.890183364570403
      ],
      [
        "委員会",
        -8.890334711545986
      ],
      [
        "2004",
        -8.891279657064317
      ],
      [
        "府",
        -8.891633705340043
      ],
      [
        "ビル",
        -8.892058878199075
      ],
      [
        "爆",
        -8.89350936031051
      ],
      [
        "学部",
        -8.89440081157314
      ],
      [
        "望",
        -8.89660414632836
      ],
      [
        "ur",
        -8.896720768264386
      ],
      [
        "並",
        -8.8972503696434
      ],
      [
        "絶",
        -8.898180061749857
      ],
      [
        "教会",
        -8.898243642228834
      ],
      [
        "護",
        -8.898943663044506
      ],
      [
        "クラブ",
        -8.89993972489728
      ],
      [
        "始め",
        -8.900560525176322
      ],
      [
        "訪",
        -8.902063109381139
      ],
      [
        "シェ",
        -8.903116737677413
      ],
      [
        "典",
        -8.904634205460479
      ],
      [
        "引",
        -8.905046143838605
      ],
      [
        "独立",
        -8.905563558161468
      ],
      [
        "国内",
        -8.90601036955854
      ],
      [
        "層",
        -8.907321434156005
      ],
      [
        "ほとんど",
        -8.907618723891417
      ],
      [
        "財",
        -8.909543395268207
      ],
      [
        "宝",
        -8.910031590277917
      ],
      [
        "時期",
        -8.910219809840074
      ],
      [
        "情",
        -8.911149896682923
      ],
      [
        "自身",
        -8.911482305563352
      ],
      [
        "準",
        -8.913693005687579
      ],
      [
        "向け",
        -8.913906560508899
      ],
      [
        "幅",
        -8.9145911673765
      ],
      [
        "全て",
        -8.917935939315681
      ],
      [
        "最高",
        -8.920140069868909
      ],
      [
        "夏",
        -8.920724264916247
      ],
      [
        "列車",
        -8.921539337965797
      ],
      [
        "管理",
        -8.921803867801016
      ],
      [
        "機能",
        -8.922159356969875
      ],
      [
        "境",
        -8.924420662853317
      ],
      [
        "跡",
        -8.924461853473002
      ],
      [
        "車両",
        -8.925895840056434
      ],
      [
        "習",
        -8.92716485614737
      ],
      [
        "ふ",
        -8.92738989570466
      ],
      [
        "センター",
        -8.928408373439284
      ],
      [
        "ウル",
        -8.930211041450166
      ],
      [
        "ゾ",
        -8.930843550654409
      ],
      [
        "影響",
        -8.931481211842058
      ],
      [
        "敵",
        -8.93191725149951
      ],
      [
        "仕",
        -8.933271648914094
      ],
      [
        "されており",
        -8.934433385902729
      ],
      [
        "曜",
        -8.934614596733091
      ],
      [
        "襲",
        -8.937980410362266
      ],
      [
        "セン",
        -8.941577252220581
      ],
      [
        "京都",
        -8.942587710535525
      ],
      [
        "絵",
        -8.942604696059279
      ],
      [
        "副",
        -8.945656126349116
      ],
      [
        "最大",
        -8.946110438613621
      ],
      [
        "議員",
        -8.946257490907202
      ],
      [
        "再び",
        -8.94664031264389
      ],
      [
        "迎",
        -8.948276741170016
      ],
      [
        "一方",
        -8.948391544008118
      ],
      [
        "規",
        -8.951752059306623
      ],
      [
        "ゆ",
        -8.951950622007816
      ],
      [
        "モデル",
        -8.951980124904793
      ],
      [
        "営",
        -8.952226530838429
      ],
      [
        "ダム",
        -8.952478162753302
      ],
      [
        "キー",
        -8.954611799189115
      ],
      [
        "野球",
        -8.954660151984339
      ],
      [
        "休",
        -8.95614719004357
      ],
      [
        "発見",
        -8.956730164536243
      ],
      [
        "企業",
        -8.958184170898862
      ],
      [
        "ジョ",
        -8.959721178331524
      ],
      [
        "構造",
        -8.961301641095432
      ],
      [
        "路線",
        -8.961675417424651
      ],
      [
        "2010",
        -8.962309747281424
      ],
      [
        "彼女",
        -8.962542053955428
      ],
      [
        "セル",
        -8.964278228463815
      ],
      [
        "歩",
        -8.96513799704306
      ],
      [
        "皇",
        -8.965644610926061
      ],
      [
        "奪",
        -8.968178304995924
      ],
      [
        "シングル",
        -8.968464112734775
      ],
      [
        "横",
        -8.968572216366235
      ],
      [
        "考",
        -8.968901391287405
      ],
      [
        "決勝",
        -8.969536428267197
      ],
      [
        "道路",
        -8.97283807803309
      ],
      [
        "ショ",
        -8.97343062843587
      ],
      [
        "us",
        -8.973705293049978
      ],
      [
        "攻",
        -8.97428458338482
      ],
      [
        "第一",
        -8.975643992743707
      ],
      [
        "弟",
        -8.975990048593028
      ],
      [
        "振",
        -8.976070293279593
      ],
      [
        "実施",
        -8.97647590177611
      ],
      [
        "出来",
        -8.97717162924797
      ],
      [
        "刊",
        -8.977802833866216
      ],
      [
        "服",
        -8.977901798834859
      ],
      [
        "協",
        -8.979633448973683
      ],
      [
        "協会",
        -8.980337660032074
      ],
      [
        "エンジン",
        -8.980795835086765
      ],
      [
        "然",
        -8.982088077286164
      ],
      [
        "輪",
        -8.98242814006422
      ],
      [
        "減",
        -8.98284823554656
      ],
      [
        "容",
        -8.983030562792326
      ],
      [
        "順",
        -8.98482579758811
      ],
      [
        "2007",
        -8.985317500923445
      ],
      [
        "製作",
        -8.986160538765967
      ],
      [
        "述べ",
        -8.986231527141076
      ],
      [
        "賀",
        -8.98645000627595
      ],
      [
        "之",
        -8.986619353114957
      ],
      [
        "築",
        -8.987136875242388
      ],
      [
        "戦闘",
        -8.988160027293812
      ],
      [
        "らない",
        -8.99060895205153
      ],
      [
        "姿",
        -8.990675155579194
      ],
      [
        "評価",
        -8.990794558118822
      ],
      [
        "~",
        -8.991542753408462
      ],
      [
        "ジー",
        -8.992688615244791
      ],
      [
        "FC",
        -8.99535422431308
      ],
      [
        "列",
        -8.99749345616439
      ],
      [
        "衆",
        -8.997808351511065
      ],
      [
        "om",
        -8.9981456928866
      ],
      [
        "意味",
        -8.998319905045701
      ],
      [
        "そう",
        -9.000706712102158
      ],
      [
        "飛行",
        -9.000939723773259
      ],
      [
        "設計",
        -9.001873039103547
      ],
      [
        "割",
        -9.002501072767776
      ],
      [
        "提",
        -9.003177648001426
      ],
      [
        "酸",
        -9.003906665584982
      ],
      [
        "友",
        -9.004037818994508
      ],
      [
        "通常",
        -9.004885220056885
      ],
      [
        "指揮",
        -9.005182134944361
      ],
      [
        "考え",
        -9.005189017122564
      ],
      [
        "人物",
        -9.005503347328279
      ],
      [
        "結婚",
        -9.007303620795781
      ],
      [
        "記念",
        -9.007865737260472
      ],
      [
        "ロック",
        -9.008324785638615
      ],
      [
        "規模",
        -9.009779072828582
      ],
      [
        "最初の",
        -9.01004892154218
      ],
      [
        "2009",
        -9.010267763359986
      ],
      [
        "没",
        -9.011065795913828
      ],
      [
        "郷",
        -9.012611552339465
      ],
      [
        "備",
        -9.013204206376717
      ],
      [
        "彼",
        -9.015043009574768
      ],
      [
        "受け",
        -9.017191167399844
      ],
      [
        "宿",
        -9.017350526127728
      ],
      [
        "を与え",
        -9.017721716271367
      ],
      [
        "枚",
        -9.017804694439816
      ],
      [
        "能",
        -9.018206272902937
      ],
      [
        "遠",
        -9.01838270782585
      ],
      [
        "庁",
        -9.01864370131468
      ],
      [
        "70",
        -9.020361910619524
      ],
      [
        "'",
        -9.020604125884178
      ],
      [
        "覚",
        -9.021340277073774
      ],
      [
        "便",
        -9.021603319600493
      ],
      [
        "坂",
        -9.023551987749824
      ],
      [
        "80",
        -9.024391726148888
      ],
      [
        "et",
        -9.024956105639356
      ],
      [
        "2003",
        -9.026162874951085
      ],
      [
        "el",
        -9.028232336841054
      ],
      [
        "リスト",
        -9.029682910514193
      ],
      [
        "会議",
        -9.02974317203598
      ],
      [
        "滅",
        -9.031579695427986
      ],
      [
        "映",
        -9.032148095183166
      ],
      [
        "経営",
        -9.034343158628115
      ],
      [
        "死去",
        -9.034748900862853
      ],
      [
        "兼",
        -9.036124875338881
      ],
      [
        "am",
        -9.036150499448429
      ],
      [
        "ヨーロッパ",
        -9.03770988798531
      ],
      [
        "軽",
        -9.037745534642807
      ],
      [
        "階",
        -9.037951719432142
      ],
      [
        "テー",
        -9.038401730330511
      ],
      [
        "科学",
        -9.040159292877531
      ],
      [
        "出版",
        -9.040257540084479
      ],
      [
        "対応",
        -9.04049228088623
      ],
      [
        "連合",
        -9.040868650853096
      ],
      [
        "池",
        -9.04171028574428
      ],
      [
        "2011",
        -9.041835521725245
      ],
      [
        "設",
        -9.042245090946016
      ],
      [
        "搭載",
        -9.043292557847193
      ],
      [
        "負",
        -9.04399160235915
      ],
      [
        "頼",
        -9.045386353450052
      ],
      [
        "玉",
        -9.045762685519673
      ],
      [
        "捕",
        -9.045924357103031
      ],
      [
        "則",
        -9.046463657922857
      ],
      [
        "に対し",
        -9.04653830315049
      ],
      [
        "初期",
        -9.04816375880069
      ],
      [
        "倒",
        -9.04975941424675
      ],
      [
        "プレ",
        -9.050008734632367
      ],
      [
        "舎",
        -9.05245088985988
      ],
      [
        "予定",
        -9.054229902481032
      ],
      [
        "富",
        -9.054916448393657
      ],
      [
        "彼ら",
        -9.055839690793537
      ],
      [
        "以下",
        -9.055941149585738
      ],
      [
        "活",
        -9.056137652096472
      ],
      [
        "印",
        -9.056637954160678
      ],
      [
        "理由",
        -9.057597497963455
      ],
      [
        "似",
        -9.061134511954421
      ],
      [
        "イタリア",
        -9.061360521448831
      ],
      [
        "メートル",
        -9.062900540968808
      ],
      [
        "ジャン",
        -9.06374251538749
      ],
      [
        "衛",
        -9.065225075829574
      ],
      [
        "許",
        -9.065475874675371
      ],
      [
        "高等学校",
        -9.06575795161062
      ],
      [
        "内容",
        -9.067175116119797
      ],
      [
        "キャラクター",
        -9.070501797291639
      ],
      [
        "大きく",
        -9.072168171753228
      ],
      [
        "構成",
        -9.07237663786221
      ],
      [
        "名称",
        -9.073086460160072
      ],
      [
        "プレー",
        -9.073853854346249
      ],
      [
        "を務めた",
        -9.074256563129255
      ],
      [
        "廃",
        -9.07447051374305
      ],
      [
        "らず",
        -9.07613494054527
      ],
      [
        "延",
        -9.077203722460688
      ],
      [
        "連続",
        -9.078274040018565
      ],
      [
        "アニメ",
        -9.079348449448407
      ],
      [
        "引退",
        -9.082825938626431
      ],
      [
        "Z",
        -9.083235266679194
      ],
      [
        "忠",
        -9.086654680302713
      ],
      [
        "警",
        -9.087007220980484
      ],
      [
        "ドラマ",
        -9.087862227198682
      ],
      [
        "新聞",
        -9.08981699552786
      ],
      [
        "メント",
        -9.090083280814136
      ],
      [
        "&",
        -9.090649434302136
      ],
      [
        "毎",
        -9.090689556081257
      ],
      [
        "含",
        -9.091008474599857
      ],
      [
        "買",
        -9.092135123069747
      ],
      [
        "ょ",
        -9.092797280023213
      ],
      [
        "特別",
        -9.09356099234938
      ],
      [
        "完全",
        -9.095084648938377
      ],
      [
        "したこと",
        -9.095113741430048
      ],
      [
        "携",
        -9.096510961129798
      ],
      [
        "英語",
        -9.097407481672048
      ],
      [
        "読",
        -9.097620347119369
      ],
      [
        "症",
        -9.098971336158426
      ],
      [
        "娘",
        -9.099047136084556
      ],
      [
        "判",
        -9.09907161661881
      ],
      [
        "奈",
        -9.099103989799957
      ],
      [
        "鳥",
        -9.100640263217285
      ],
      [
        "女子",
        -9.102071835850944
      ],
      [
        "草",
        -9.102882523137586
      ],
      [
        "諸",
        -9.103135384583835
      ],
      [
        "介",
        -9.10540925316695
      ],
      [
        "専門",
        -9.105837243018684
      ],
      [
        "期間",
        -9.106211869276486
      ],
      [
        "文学",
        -9.107571759177231
      ],
      [
        "てしまう",
        -9.108463175483237
      ],
      [
        "週",
        -9.10969864443203
      ],
      [
        "リリース",
        -9.110860996622693
      ],
      [
        "公式",
        -9.112264886295943
      ],
      [
        "試",
        -9.112798643097275
      ],
      [
        "止",
        -9.115867150083035
      ],
      [
        "誌",
        -9.116080583250891
      ],
      [
        "陸軍",
        -9.116506199367965
      ],
      [
        "詞",
        -9.116577693994268
      ],
      [
        "審",
        -9.117195031552798
      ],
      [
        "アメリカ合衆国",
        -9.118894678652518
      ],
      [
        "芸",
        -9.11897280782306
      ],
      [
        "導入",
        -9.1200180194356
      ],
      [
        "騎",
        -9.120597217257044
      ],
      [
        "導",
        -9.121382486805738
      ],
      [
        "様々な",
        -9.12182241848787
      ],
      [
        "ファイ",
        -9.12318910019758
      ],
      [
        "程度",
        -9.124005866459541
      ],
      [
        "百",
        -9.125741760839121
      ],
      [
        "の戦い",
        -9.125760025664118
      ],
      [
        "タイトル",
        -9.127251145694027
      ],
      [
        "ファー",
        -9.129095670440634
      ],
      [
        "支配",
        -9.130126240384362
      ],
      [
        "設定",
        -9.131864707921874
      ],
      [
        "支援",
        -9.13209184417877
      ],
      [
        "自動車",
        -9.133010254742725
      ],
      [
        "特徴",
        -9.133809239853377
      ],
      [
        "講",
        -9.13500219237543
      ],
      [
        "提供",
        -9.135237503988991
      ],
      [
        "以来",
        -9.135389968476382
      ],
      [
        "救",
        -9.13563905534917
      ],
      [
        "仏",
        -9.136091268250826
      ],
      [
        "運転",
        -9.13731557929231
      ],
      [
        "陣",
        -9.137606688430186
      ],
      [
        "祖",
        -9.138099202230512
      ],
      [
        "老",
        -9.138651105819065
      ],
      [
        "大統領",
        -9.143553285893868
      ],
      [
        "給",
        -9.144942589210197
      ],
      [
        "六",
        -9.145337513654097
      ],
      [
        "遊",
        -9.146449650958754
      ],
      [
        "主張",
        -9.147503719906142
      ],
      [
        "探",
        -9.1479808621076
      ],
      [
        "天皇",
        -9.148252799655268
      ],
      [
        "交通",
        -9.148657239029975
      ],
      [
        "樹",
        -9.150072663013715
      ],
      [
        "辞",
        -9.150192326758729
      ],
      [
        "布",
        -9.150216868069775
      ],
      [
        "敷",
        -9.15053145181932
      ],
      [
        "完成",
        -9.151727367759678
      ],
      [
        "羽",
        -9.15252863645371
      ],
      [
        "対象",
        -9.152530911379097
      ],
      [
        "逆",
        -9.152668588870114
      ],
      [
        "銀",
        -9.153275783182968
      ],
      [
        "念",
        -9.154276461885173
      ],
      [
        "成功",
        -9.154763111586952
      ],
      [
        "ていない",
        -9.15509365399772
      ],
      [
        " of ",
        -9.15546981578437
      ],
      [
        "可",
        -9.15625694662603
      ],
      [
        "違",
        -9.156588513547252
      ],
      [
        "警察",
        -9.159231678775964
      ],
      [
        "具",
        -9.160680367182875
      ],
      [
        "環境",
        -9.161168331761134
      ],
      [
        "専",
        -9.161444848551513
      ],
      [
        "殿",
        -9.162231599337943
      ],
      [
        "陽",
        -9.163703766165575
      ],
      [
        "朝鮮",
        -9.164553335479495
      ],
      [
        "温",
        -9.164623577138844
      ],
      [
        "合わせ",
        -9.16606991811085
      ],
      [
        "銃",
        -9.166500095865743
      ],
      [
        "デザイン",
        -9.167312565321573
      ],
      [
        "額",
        -9.16769692340171
      ],
      [
        "魔",
        -9.169240713509096
      ],
      [
        "慶",
        -9.169850761010023
      ],
      [
        "ざ",
        -9.1727841806455
      ],
      [
        "できない",
        -9.172812530803112
      ],
      [
        "華",
        -9.173335156091104
      ],
      [
        "指定",
        -9.175195947660104
      ],
      [
        "結成",
        -9.177766473249978
      ],
      [
        "景",
        -9.177812338181498
      ],
      [
        "ていく",
        -9.178218795168275
      ],
      [
        "標",
        -9.181829150012291
      ],
      [
        "援",
        -9.183011771236805
      ],
      [
        "展開",
        -9.183205945466938
      ],
      [
        "ほ",
        -9.186497812125262
      ],
      [
        "舞台",
        -9.186718783756135
      ],
      [
        "骨",
        -9.186940109101505
      ],
      [
        "を含む",
        -9.187300690265518
      ],
      [
        "フォ",
        -9.187757470451784
      ],
      [
        "異なる",
        -9.188701816620206
      ],
      [
        "運営",
        -9.189012499061857
      ],
      [
        "編成",
        -9.190341507331802
      ],
      [
        "到",
        -9.191107818542845
      ],
      [
        "すべて",
        -9.191484941161352
      ],
      [
        "周辺",
        -9.192343804691054
      ],
      [
        "里",
        -9.192542539018456
      ],
      [
        "あるいは",
        -9.19301649936915
      ],
      [
        "駆",
        -9.193458453883107
      ],
      [
        "象",
        -9.197348534792702
      ],
      [
        "岸",
        -9.200575580552272
      ],
      [
        "漫画",
        -9.201048764910281
      ],
      [
        "焼",
        -9.203716190312418
      ],
      [
        "乱",
        -9.204252309316324
      ],
      [
        "公園",
        -9.206222936185842
      ],
      [
        "測",
        -9.206495843261456
      ],
      [
        "為",
        -9.207213349753314
      ],
      [
        "待",
        -9.207527806603697
      ],
      [
        "撮影",
        -9.207859017934224
      ],
      [
        "毛",
        -9.20901167305548
      ],
      [
        "聞",
        -9.211835744847432
      ],
      [
        "候補",
        -9.213673697632654
      ],
      [
        "就",
        -9.21377833666645
      ],
      [
        "幼",
        -9.215739916626534
      ],
      [
        "打ち",
        -9.215936794384977
      ],
      [
        "栄",
        -9.217573078170231
      ],
      [
        "アジア",
        -9.220477151673373
      ],
      [
        "サービス",
        -9.221383507052344
      ],
      [
        "帝",
        -9.223048523923719
      ],
      [
        "湖",
        -9.22425197144288
      ],
      [
        "廃止",
        -9.225260657162329
      ],
      [
        "スポーツ",
        -9.227890521977548
      ],
      [
        "はじめ",
        -9.229309171787914
      ],
      [
        "及",
        -9.22936404766568
      ],
      [
        "災",
        -9.231776153197064
      ],
      [
        "談",
        -9.234441492384335
      ],
      [
        "仮",
        -9.236178866997388
      ],
      [
        "爵",
        -9.24101595195872
      ],
      [
        "項",
        -9.241147009263708
      ],
      [
        "建築",
        -9.241266057343458
      ],
      [
        "輸送",
        -9.242547721941646
      ],
      [
        "察",
        -9.243242581224989
      ],
      [
        "ほぼ",
        -9.243760821811684
      ],
      [
        "税",
        -9.245986293473328
      ],
      [
        "ラジオ",
        -9.247480357381862
      ],
      [
        "亡",
        -9.247754229596957
      ],
      [
        "傷",
        -9.247757689591626
      ],
      [
        "スーパー",
        -9.249660267256168
      ],
      [
        "整備",
        -9.250123455860743
      ],
      [
        "浦",
        -9.250430109702208
      ],
      [
        "孫",
        -9.252151337494597
      ],
      [
        "ニューヨーク",
        -9.254451087213393
      ],
      [
        "統",
        -9.254555780424154
      ],
      [
        "値",
        -9.255253924407747
      ],
      [
        "が多い",
        -9.257444755485718
      ],
      [
        "働",
        -9.258344924179976
      ],
      [
        "模",
        -9.26151959587131
      ],
      [
        "超",
        -9.261923925652713
      ],
      [
        "互",
        -9.262206692911438
      ],
      [
        "拠",
        -9.262410119562126
      ],
      [
        "宇宙",
        -9.264511871605443
      ],
      [
        "紀",
        -9.265638378046685
      ],
      [
        "隣",
        -9.265760166311892
      ],
      [
        "連邦",
        -9.265882072449513
      ],
      [
        "状況",
        -9.267096862315894
      ],
      [
        "油",
        -9.267373449355912
      ],
      [
        "演奏",
        -9.26814058999306
      ],
      [
        "復帰",
        -9.271728200350353
      ],
      [
        "算",
        -9.277088599506536
      ],
      [
        "占",
        -9.278860407913497
      ],
      [
        "巡",
        -9.28089638085243
      ],
      [
        "ぼ",
        -9.28218200457893
      ],
      [
        "を行い",
        -9.2821885634572
      ],
      [
        "スペイン",
        -9.28346665708581
      ],
      [
        "ヴォ",
        -9.283512520939006
      ],
      [
        "既",
        -9.285339156057628
      ],
      [
        "経験",
        -9.28601118390469
      ],
      [
        "願",
        -9.28739608806984
      ],
      [
        "疑",
        -9.28796820974137
      ],
      [
        "静",
        -9.288655188094193
      ],
      [
        "魚",
        -9.29074191406858
      ],
      [
        "臣",
        -9.291002350888084
      ],
      [
        "闘",
        -9.293042286162079
      ],
      [
        "片",
        -9.293960788633145
      ],
      [
        "課",
        -9.294460731260973
      ],
      [
        "博",
        -9.294489174887001
      ],
      [
        "てきた",
        -9.294674158502014
      ],
      [
        "精",
        -9.295973221909824
      ],
      [
        "幕",
        -9.29804815458369
      ],
      [
        "非常に",
        -9.299471546238578
      ],
      [
        "構",
        -9.299719785132952
      ],
      [
        "黄",
        -9.299781002533743
      ],
      [
        "試験",
        -9.300404516661871
      ],
      [
        "招",
        -9.3018678872255
      ],
      [
        "批判",
        -9.303257901969385
      ],
      [
        "辺",
        -9.303995232802732
      ],
      [
        "湾",
        -9.305798513538665
      ],
      [
        "至",
        -9.306407732900908
      ],
      [
        "折",
        -9.308108084434853
      ],
      [
        "庫",
        -9.308949020735572
      ],
      [
        "距離",
        -9.311109774539666
      ],
      [
        "肉",
        -9.31136000569836
      ],
      [
        "避",
        -9.31147717855188
      ],
      [
        "株式会社",
        -9.311899217698373
      ],
      [
        "欠",
        -9.312274318269338
      ],
      [
        "損",
        -9.312790453367402
      ],
      [
        "企画",
        -9.315171026590592
      ],
      [
        "塚",
        -9.316528643642217
      ],
      [
        "竹",
        -9.317990098049147
      ],
      [
        "沿",
        -9.31987254948554
      ],
      [
        "処",
        -9.320095259061208
      ],
      [
        "聴",
        -9.320470023741349
      ],
      [
        "核",
        -9.322932408525336
      ],
      [
        "停",
        -9.326337231580785
      ],
      [
        "納",
        -9.32768487389591
      ],
      [
        "1999",
        -9.328801783898461
      ],
      [
        "浜",
        -9.334273110346091
      ],
      [
        "臨",
        -9.3343045658903
      ],
      [
        "伯",
        -9.336296646232167
      ],
      [
        "因",
        -9.339321680721383
      ],
      [
        "詳",
        -9.339738120556655
      ],
      [
        "”",
        -9.34063050400303
      ],
      [
        "漢",
        -9.342780315212798
      ],
      [
        "旅",
        -9.343102365477417
      ],
      [
        "罪",
        -9.3456247306254
      ],
      [
        "抗",
        -9.347481258828466
      ],
      [
        "裏",
        -9.348235932255111
      ],
      [
        "なければ",
        -9.34845715510934
      ],
      [
        "写",
        -9.350393952599976
      ],
      [
        "秒",
        -9.352011635853756
      ],
      [
        "時点で",
        -9.352247498043267
      ],
      [
        "担",
        -9.35263614730277
      ],
      [
        "酒",
        -9.356414289444757
      ],
      [
        "詩",
        -9.357419832277262
      ],
      [
        "刻",
        -9.357763420073441
      ],
      [
        "幸",
        -9.357886158615948
      ],
      [
        "に伴い",
        -9.35789158257444
      ],
      [
        "完",
        -9.358809764136641
      ],
      [
        "故",
        -9.359392866133273
      ],
      [
        "ゃ",
        -9.36085975119603
      ],
      [
        "散",
        -9.361060412298668
      ],
      [
        "苦",
        -9.366664092753725
      ],
      [
        "翼",
        -9.366787928696022
      ],
      [
        "採",
        -9.368625046486128
      ],
      [
        "由",
        -9.369466840912834
      ],
      [
        "被",
        -9.369621399213731
      ],
      [
        "監",
        -9.370803191873751
      ],
      [
        "背",
        -9.371675554595244
      ],
      [
        "固",
        -9.37177029525592
      ],
      [
        "舞",
        -9.372219510800925
      ],
      [
        "登録",
        -9.372320452875156
      ],
      [
        "七",
        -9.372575758152415
      ],
      [
        "イベント",
        -9.37780915024012
      ],
      [
        "唱",
        -9.377821114935266
      ],
      [
        "ていった",
        -9.378045500781353
      ],
      [
        "環",
        -9.380597272519724
      ],
      [
        "暗",
        -9.380830861253454
      ],
      [
        "喜",
        -9.38284240314936
      ],
      [
        "巨",
        -9.383925281192111
      ],
      [
        "染",
        -9.384101674701279
      ],
      [
        "房",
        -9.38468147254451
      ],
      [
        "香",
        -9.386129575409576
      ],
      [
        "オリンピック",
        -9.386422887237957
      ],
      [
        "によれば",
        -9.388147985843649
      ],
      [
        "瀬",
        -9.388420408525606
      ],
      [
        "礼",
        -9.389534685310668
      ],
      [
        "了",
        -9.39035751216735
      ],
      [
        "兄",
        -9.391107385938689
      ],
      [
        "申",
        -9.391487662318044
      ],
      [
        "づ",
        -9.392046629252324
      ],
      [
        "北海道",
        -9.394745961709543
      ],
      [
        "暴",
        -9.396654777436233
      ],
      [
        "雷",
        -9.399414704056703
      ],
      [
        "扱",
        -9.39960061655245
      ],
      [
        "枠",
        -9.399824230675234
      ],
      [
        "宅",
        -9.400331369810846
      ],
      [
        "払",
        -9.400515687371461
      ],
      [
        "1998",
        -9.404850238915245
      ],
      [
        "飾",
        -9.407250325392289
      ],
      [
        "宣",
        -9.408645933209108
      ],
      [
        "厳",
        -9.409109037994742
      ],
      [
        "+",
        -9.40957425646189
      ],
      [
        "我",
        -9.41063472937695
      ],
      [
        "季",
        -9.410764132311982
      ],
      [
        "余",
        -9.411566803927824
      ],
      [
        "岐",
        -9.414446183897532
      ],
      [
        "飛",
        -9.418755133187405
      ],
      [
        "還",
        -9.419263650638303
      ],
      [
        "純",
        -9.420700357431507
      ],
      [
        "縁",
        -9.422348580079097
      ],
      [
        "競",
        -9.42617389130359
      ],
      [
        "訴",
        -9.429917477816915
      ],
      [
        "登",
        -9.430417872866231
      ],
      [
        "を持って",
        -9.430641500458892
      ],
      [
        "貨",
        -9.430743976201734
      ],
      [
        "混",
        -9.431877453470241
      ],
      [
        "督",
        -9.434222078109327
      ],
      [
        "授",
        -9.434740297111055
      ],
      [
        "籍",
        -9.43667527933549
      ],
      [
        "益",
        -9.438210198944416
      ],
      [
        "冷",
        -9.43924823369195
      ],
      [
        "Q",
        -9.440740632066051
      ],
      [
        "縮",
        -9.441247487969738
      ],
      [
        "譲",
        -9.443732127238736
      ],
      [
        "触",
        -9.447027773541741
      ],
      [
        "ヶ",
        -9.44735105995208
      ],
      [
        "繰",
        -9.449742099314497
      ],
      [
        "壁",
        -9.450307390454446
      ],
      [
        "児",
        -9.450688081984625
      ],
      [
        "請",
        -9.452631654827934
      ],
      [
        "誘",
        -9.454787164782209
      ],
      [
        "を果たした",
        -9.458364370953124
      ],
      [
        "幹",
        -9.460618153280514
      ],
      [
        "免",
        -9.461054651451011
      ],
      [
        "呼",
        -9.462914322080943
      ],
      [
        "医",
        -9.463709042715212
      ],
      [
        "繁",
        -9.464653788272145
      ],
      [
        "1997",
        -9.46549671934163
      ],
      [
        "績",
        -9.468245699537738
      ],
      [
        "封",
        -9.470076899028077
      ],
      [
        "注",
        -9.470274431015865
      ],
      [
        "券",
        -9.474204985470202
      ],
      [
        "君",
        -9.475308692658315
      ],
      [
        "雲",
        -9.476220169036786
      ],
      [
        "逃",
        -9.47645224348487
      ],
      [
        "弁",
        -9.477381388517568
      ],
      [
        "駐",
        -9.478294801187927
      ],
      [
        "牧",
        -9.479264437788657
      ],
      [
        "閉",
        -9.479707309286363
      ],
      [
        "裁",
        -9.48211570029928
      ],
      [
        "程",
        -9.48558816967013
      ],
      [
        "奏",
        -9.48568225038619
      ],
      [
        "1996",
        -9.48770098896831
      ],
      [
        "康",
        -9.488773769400744
      ],
      [
        "名古屋",
        -9.489713981349995
      ],
      [
        "宇",
        -9.49007114161792
      ],
      [
        "圏",
        -9.491563103599878
      ],
      [
        "査",
        -9.491844815925836
      ],
      [
        "排",
        -9.492349101647225
      ],
      [
        "唯",
        -9.492658055699772
      ],
      [
        "植",
        -9.494212984525836
      ],
      [
        "砂",
        -9.494598220519247
      ],
      [
        "秘",
        -9.495189453397716
      ],
      [
        "塩",
        -9.495611976713175
      ],
      [
        "熊",
        -9.495724679754861
      ],
      [
        "株",
        -9.495893634141126
      ],
      [
        "麻",
        -9.497078107940672
      ],
      [
        "併",
        -9.498236852750654
      ],
      [
        "徒",
        -9.49869950997463
      ],
      [
        "仁",
        -9.500413093014075
      ],
      [
        "隠",
        -9.503191305689734
      ],
      [
        "旗",
        -9.504668599669863
      ],
      [
        "ゅ",
        -9.506034195409665
      ],
      [
        "1995",
        -9.508843716935399
      ],
      [
        "The ",
        -9.513494570891405
      ],
      [
        "泉",
        -9.513731994226486
      ],
      [
        "阿",
        -9.514812703115386
      ],
      [
        "以外の",
        -9.514997492639244
      ],
      [
        "皮",
        -9.51527233455649
      ],
      [
        "婚",
        -9.515478963809988
      ],
      [
        "そこで",
        -9.516232848929226
      ],
      [
        "息",
        -9.516237926937938
      ],
      [
        "“",
        -9.516566181775426
      ],
      [
        "塁",
        -9.519417720139526
      ],
      [
        "龍",
        -9.520313393769612
      ],
      [
        "液",
        -9.522308017620439
      ],
      [
        "弱",
        -9.526193037655325
      ],
      [
        "雑",
        -9.526373671101103
      ],
      [
        "茶",
        -9.526948599058784
      ],
      [
        "霊",
        -9.527064889960597
      ],
      [
        "恐",
        -9.527239351673948
      ],
      [
        "てしまった",
        -9.531554577271002
      ],
      [
        "訳",
        -9.532652104663871
      ],
      [
        "怪",
        -9.536177501757457
      ],
      [
        "奥",
        -9.536617707193736
      ],
      [
        "濃",
        -9.537674991540085
      ],
      [
        "隆",
        -9.538233453726095
      ],
      [
        "明らか",
        -9.538724159224817
      ],
      [
        "答",
        -9.540264180187545
      ],
      [
        "障",
        -9.541359094458072
      ],
      [
        "功",
        -9.542228134363139
      ],
      [
        "例えば",
        -9.54292055545985
      ],
      [
        "操",
        -9.544168549898682
      ],
      [
        "稲",
        -9.546173751657273
      ],
      [
        "架",
        -9.550152792733074
      ],
      [
        "底",
        -9.55033132962372
      ],
      [
        "健",
        -9.55043419136448
      ],
      [
        "隻",
        -9.55423735164489
      ],
      [
        "墓",
        -9.557559017325568
      ],
      [
        "j",
        -9.561914817417072
      ],
      [
        "アフリカ",
        -9.562939290279639
      ],
      [
        "件",
        -9.565024488789543
      ],
      [
        "価",
        -9.565782690063463
      ],
      [
        "九",
        -9.566178208178142
      ],
      [
        "冬",
        -9.56868129492435
      ],
      [
        "挑",
        -9.569803391239004
      ],
      [
        "昇",
        -9.573913140871941
      ],
      [
        "丘",
        -9.576715299883901
      ],
      [
        "倍",
        -9.577662935451333
      ],
      [
        "済",
        -9.578575044738937
      ],
      [
        "...",
        -9.580723067450307
      ],
      [
        "抱",
        -9.580848675842791
      ],
      [
        "オープン",
        -9.581282998918702
      ],
      [
        "奉",
        -9.583183151876314
      ],
      [
        "即",
        -9.58709638790444
      ],
      [
        "認められ",
        -9.587272914813413
      ],
      [
        "顔",
        -9.588826786173081
      ],
      [
        "鉱",
        -9.595778478377817
      ],
      [
        "筆",
        -9.596570356034897
      ],
      [
        "弘",
        -9.597087317904524
      ],
      [
        "ソフト",
        -9.600948797452894
      ],
      [
        "必",
        -9.601382367675386
      ],
      [
        "沈",
        -9.601619142137203
      ],
      [
        "恵",
        -9.60165046751389
      ],
      [
        "恋",
        -9.601932440070405
      ],
      [
        "効",
        -9.602513277965665
      ],
      [
        "メディア",
        -9.604442782922925
      ],
      [
        "炭",
        -9.605007965411751
      ],
      [
        "虫",
        -9.606738178502109
      ],
      [
        "共和国",
        -9.608695926850604
      ],
      [
        "冠",
        -9.608944606403725
      ],
      [
        "伏",
        -9.610081239251553
      ],
      [
        "致",
        -9.610618431958606
      ],
      [
        "展",
        -9.612322111119209
      ],
      [
        "態",
        -9.613188306763053
      ],
      [
        "策",
        -9.61710054407158
      ],
      [
        "寛",
        -9.622990182798432
      ],
      [
        "束",
        -9.624142902222815
      ],
      [
        "妹",
        -9.624206981168093
      ],
      [
        "荷",
        -9.62484799655833
      ],
      [
        "簡",
        -9.626966267429653
      ],
      [
        "整",
        -9.627038081237442
      ],
      [
        "彦",
        -9.630571208810235
      ],
      [
        "患",
        -9.631216318097932
      ],
      [
        "ぬ",
        -9.631926419317129
      ],
      [
        "雨",
        -9.632120170831403
      ],
      [
        "善",
        -9.633841881803582
      ],
      [
        "討",
        -9.636605384138491
      ],
      [
        "雪",
        -9.63892523281835
      ],
      [
        "厚",
        -9.64038950484869
      ],
      [
        "途",
        -9.6404501711184
      ],
      [
        "伴",
        -9.645726655140464
      ],
      [
        "午",
        -9.6488591434442
      ],
      [
        "替",
        -9.651429131414599
      ],
      [
        "勤",
        -9.652862497313533
      ],
      [
        "刺",
        -9.652906666163236
      ],
      [
        "承",
        -9.654440526672413
      ],
      [
        "ョ",
        -9.655428440037964
      ],
      [
        "軸",
        -9.658096932037667
      ],
      [
        "葬",
        -9.658494750670734
      ],
      [
        "塔",
        -9.661749540239004
      ],
      [
        "歴",
        -9.661912215461408
      ],
      [
        "陥",
        -9.661982431080771
      ],
      [
        "踏",
        -9.6678223996235
      ],
      [
        "主人公",
        -9.669408524507705
      ],
      [
        "鎮",
        -9.669799015898885
      ],
      [
        "埋",
        -9.671880356764524
      ],
      [
        "掘",
        -9.67198117676729
      ],
      [
        "荒",
        -9.674538679885693
      ],
      [
        "飲",
        -9.675179078977255
      ],
      [
        "儀",
        -9.6758198877281
      ],
      [
        "覇",
        -9.676967626006695
      ],
      [
        "賛",
        -9.680452657447688
      ],
      [
        "床",
        -9.682624247802602
      ],
      [
        "緑",
        -9.684732482597239
      ],
      [
        "囲",
        -9.687845444280118
      ],
      [
        "貫",
        -9.687937340354452
      ],
      [
        "柄",
        -9.692455188373874
      ],
      [
        "迫",
        -9.692592411997124
      ],
      [
        "齢",
        -9.692661030870765
      ],
      [
        "施",
        -9.694415104594569
      ],
      [
        "第二次世界大戦",
        -9.694756171605645
      ],
      [
        "犯",
        -9.695907352005067
      ],
      [
        "矢",
        -9.697510567459675
      ],
      [
        "犬",
        -9.698062358206986
      ],
      [
        "浅",
        -9.698303862434457
      ],
      [
        "筋",
        -9.698752525082146
      ],
      [
        "豪",
        -9.699305001745374
      ],
      [
        "浮",
        -9.70006515588587
      ],
      [
        "夢",
        -9.704464650285479
      ],
      [
        "?",
        -9.70661948646531
      ],
      [
        "太平洋",
        -9.707211451890014
      ],
      [
        "オリジナル",
        -9.70759427234214
      ],
      [
        "摩",
        -9.708744108489626
      ],
      [
        "貴",
        -9.70949284251686
      ],
      [
        "募",
        -9.711537357630066
      ],
      [
        "衣",
        -9.714373493984636
      ],
      [
        "誤",
        -9.717463872381064
      ],
      [
        "億",
        -9.71906811802642
      ],
      [
        "充",
        -9.730456125367901
      ],
      [
        "杉",
        -9.732132242874352
      ],
      [
        "姉",
        -9.733346507054417
      ],
      [
        "スタジオ",
        -9.733526903320026
      ],
      [
        "締",
        -9.734025534038476
      ],
      [
        "盗",
        -9.734454916778764
      ],
      [
        "剣",
        -9.734562247464698
      ],
      [
        "緒",
        -9.73807473293077
      ],
      [
        "棄",
        -9.73846976274266
      ],
      [
        "婦",
        -9.739224344165377
      ],
      [
        "徴",
        -9.739410292438635
      ],
      [
        "脈",
        -9.740735217341449
      ],
      [
        "にあたる",
        -9.742614734212738
      ],
      [
        "ユダヤ",
        -9.747962012084862
      ],
      [
        "快",
        -9.748106391255504
      ],
      [
        "仲",
        -9.75285760514369
      ],
      [
        "亜",
        -9.754692304518537
      ],
      [
        "双",
        -9.75930271536296
      ],
      [
        "竜",
        -9.762388173925318
      ],
      [
        "侵",
        -9.763881529509545
      ],
      [
        "威",
        -9.764892917669668
      ],
      [
        "本塁打",
        -9.767368044227071
      ],
      [
        "綱",
        -9.7680696929616
      ],
      [
        "織",
        -9.768646760307067
      ],
      [
        "削",
        -9.768772901843526
      ],
      [
        "吹",
        -9.770662911300084
      ],
      [
        "脳",
        -9.771367946766514
      ],
      [
        "索",
        -9.77419306992097
      ],
      [
        "暦",
        -9.77430475185094
      ],
      [
        "尊",
        -9.774639872497467
      ],
      [
        "取締役",
        -9.775608812736946
      ],
      [
        "署",
        -9.777212868658811
      ],
      [
        "ウィリアム",
        -9.7792329388647
      ],
      [
        "縦",
        -9.77949307299579
      ],
      [
        "窓",
        -9.780691328180119
      ],
      [
        "ァ",
        -9.784413531340185
      ],
      [
        "輸",
        -9.786472620685005
      ],
      [
        "剤",
        -9.786628851494646
      ],
      [
        "図書館",
        -9.788704775799276
      ],
      [
        "験",
        -9.791845781071563
      ],
      [
        "ぜ",
        -9.793056249535683
      ],
      [
        "プロジェクト",
        -9.793095125016027
      ],
      [
        "雇",
        -9.793398410664269
      ],
      [
        "易",
        -9.793424276641373
      ],
      [
        "沼",
        -9.7937399925713
      ],
      [
        "潜",
        -9.794230818793855
      ],
      [
        "レギュラー",
        -9.79575390169958
      ],
      [
        "コンピュータ",
        -9.796058239446086
      ],
      [
        "李",
        -9.796857569471033
      ],
      [
        "候",
        -9.79934042820856
      ],
      [
        "露",
        -9.801129476444906
      ],
      [
        "禁",
        -9.802246143238936
      ],
      [
        "チャンピオン",
        -9.80503988105953
      ],
      [
        "→",
        -9.806461255159544
      ],
      [
        "託",
        -9.810197489378748
      ],
      [
        "奇",
        -9.810467655339446
      ],
      [
        "艇",
        -9.81518802161276
      ],
      [
        "覧",
        -9.815537129451794
      ],
      [
        "献",
        -9.817775745267411
      ],
      [
        "ェ",
        -9.81840063080047
      ],
      [
        "序",
        -9.81946327637996
      ],
      [
        "潟",
        -9.823639544109707
      ],
      [
        "労",
        -9.82385716736396
      ],
      [
        "裂",
        -9.824226398586566
      ],
      [
        "脚",
        -9.825287889821176
      ],
      [
        "笑",
        -9.827401377734928
      ],
      [
        "頂",
        -9.828422647733415
      ],
      [
        "札",
        -9.829005915740305
      ],
      [
        "オーストラリア",
        -9.829130296657782
      ],
      [
        "狭",
        -9.83117741620545
      ],
      [
        "敬",
        -9.833268229227683
      ],
      [
        "廷",
        -9.833663212939689
      ],
      [
        "稿",
        -9.835086447479691
      ],
      [
        "寿",
        -9.836353247593513
      ],
      [
        "径",
        -9.838177088869616
      ],
      [
        "炎",
        -9.83968625335689
      ],
      [
        "貞",
        -9.840322373048268
      ],
      [
        "しばしば",
        -9.840839597950234
      ],
      [
        "ィ",
        -9.841889258600014
      ],
      [
        "依",
        -9.84586778598773
      ],
      [
        "牛",
        -9.846145734736671
      ],
      [
        "享",
        -9.84943132318726
      ],
      [
        "堀",
        -9.856196676685975
      ],
      [
        "歯",
        -9.857976144528353
      ],
      [
        "戒",
        -9.858745531081691
      ],
      [
        "鹿",
        -9.86020489099926
      ],
      [
        "網",
        -9.861910283281436
      ],
      [
        "僚",
        -9.862113494011634
      ],
      [
        "菌",
        -9.864188605632004
      ],
      [
        "鶴",
        -9.864922027280343
      ],
      [
        "杯",
        -9.866145593311654
      ],
      [
        "鏡",
        -9.86732979860321
      ],
      [
        "を通じて",
        -9.869327026640239
      ],
      [
        "才",
        -9.873641941703879
      ],
      [
        "茂",
        -9.876895517325902
      ],
      [
        "殖",
        -9.878753563196494
      ],
      [
        "征",
        -9.880369678316681
      ],
      [
        "桜",
        -9.881236340214778
      ],
      [
        "干",
        -9.882397082390742
      ],
      [
        "漁",
        -9.885596088026587
      ],
      [
        "ャ",
        -9.886610942185593
      ],
      [
        "伸",
        -9.892493876976673
      ],
      [
        "憲",
        -9.89440656542301
      ],
      [
        "滞",
        -9.899381029987335
      ],
      [
        "姓",
        -9.899381029987335
      ],
      [
        "込",
        -9.901585155851167
      ],
      [
        "顧",
        -9.903185324969117
      ],
      [
        "卵",
        -9.90322767631589
      ],
      [
        "輝",
        -9.903947923773094
      ],
      [
        "智",
        -9.904795938409636
      ],
      [
        "慮",
        -9.905814506136801
      ],
      [
        "贈",
        -9.906281696631531
      ],
      [
        "柔",
        -9.910880286838548
      ],
      [
        "那",
        -9.911947796227096
      ],
      [
        "遂",
        -9.913444226451816
      ],
      [
        "腹",
        -9.913914995954574
      ],
      [
        "芝",
        -9.915542997941897
      ],
      [
        "侯",
        -9.915585875911194
      ],
      [
        "執",
        -9.917156997542808
      ],
      [
        "乳",
        -9.918677931368617
      ],
      [
        "陰",
        -9.921693290434204
      ],
      [
        "述",
        -9.9261566240992
      ],
      [
        "郊",
        -9.926276784934359
      ],
      [
        "磁",
        -9.928924011233601
      ],
      [
        "エネルギー",
        -9.929576044493015
      ],
      [
        "銅",
        -9.929663013179828
      ],
      [
        "借",
        -9.931926885802246
      ],
      [
        "勧",
        -9.933278944626286
      ],
      [
        "裕",
        -9.936470064661977
      ],
      [
        "禄",
        -9.936513849416125
      ],
      [
        "姫",
        -9.940418390657506
      ],
      [
        "庭",
        -9.940818275803917
      ],
      [
        "沖",
        -9.946350430126897
      ],
      [
        "郵",
        -9.950269163837353
      ],
      [
        "耐",
        -9.950846428506928
      ],
      [
        "毒",
        -9.950935268040565
      ],
      [
        "眼",
        -9.954852041713067
      ],
      [
        "揚",
        -9.95489663877858
      ],
      [
        "緯",
        -9.957084334980685
      ],
      [
        "微",
        -9.957352545348579
      ],
      [
        "届",
        -9.957933914713278
      ],
      [
        "ミュージック",
        -9.959187244044323
      ],
      [
        "範",
        -9.96118766100021
      ],
      [
        "いわゆる",
        -9.962372415812984
      ],
      [
        "夕",
        -9.962642021337668
      ],
      [
        "拝",
        -9.96345135570423
      ],
      [
        "須",
        -9.963496322002495
      ],
      [
        "刀",
        -9.965702949657135
      ],
      [
        "灯",
        -9.96741755808593
      ],
      [
        "却",
        -9.968759256754039
      ],
      [
        "痛",
        -9.96886372261295
      ],
      [
        "氷",
        -9.969316078262592
      ],
      [
        "票",
        -9.970785873757919
      ],
      [
        "湯",
        -9.971354214752914
      ],
      [
        "勇",
        -9.971716985417752
      ],
      [
        "劉",
        -9.97389637741261
      ],
      [
        "俗",
        -9.974487447721614
      ],
      [
        "唐",
        -9.97712879543256
      ],
      [
        "喫",
        -9.978452090172544
      ],
      [
        "謝",
        -9.978817445370298
      ],
      [
        "柳",
        -9.979228629586546
      ],
      [
        "壊",
        -9.981237339440758
      ],
      [
        "録",
        -9.982418142567854
      ],
      [
        "握",
        -9.985738681230355
      ],
      [
        "尉",
        -9.985922678102895
      ],
      [
        "羅",
        -9.98873283335844
      ],
      [
        "響",
        -9.989155681941043
      ],
      [
        "欧",
        -9.99118686511825
      ],
      [
        "腕",
        -9.991782250094758
      ],
      [
        "顕",
        -9.992106219181624
      ],
      [
        "拓",
        -9.992522905145263
      ],
      [
        "鎌",
        -9.99665284140909
      ],
      [
        "載",
        -9.997963888281586
      ],
      [
        "亀",
        -9.99921360265526
      ],
      [
        "診",
        -10.001547271539653
      ],
      [
        "荘",
        -10.00604323977252
      ],
      [
        "溶",
        -10.006231011161372
      ],
      [
        "晴",
        -10.008298826828364
      ],
      [
        "孝",
        -10.015048911460877
      ],
      [
        "岳",
        -10.015333130216437
      ],
      [
        "飯",
        -10.019939245012013
      ],
      [
        "尚",
        -10.021463454028147
      ],
      [
        "q",
        -10.022608137338
      ],
      [
        "詰",
        -10.024805782920252
      ],
      [
        "滑",
        -10.025762789476829
      ],
      [
        "供",
        -10.026515230697026
      ],
      [
        "覆",
        -10.027247961981606
      ],
      [
        "塗",
        -10.029936458283483
      ],
      [
        "也",
        -10.03234302455413
      ],
      [
        "隔",
        -10.03354848301511
      ],
      [
        "カリフォルニア",
        -10.03509359329357
      ],
      [
        "柱",
        -10.036157243159794
      ],
      [
        "委",
        -10.037662692087569
      ],
      [
        "如",
        -10.039063869887693
      ],
      [
        "彩",
        -10.040520357582679
      ],
      [
        "幾",
        -10.048912083454569
      ],
      [
        "掲",
        -10.051712306071465
      ],
      [
        "薄",
        -10.053085302393326
      ],
      [
        "誰",
        -10.054710198117096
      ],
      [
        "俊",
        -10.057276010098322
      ],
      [
        "蒸",
        -10.05935321354515
      ],
      [
        "洗",
        -10.060145665482152
      ],
      [
        "怒",
        -10.06064126702856
      ],
      [
        "穴",
        -10.061930981733715
      ],
      [
        "律",
        -10.064949436805325
      ],
      [
        "丹",
        -10.065112768702333
      ],
      [
        "趣",
        -10.065561020527657
      ],
      [
        "陵",
        -10.068154861612276
      ],
      [
        "勲",
        -10.069204284525815
      ],
      [
        "昌",
        -10.071958003784006
      ],
      [
        "包",
        -10.074054164570795
      ],
      [
        "償",
        -10.0741664519921
      ],
      [
        "叙",
        -10.074367462068366
      ],
      [
        "×",
        -10.076480510925993
      ],
      [
        "潮",
        -10.07748829615128
      ],
      [
        "埼",
        -10.079304872908804
      ],
      [
        "阪",
        -10.079587480107065
      ],
      [
        "繋",
        -10.07965847970166
      ],
      [
        "撤",
        -10.079718474481588
      ],
      [
        "尽",
        -10.079810063755279
      ],
      [
        "箱",
        -10.08021440026976
      ],
      [
        "鳴",
        -10.080972972168016
      ],
      [
        "嫌",
        -10.086553485342849
      ],
      [
        "慣",
        -10.08777520149648
      ],
      [
        "泊",
        -10.089967849358308
      ],
      [
        "枝",
        -10.093291470558942
      ],
      [
        "往",
        -10.097088781086429
      ],
      [
        "鑑",
        -10.098477884566167
      ],
      [
        "梅",
        -10.099353496262403
      ],
      [
        "嘉",
        -10.10167499957442
      ],
      [
        "玄",
        -10.102191621909046
      ],
      [
        "債",
        -10.104312568335018
      ],
      [
        "浴",
        -10.104934185076386
      ],
      [
        "硬",
        -10.105296973367404
      ],
      [
        "旬",
        -10.105348811011902
      ],
      [
        "貸",
        -10.106022945034375
      ],
      [
        ";",
        -10.108308007439181
      ],
      [
        "渋",
        -10.10836000140788
      ],
      [
        "飼",
        -10.108463997456099
      ],
      [
        "鬼",
        -10.111693251023347
      ],
      [
        "句",
        -10.112267273895524
      ],
      [
        "プロデューサー",
        -10.112267274057071
      ],
      [
        "吸",
        -10.112844361077768
      ],
      [
        "輩",
        -10.11367763768937
      ],
      [
        "緊",
        -10.113939034595859
      ],
      [
        "塞",
        -10.114723635535606
      ],
      [
        "紅",
        -10.116609193249777
      ],
      [
        "アカデミー",
        -10.121654802231392
      ],
      [
        "澤",
        -10.122287292676305
      ],
      [
        "維",
        -10.124566942686613
      ],
      [
        "祝",
        -10.126302407560361
      ],
      [
        "碑",
        -10.12762670058122
      ],
      [
        "摂",
        -10.128687399150364
      ],
      [
        "筒",
        -10.130386860511221
      ],
      [
        "邦",
        -10.1321720303719
      ],
      [
        "斎",
        -10.13400783414109
      ],
      [
        "煙",
        -10.134861736794507
      ],
      [
        "塾",
        -10.138766946913668
      ],
      [
        "弥",
        -10.138766946913668
      ],
      [
        "燃",
        -10.139126726552023
      ],
      [
        "識",
        -10.139183834496894
      ],
      [
        "遅",
        -10.140491514700596
      ],
      [
        "促",
        -10.140698433416512
      ],
      [
        "療",
        -10.14947299130838
      ],
      [
        "騒",
        -10.150520687831534
      ],
      [
        "鋼",
        -10.150683404108905
      ],
      [
        "偽",
        -10.152475032797716
      ],
      [
        "傘",
        -10.153616833704433
      ],
      [
        "弦",
        -10.154923347404207
      ],
      [
        "狙",
        -10.157869259356383
      ],
      [
        "擁",
        -10.160659500798305
      ],
      [
        "僧",
        -10.162523996416255
      ],
      [
        "影",
        -10.162781207550216
      ],
      [
        "融",
        -10.162898027190577
      ],
      [
        "遇",
        -10.168083235743238
      ],
      [
        "斉",
        -10.168856268000416
      ],
      [
        "菱",
        -10.169077244163455
      ],
      [
        "震",
        -10.176298647349084
      ],
      [
        "欲",
        -10.178179568696343
      ],
      [
        "随",
        -10.180747609185845
      ],
      [
        "押",
        -10.182957520079505
      ],
      [
        "晩",
        -10.183826774085711
      ],
      [
        "釈",
        -10.184384801541253
      ],
      [
        "珍",
        -10.185454159405163
      ],
      [
        "ぞ",
        -10.186015543018486
      ],
      [
        "]",
        -10.189280515252879
      ],
      [
        "徹",
        -10.19012653899178
      ],
      [
        "迷",
        -10.19114271318345
      ],
      [
        "[",
        -10.191764217243065
      ],
      [
        "獣",
        -10.193687675533644
      ],
      [
        "旨",
        -10.19680700655577
      ],
      [
        "悲",
        -10.199309496130658
      ],
      [
        "研",
        -10.201464597903993
      ],
      [
        "邸",
        -10.201875354533922
      ],
      [
        "駒",
        -10.20301785272992
      ],
      [
        "看",
        -10.204734051199937
      ],
      [
        "冒",
        -10.206395847467537
      ],
      [
        "衰",
        -10.20788808523937
      ],
      [
        "該",
        -10.208347683673209
      ],
      [
        "斜",
        -10.21208977209191
      ],
      [
        "獄",
        -10.21208977209191
      ],
      [
        "恒",
        -10.212551306123686
      ],
      [
        "又",
        -10.217816303241602
      ],
      [
        "洞",
        -10.222992539061806
      ],
      [
        "貧",
        -10.223400797553305
      ],
      [
        "閣",
        -10.224258526947763
      ],
      [
        "附",
        -10.22638029382686
      ],
      [
        "泰",
        -10.229486068370504
      ],
      [
        "乾",
        -10.233838632368089
      ],
      [
        "奨",
        -10.235667649338593
      ],
      [
        "梁",
        -10.242065964953044
      ],
      [
        "垣",
        -10.242422630137282
      ],
      [
        "é",
        -10.245101681569182
      ],
      [
        "緩",
        -10.24557870969293
      ],
      [
        "狩",
        -10.246772276509894
      ],
      [
        "呉",
        -10.24820643971205
      ],
      [
        "インタビュー",
        -10.248266241175937
      ],
      [
        "韓",
        -10.24889272468974
      ],
      [
        "賃",
        -10.249463021973718
      ],
      [
        "畑",
        -10.250181778555612
      ],
      [
        "曹",
        -10.25048141300374
      ],
      [
        "豆",
        -10.251500842211414
      ],
      [
        "誠",
        -10.2531821708563
      ],
      [
        "旋",
        -10.253963749685004
      ],
      [
        "刷",
        -10.254866331128762
      ],
      [
        "頻",
        -10.256613635302376
      ],
      [
        "糸",
        -10.257820453973142
      ],
      [
        "浪",
        -10.25933102827805
      ],
      [
        "巣",
        -10.2604805927799
      ],
      [
        "踊",
        -10.262844373502809
      ],
      [
        "括",
        -10.264423337180203
      ],
      [
        "妙",
        -10.264970482916826
      ],
      [
        "需",
        -10.265274582177076
      ],
      [
        "紛",
        -10.266735547282018
      ],
      [
        "幡",
        -10.266979249113959
      ],
      [
        "彰",
        -10.267040183852853
      ],
      [
        "阻",
        -10.271559689513639
      ],
      [
        "卿",
        -10.274625013924958
      ],
      [
        "にもかかわらず",
        -10.274809232538644
      ],
      [
        "笠",
        -10.27714561036505
      ],
      [
        "о",
        -10.277391862713303
      ],
      [
        "а",
        -10.278685683360388
      ],
      [
        "崩",
        -10.282964283554737
      ],
      [
        "努",
        -10.283258249796042
      ],
      [
        "透",
        -10.283753835991561
      ],
      [
        "━",
        -10.285800729150742
      ],
      [
        "箇",
        -10.287043312640904
      ],
      [
        "偵",
        -10.28978244343408
      ],
      [
        "寝",
        -10.290218906840293
      ],
      [
        "罰",
        -10.29046840005841
      ],
      [
        "滝",
        -10.294719336349292
      ],
      [
        "卒",
        -10.29482479459863
      ],
      [
        "紋",
        -10.295346000947381
      ],
      [
        "棋",
        -10.29685160017738
      ],
      [
        "臓",
        -10.299617766715691
      ],
      [
        "庄",
        -10.299806647909922
      ],
      [
        "衝",
        -10.300531670756547
      ],
      [
        "呂",
        -10.301192867847265
      ],
      [
        "菊",
        -10.30188669908466
      ],
      [
        "練",
        -10.303503151119994
      ],
      [
        "膜",
        -10.305996467133903
      ],
      [
        "撲",
        -10.306693640441159
      ],
      [
        "冊",
        -10.307391300138152
      ],
      [
        "梨",
        -10.308978702845707
      ],
      [
        "糖",
        -10.311969858896534
      ],
      [
        "筑",
        -10.312224838977508
      ],
      [
        "髪",
        -10.315225735111786
      ],
      [
        "懸",
        -10.317402223503441
      ],
      [
        "#",
        -10.317915027591356
      ],
      [
        "掛",
        -10.318385537868998
      ],
      [
        "恩",
        -10.319840388388215
      ],
      [
        "さまざまな",
        -10.319904630971955
      ],
      [
        "–",
        -10.320933073931704
      ],
      [
        "獲",
        -10.323634724347947
      ],
      [
        "雅",
        -10.324024764261651
      ],
      [
        "宰",
        -10.325444989799257
      ],
      [
        "粉",
        -10.328161943308443
      ],
      [
        "浄",
        -10.32965293282308
      ],
      [
        "紫",
        -10.331406066184929
      ],
      [
        "陳",
        -10.332186224206215
      ],
      [
        "肥",
        -10.332186224206216
      ],
      [
        "遭",
        -10.334986799176235
      ],
      [
        "控",
        -10.336226765398754
      ],
      [
        "脇",
        -10.336749316767458
      ],
      [
        "熟",
        -10.34646609872637
      ],
      [
        "彫",
        -10.349439341748127
      ],
      [
        "添",
        -10.353284607863067
      ],
      [
        "謀",
        -10.355854243548064
      ],
      [
        "ぱ",
        -10.357144717143784
      ],
      [
        "捨",
        -10.357945224173996
      ],
      [
        "稼",
        -10.358479251755663
      ],
      [
        "譜",
        -10.358612803223208
      ],
      [
        "菜",
        -10.359615008157393
      ],
      [
        "抑",
        -10.364801783032558
      ],
      [
        "憶",
        -10.365245993371026
      ],
      [
        "誇",
        -10.368275686658873
      ],
      [
        "峰",
        -10.368882728360814
      ],
      [
        "穂",
        -10.370165472257524
      ],
      [
        "肩",
        -10.371720472232221
      ],
      [
        "勃",
        -10.373616785149492
      ],
      [
        "昭",
        -10.374023563591106
      ],
      [
        "批",
        -10.375731189234275
      ],
      [
        "赴",
        -10.377352187481142
      ],
      [
        "銭",
        -10.38185316687882
      ],
      [
        "薦",
        -10.382810530099926
      ],
      [
        "伐",
        -10.383631857273524
      ],
      [
        "灰",
        -10.38561952070988
      ],
      [
        "耳",
        -10.386992628611056
      ],
      [
        "挟",
        -10.389951210649631
      ],
      [
        "晶",
        -10.390433669822077
      ],
      [
        "係",
        -10.39080596704015
      ],
      [
        "況",
        -10.391905621594443
      ],
      [
        "賢",
        -10.392918571876256
      ],
      [
        "汚",
        -10.395825450068317
      ],
      [
        "棒",
        -10.401246459276104
      ],
      [
        "脅",
        -10.401385846668683
      ],
      [
        "革",
        -10.4029356181599
      ],
      [
        "眠",
        -10.403688548124848
      ],
      [
        "芳",
        -10.404806921008586
      ],
      [
        "丁",
        -10.405698065272091
      ],
      [
        "悩",
        -10.408169563847899
      ],
      [
        "傍",
        -10.409503740016048
      ],
      [
        "堅",
        -10.410276972164478
      ],
      [
        "胸",
        -10.410487957466529
      ],
      [
        "侍",
        -10.411895664895317
      ],
      [
        "傾",
        -10.41363347392938
      ],
      [
        "励",
        -10.41549431399336
      ],
      [
        "普",
        -10.416105888760042
      ],
      [
        "°",
        -10.41931881668808
      ],
      [
        "峡",
        -10.420170696198296
      ],
      [
        "棟",
        -10.420810082409067
      ],
      [
        "麗",
        -10.423442973703342
      ],
      [
        "и",
        -10.424583671791106
      ],
      [
        "召",
        -10.425868514395674
      ],
      [
        "阜",
        -10.426511555286378
      ],
      [
        "祀",
        -10.430378508436645
      ],
      [
        "袋",
        -10.431383497573597
      ],
      [
        "虎",
        -10.4333245477868
      ],
      [
        "扉",
        -10.433612431483649
      ],
      [
        "噴",
        -10.43490893470788
      ],
      [
        "淡",
        -10.436207121035105
      ],
      [
        "揮",
        -10.439751422632048
      ],
      [
        "粒",
        -10.448113319973496
      ],
      [
        "劣",
        -10.44979448402633
      ],
      [
        "虜",
        -10.452504909829203
      ],
      [
        "垂",
        -10.456400255044057
      ],
      [
        "薩",
        -10.459350218463758
      ],
      [
        "幣",
        -10.464310986816402
      ],
      [
        "磨",
        -10.46445944838362
      ],
      [
        "銘",
        -10.465499296956063
      ],
      [
        "仙",
        -10.46663983830904
      ],
      [
        "鎖",
        -10.468027262110764
      ],
      [
        "涯",
        -10.47101367435342
      ],
      [
        "驚",
        -10.472434447791487
      ],
      [
        "預",
        -10.473257924405985
      ],
      [
        "后",
        -10.473932182747069
      ],
      [
        "拳",
        -10.47550722244792
      ],
      [
        "昼",
        -10.475582286252154
      ],
      [
        "祥",
        -10.47610789070912
      ],
      [
        "軒",
        -10.477009570147626
      ],
      [
        "惑",
        -10.479362454708864
      ],
      [
        "虐",
        -10.483722523397008
      ],
      [
        "帳",
        -10.484706849969541
      ],
      [
        "逸",
        -10.486147226231827
      ],
      [
        "挿",
        -10.487893619992994
      ],
      [
        "墜",
        -10.488577822543302
      ],
      [
        "―",
        -10.489414706340982
      ],
      [
        "寒",
        -10.490404654639443
      ],
      [
        "狂",
        -10.492082187534221
      ],
      [
        "〉",
        -10.501667415429713
      ],
      [
        "〈",
        -10.501975664959996
      ],
      [
        "湿",
        -10.507230497187592
      ],
      [
        "掃",
        -10.508781305856482
      ],
      [
        "坊",
        -10.510179092920872
      ],
      [
        "峠",
        -10.511890156919039
      ],
      [
        "屈",
        -10.512357319305154
      ],
      [
        "脂",
        -10.51298054216613
      ],
      [
        "遷",
        -10.518607095513676
      ],
      [
        "晋",
        -10.520254154708706
      ],
      [
        "剛",
        -10.520882320093571
      ],
      [
        "希",
        -10.523183319157841
      ],
      [
        "○",
        -10.524501948704305
      ],
      [
        "栗",
        -10.526553636146158
      ],
      [
        "ォ",
        -10.526939906534297
      ],
      [
        "概",
        -10.528266323987605
      ],
      [
        "茨",
        -10.529322187193275
      ],
      [
        "偶",
        -10.530193888650663
      ],
      [
        "崇",
        -10.531145703118215
      ],
      [
        "拘",
        -10.537913783731359
      ],
      [
        "敏",
        -10.538793010068403
      ],
      [
        "妃",
        -10.539192914096555
      ],
      [
        "葛",
        -10.540473682732024
      ],
      [
        "困",
        -10.542379488524958
      ],
      [
        "浸",
        -10.54255843672335
      ],
      [
        "撮",
        -10.547024908839001
      ],
      [
        "尋",
        -10.550617472157054
      ],
      [
        "更",
        -10.5519011672754
      ],
      [
        "皆",
        -10.553697015899552
      ],
      [
        "吾",
        -10.559639723063109
      ],
      [
        "洲",
        -10.56151942286364
      ],
      [
        "砦",
        -10.56512524524833
      ],
      [
        "軟",
        -10.565864404282882
      ],
      [
        "措",
        -10.567508938632773
      ],
      [
        "媒",
        -10.57163214572538
      ],
      [
        "符",
        -10.572293439404815
      ],
      [
        "輔",
        -10.573120671945212
      ],
      [
        "е",
        -10.574362805260876
      ],
      [
        "貯",
        -10.576187396269864
      ],
      [
        "悟",
        -10.576768646804869
      ],
      [
        "泳",
        -10.578597636796987
      ],
      [
        "浩",
        -10.579346825210854
      ],
      [
        "暮",
        -10.582184462807573
      ],
      [
        "朱",
        -10.582766915296023
      ],
      [
        "祈",
        -10.583268398861758
      ],
      [
        "旦",
        -10.584523209131078
      ],
      [
        "甘",
        -10.586031062819032
      ],
      [
        "躍",
        -10.587084218113372
      ],
      [
        "沙",
        -10.590315703497184
      ],
      [
        "祉",
        -10.59200097880553
      ],
      [
        "ぽ",
        -10.594703340791343
      ],
      [
        "珠",
        -10.594957062037478
      ],
      [
        "険",
        -10.598156533397352
      ],
      [
        "孤",
        -10.598515935426827
      ],
      [
        "酷",
        -10.600045052658825
      ],
      [
        "販",
        -10.603341879932128
      ],
      [
        "逐",
        -10.604304683112197
      ],
      [
        "洪",
        -10.604646483807608
      ],
      [
        "蓮",
        -10.60627055459696
      ],
      [
        ">",
        -10.608240070560175
      ],
      [
        "疾",
        -10.609097593229551
      ],
      [
        "蘇",
        -10.611416584218409
      ],
      [
        "啓",
        -10.613310116650286
      ],
      [
        "□",
        -10.617280945077653
      ],
      [
        "偏",
        -10.617800043458148
      ],
      [
        "幻",
        -10.618579196817137
      ],
      [
        "宋",
        -10.619792421108356
      ],
      [
        "桂",
        -10.620312825300351
      ],
      [
        "勅",
        -10.62109393972944
      ],
      [
        "卓",
        -10.621441297641619
      ],
      [
        "旭",
        -10.62439872161934
      ],
      [
        "函",
        -10.628239005629576
      ],
      [
        "桃",
        -10.629551571445464
      ],
      [
        "賊",
        -10.632884469323082
      ],
      [
        "匠",
        -10.634907159308726
      ],
      [
        "烈",
        -10.637463352854079
      ],
      [
        "針",
        -10.640979164529147
      ],
      [
        "僕",
        -10.64286159604821
      ],
      [
        "准",
        -10.646239226918086
      ],
      [
        "曽",
        -10.650700930653578
      ],
      [
        "陶",
        -10.65240161133446
      ],
      [
        "否",
        -10.652892163455835
      ],
      [
        "昔",
        -10.654284682190928
      ],
      [
        "н",
        -10.655182630439047
      ],
      [
        "壇",
        -10.655811674312712
      ],
      [
        "掌",
        -10.656351169897077
      ],
      [
        "酵",
        -10.657250976498773
      ],
      [
        "猛",
        -10.659053022306653
      ],
      [
        "犠",
        -10.659323609482287
      ],
      [
        "忍",
        -10.660406690953918
      ],
      [
        "懐",
        -10.663300656344974
      ],
      [
        "猫",
        -10.667111740307265
      ],
      [
        "蓄",
        -10.667475459338075
      ],
      [
        "童",
        -10.669308511756553
      ],
      [
        "耕",
        -10.669478282164684
      ],
      [
        "魏",
        -10.671028670071061
      ],
      [
        "魂",
        -10.671667764404432
      ],
      [
        "瞬",
        -10.672947179702579
      ],
      [
        "抽",
        -10.673038629176745
      ],
      [
        "咲",
        -10.676244640897412
      ],
      [
        "謡",
        -10.676703482788227
      ],
      [
        "竣",
        -10.679368925540894
      ],
      [
        "哲",
        -10.680271536433505
      ],
      [
        "庶",
        -10.680658238238731
      ],
      [
        "祐",
        -10.681303518496653
      ],
      [
        "辛",
        -10.682041491870335
      ],
      [
        "蘭",
        -10.683519074444066
      ],
      [
        "菅",
        -10.68703710797323
      ],
      [
        "堤",
        -10.69364362683319
      ],
      [
        "郭",
        -10.694203929410824
      ],
      [
        "魅",
        -10.694297343703209
      ],
      [
        "叔",
        -10.69467108815952
      ],
      [
        "嶋",
        -10.697291217855687
      ],
      [
        "朗",
        -10.697572353645917
      ],
      [
        "☆",
        -10.700200106082809
      ],
      [
        "亭",
        -10.700482060971687
      ],
      [
        "駿",
        -10.703305990930206
      ],
      [
        "暫",
        -10.708409248233451
      ],
      [
        "貝",
        -10.70935716052705
      ],
      [
        "暖",
        -10.709452001194727
      ],
      [
        "倫",
        -10.71030597221097
      ],
      [
        "搬",
        -10.71249166157133
      ],
      [
        "牲",
        -10.71258679999774
      ],
      [
        "哨",
        -10.714491471778244
      ],
      [
        "膨",
        -10.7151589648892
      ],
      [
        "畿",
        -10.715349759070413
      ],
      [
        "妨",
        -10.716972981043083
      ],
      [
        "溝",
        -10.718886033420947
      ],
      [
        "殻",
        -10.720323228263377
      ],
      [
        "呈",
        -10.721954549994209
      ],
      [
        "р",
        -10.72301153097005
      ],
      [
        "慎",
        -10.72754034965335
      ],
      [
        "猟",
        -10.728216612841576
      ],
      [
        "勉",
        -10.72908676662296
      ],
      [
        "克",
        -10.729860872810319
      ],
      [
        "*",
        -10.732769119732053
      ],
      [
        "茎",
        -10.732866207110703
      ],
      [
        "拡",
        -10.733057872572134
      ],
      [
        "嫡",
        -10.734615393697878
      ],
      [
        "丈",
        -10.739392628089108
      ],
      [
        "乃",
        -10.740859621016064
      ],
      [
        "鋭",
        -10.74488041685834
      ],
      [
        "妖",
        -10.744978687298593
      ],
      [
        "寧",
        -10.745076967396873
      ],
      [
        "ぷ",
        -10.7462570825941
      ],
      [
        "弓",
        -10.74645390393001
      ],
      [
        "舟",
        -10.746552329126862
      ],
      [
        "腰",
        -10.751485981638567
      ],
      [
        "盾",
        -10.752871777454363
      ],
      [
        "桑",
        -10.752871777454363
      ],
      [
        "怖",
        -10.754259496365526
      ],
      [
        "麦",
        -10.754755577335708
      ],
      [
        "稚",
        -10.754854823068142
      ],
      [
        "<",
        -10.756344692234038
      ],
      [
        "析",
        -10.758434869491415
      ],
      [
        "斐",
        -10.760328562845167
      ],
      [
        "炉",
        -10.7606279939281
      ],
      [
        "斬",
        -10.760727824216612
      ],
      [
        "辰",
        -10.76432836818438
      ],
      [
        "謎",
        -10.765932780660567
      ],
      [
        "捉",
        -10.766334286311796
      ],
      [
        "牽",
        -10.767037309339056
      ],
      [
        "寮",
        -10.767037309339058
      ],
      [
        "蜂",
        -10.768042486082642
      ],
      [
        "遣",
        -10.768440576501273
      ],
      [
        "鷹",
        -10.770055875798183
      ],
      [
        "菓",
        -10.771770450094731
      ],
      [
        "釣",
        -10.774297235346408
      ],
      [
        "秦",
        -10.774398439677949
      ],
      [
        "腐",
        -10.775107156928838
      ],
      [
        "唆",
        -10.776221871271119
      ],
      [
        "渓",
        -10.778048633841793
      ],
      [
        "宏",
        -10.779471759874909
      ],
      [
        "尼",
        -10.78059135286621
      ],
      [
        "寸",
        -10.78099878857305
      ],
      [
        "枢",
        -10.782630193470808
      ],
      [
        "瑞",
        -10.78457094995162
      ],
      [
        "肢",
        -10.787232840438394
      ],
      [
        "禅",
        -10.790930271854338
      ],
      [
        "危",
        -10.792192684325688
      ],
      [
        "揺",
        -10.792474912258944
      ],
      [
        "催",
        -10.792587980990348
      ],
      [
        "勘",
        -10.793609166865005
      ],
      [
        "褐",
        -10.794434888127064
      ],
      [
        "忘",
        -10.79474470946563
      ],
      [
        "柴",
        -10.796295257635144
      ],
      [
        "誓",
        -10.796916150705707
      ],
      [
        "揃",
        -10.797019670374445
      ],
      [
        "肺",
        -10.800649626649111
      ],
      [
        "胴",
        -10.802001259209666
      ],
      [
        "桁",
        -10.804397093686847
      ],
      [
        "α",
        -10.807844652468244
      ],
      [
        "柏",
        -10.808472760313498
      ],
      [
        "椎",
        -10.816252037382679
      ],
      [
        "衡",
        -10.82292296427516
      ],
      [
        "慰",
        -10.823773259271649
      ],
      [
        "屯",
        -10.823879597000275
      ],
      [
        "栃",
        -10.82483714574793
      ],
      [
        "捜",
        -10.825400546071608
      ],
      [
        "秩",
        -10.825476021348036
      ],
      [
        "粘",
        -10.825689070616285
      ],
      [
        "舶",
        -10.826861653629816
      ],
      [
        "縄",
        -10.82820130103264
      ],
      [
        "泥",
        -10.830066613370308
      ],
      [
        "鼻",
        -10.83070883977657
      ],
      [
        "回衆議院議員総選挙",
        -10.835431145301126
      ],
      [
        "軌",
        -10.835623623353465
      ],
      [
        "腸",
        -10.836615214329605
      ],
      [
        "癌",
        -10.845486371108425
      ],
      [
        "應",
        -10.847008855224619
      ],
      [
        "粋",
        -10.850060795025778
      ],
      [
        "僅",
        -10.850388341703782
      ],
      [
        "昆",
        -10.853122077684592
      ],
      [
        "胞",
        -10.853839839419381
      ],
      [
        "錦",
        -10.856522322264667
      ],
      [
        "鮮",
        -10.857964927723913
      ],
      [
        "國",
        -10.858061714507336
      ],
      [
        "楊",
        -10.860485557480752
      ],
      [
        "滋",
        -10.860706198443419
      ],
      [
        "歓",
        -10.86081653718335
      ],
      [
        "訓",
        -10.866870474783138
      ],
      [
        "墳",
        -10.868366919625034
      ],
      [
        "妊",
        -10.869015574851423
      ],
      [
        "蓋",
        -10.873252160703258
      ],
      [
        "尻",
        -10.87325216070326
      ],
      [
        "繊",
        -10.873810944803045
      ],
      [
        "》",
        -10.875265246433843
      ],
      [
        "雌",
        -10.875377203442351
      ],
      [
        "《",
        -10.875713149693759
      ],
      [
        "夷",
        -10.87593717657769
      ],
      [
        "盆",
        -10.876161253660907
      ],
      [
        "喪",
        -10.876497463458634
      ],
      [
        "懲",
        -10.876833786331408
      ],
      [
        "磐",
        -10.876945919096602
      ],
      [
        "履",
        -10.879078834137367
      ],
      [
        "趙",
        -10.879078834137369
      ],
      [
        "拒",
        -10.879729698895304
      ],
      [
        "均",
        -10.879836777230265
      ],
      [
        "洛",
        -10.88031576221461
      ],
      [
        "釜",
        -10.88087850843033
      ],
      [
        "孔",
        -10.881216308230504
      ],
      [
        "肝",
        -10.881892250349821
      ],
      [
        "鈴",
        -10.882702929141287
      ],
      [
        "慕",
        -10.883245506827809
      ],
      [
        "纂",
        -10.883696999582897
      ],
      [
        "疎",
        -10.884826624101706
      ],
      [
        "虚",
        -10.886976432576178
      ],
      [
        "畜",
        -10.887656280768878
      ],
      [
        "匹",
        -10.888109769807398
      ],
      [
        "籠",
        -10.890493967119516
      ],
      [
        "邪",
        -10.892200452173437
      ],
      [
        "麓",
        -10.892997809544811
      ],
      [
        "班",
        -10.894480304968102
      ],
      [
        "斗",
        -10.89642227496172
      ],
      [
        "嵐",
        -10.897909859626226
      ],
      [
        "腫",
        -10.90342172980709
      ],
      [
        "鍵",
        -10.903997633991915
      ],
      [
        "訂",
        -10.904804457455722
      ],
      [
        "綿",
        -10.905035098060766
      ],
      [
        "閥",
        -10.905727339218302
      ],
      [
        "賜",
        -10.906073639579224
      ],
      [
        "凍",
        -10.90780694253031
      ],
      [
        "乙",
        -10.91035456708876
      ],
      [
        "蒲",
        -10.910586491482187
      ],
      [
        "尿",
        -10.912211470074832
      ],
      [
        "戯",
        -10.913606413629886
      ],
      [
        "牡",
        -10.914537458211655
      ],
      [
        "с",
        -10.91616887499068
      ],
      [
        "兆",
        -10.91640215194955
      ],
      [
        "—",
        -10.921548061199832
      ],
      [
        "篇",
        -10.921899884822151
      ],
      [
        "慢",
        -10.922956098978513
      ],
      [
        "契",
        -10.922990362293008
      ],
      [
        "羊",
        -10.926013665889267
      ],
      [
        "桐",
        -10.932868269331838
      ],
      [
        "但",
        -10.93774226851367
      ],
      [
        "絞",
        -10.940009031590854
      ],
      [
        "в",
        -10.940367411716108
      ],
      [
        "扇",
        -10.940606403173023
      ],
      [
        "慈",
        -10.941443323354784
      ],
      [
        "剰",
        -10.942041552613356
      ],
      [
        "絡",
        -10.9446384204876
      ],
      [
        "燥",
        -10.947682470108752
      ],
      [
        "閲",
        -10.948043611318452
      ],
      [
        "舷",
        -10.952750354252473
      ],
      [
        "噂",
        -10.954808964809855
      ],
      [
        "剥",
        -10.957600906411221
      ],
      [
        "芽",
        -10.958087258174116
      ],
      [
        "礁",
        -10.958817229615084
      ],
      [
        "疫",
        -10.960400664779534
      ],
      [
        "硫",
        -10.961010346543793
      ],
      [
        "黙",
        -10.961132327514761
      ],
      [
        "俳",
        -10.961741821819075
      ],
      [
        "瓦",
        -10.962963829855955
      ],
      [
        "敢",
        -10.963208283807852
      ],
      [
        "霧",
        -10.963208283807854
      ],
      [
        "践",
        -10.963330533196608
      ],
      [
        "朽",
        -10.97044669106246
      ],
      [
        "佳",
        -10.970569828607097
      ],
      [
        "叩",
        -10.971308972464877
      ],
      [
        "漏",
        -10.971678749369893
      ],
      [
        "厩",
        -10.977985967896254
      ],
      [
        "播",
        -10.980843467662758
      ],
      [
        "媛",
        -10.981092332219186
      ],
      [
        "翔",
        -10.98520756435896
      ],
      [
        "壌",
        -10.988336478046495
      ],
      [
        "乏",
        -10.990595373400739
      ],
      [
        "於",
        -10.991726737442015
      ],
      [
        "涼",
        -10.994119384342767
      ],
      [
        "稀",
        -10.99828868917658
      ],
      [
        "琉",
        -10.99828868917658
      ],
      [
        "嫁",
        -11.001839964386095
      ],
      [
        "蛇",
        -11.003620342548386
      ],
      [
        "鼓",
        -11.005021438177554
      ],
      [
        "雀",
        -11.005021438177554
      ],
      [
        "潤",
        -11.005276393880038
      ],
      [
        "惨",
        -11.006041651234119
      ],
      [
        "尺",
        -11.007446145845112
      ],
      [
        "讃",
        -11.007701720569814
      ],
      [
        "般",
        -11.007916065668262
      ],
      [
        "穏",
        -11.009492574899534
      ],
      [
        "澄",
        -11.014884461631137
      ],
      [
        "巧",
        -11.015785942695448
      ],
      [
        "亮",
        -11.01655928809607
      ],
      [
        "糧",
        -11.019400015678732
      ],
      [
        "搭",
        -11.020648430961257
      ],
      [
        "к",
        -11.023027197576418
      ],
      [
        "偉",
        -11.02862325589949
      ],
      [
        "琴",
        -11.03136763817216
      ],
      [
        "帽",
        -11.035564090459182
      ],
      [
        "奮",
        -11.036352889552388
      ],
      [
        "篠",
        -11.038591205164373
      ],
      [
        "嗣",
        -11.038986722637643
      ],
      [
        "謙",
        -11.045336370260104
      ],
      [
        "責",
        -11.04614455180987
      ],
      [
        "猿",
        -11.049591978777519
      ],
      [
        "幽",
        -11.053999625815871
      ],
      [
        "磯",
        -11.056277836393118
      ],
      [
        "※",
        -11.060715116761044
      ],
      [
        "涙",
        -11.061928709141162
      ],
      [
        "是",
        -11.067476010599288
      ],
      [
        "}",
        -11.069377280945748
      ],
      [
        "諾",
        -11.070057183064932
      ],
      [
        "仰",
        -11.070280697334443
      ],
      [
        "л",
        -11.070329273400178
      ],
      [
        "膝",
        -11.071418375677549
      ],
      [
        "淵",
        -11.071554596900816
      ],
      [
        "胡",
        -11.071554596900816
      ],
      [
        "{",
        -11.071963371943406
      ],
      [
        "焦",
        -11.072508665392046
      ],
      [
        "淳",
        -11.073054256347925
      ],
      [
        "鉛",
        -11.074146332081002
      ],
      [
        "累",
        -11.07770383736669
      ],
      [
        "庵",
        -11.07838942631335
      ],
      [
        "粛",
        -11.078526600524597
      ],
      [
        "拍",
        -11.081136492111831
      ],
      [
        "企",
        -11.082347886649414
      ],
      [
        "穀",
        -11.085685714176917
      ],
      [
        "奴",
        -11.08775101804113
      ],
      [
        "跳",
        -11.089145925236286
      ],
      [
        "泣",
        -11.09067221941109
      ],
      [
        "鋳",
        -11.09122781356297
      ],
      [
        "帥",
        -11.101562379375217
      ],
      [
        "渉",
        -11.104647245970526
      ],
      [
        "т",
        -11.107758273297234
      ],
      [
        "擢",
        -11.108040819035736
      ],
      [
        "据",
        -11.109030358272316
      ],
      [
        "|",
        -11.109879314812833
      ],
      [
        "甥",
        -11.110020877666773
      ],
      [
        "吐",
        -11.113992795783522
      ],
      [
        "闇",
        -11.114703729979764
      ],
      [
        "鳳",
        -11.116982121847958
      ],
      [
        "蹴",
        -11.117552531844632
      ],
      [
        "宛",
        -11.119122839088275
      ],
      [
        "醸",
        -11.120552534089533
      ],
      [
        "俺",
        -11.124422951758548
      ],
      [
        "遡",
        -11.125428843492733
      ],
      [
        "雰",
        -11.127443667514024
      ],
      [
        "賭",
        -11.12888531700796
      ],
      [
        "鐘",
        -11.129751305369727
      ],
      [
        "隅",
        -11.130329047856087
      ],
      [
        "諭",
        -11.131774866076944
      ],
      [
        "堺",
        -11.135108202490871
      ],
      [
        "賠",
        -11.136415582105354
      ],
      [
        "ü",
        -11.141662260312616
      ],
      [
        "疲",
        -11.144735583375958
      ],
      [
        "碁",
        -11.149731552909127
      ],
      [
        "呪",
        -11.151058204044697
      ],
      [
        "囚",
        -11.151058204044697
      ],
      [
        "肖",
        -11.151500812490184
      ],
      [
        "膚",
        -11.152534328009216
      ],
      [
        "擬",
        -11.15356891278776
      ],
      [
        "壮",
        -11.155196854538426
      ],
      [
        "菩",
        -11.15519685453843
      ],
      [
        "窮",
        -11.158609320751669
      ],
      [
        "砕",
        -11.159947809943679
      ],
      [
        "殆",
        -11.160245495440602
      ],
      [
        "猪",
        -11.161884351585073
      ],
      [
        "刃",
        -11.167416662335812
      ],
      [
        "貢",
        -11.168112144316407
      ],
      [
        "酔",
        -11.168616872514392
      ],
      [
        "漠",
        -11.168767000122859
      ],
      [
        "宜",
        -11.171473158275312
      ],
      [
        "遮",
        -11.172527534029982
      ],
      [
        "蒙",
        -11.173281340788213
      ],
      [
        "辻",
        -11.176604857701676
      ],
      [
        "敦",
        -11.180091294453762
      ],
      [
        "篤",
        -11.181306822976076
      ],
      [
        "汽",
        -11.18206727928502
      ],
      [
        "廊",
        -11.182219439966701
      ],
      [
        "楼",
        -11.186642201475891
      ],
      [
        "胆",
        -11.187100846950091
      ],
      [
        "稽",
        -11.19200619900097
      ],
      [
        "貼",
        -11.1929286373765
      ],
      [
        "択",
        -11.194779378974914
      ],
      [
        "斑",
        -11.194930177686636
      ],
      [
        "娠",
        -11.196318209985701
      ],
      [
        "伎",
        -11.19678131588994
      ],
      [
        "棚",
        -11.196935732196303
      ],
      [
        "循",
        -11.197862731102097
      ],
      [
        "忌",
        -11.200493904260078
      ],
      [
        "漫",
        -11.201569613369886
      ],
      [
        "叫",
        -11.20266596313465
      ],
      [
        "刈",
        -11.204531490294547
      ],
      [
        "零",
        -11.205621323811393
      ],
      [
        "岬",
        -11.205777111317236
      ],
      [
        "諏",
        -11.207180292087186
      ],
      [
        "拾",
        -11.208273017763482
      ],
      [
        "苗",
        -11.208897968958233
      ],
      [
        "萩",
        -11.21108837896668
      ],
      [
        "臭",
        -11.211088378966684
      ],
      [
        "隙",
        -11.214068773323604
      ],
      [
        "鍋",
        -11.216113120626773
      ],
      [
        "餌",
        -11.21816165584885
      ],
      [
        "窟",
        -11.22433256149423
      ],
      [
        "捧",
        -11.230222422507293
      ],
      [
        "俵",
        -11.230541783786775
      ],
      [
        "髄",
        -11.23390124942519
      ],
      [
        "廠",
        -11.234221787931935
      ],
      [
        "嘆",
        -11.234702788421178
      ],
      [
        "烏",
        -11.236789801535759
      ],
      [
        "把",
        -11.237272039126438
      ],
      [
        "駄",
        -11.23823721252833
      ],
      [
        "嶺",
        -11.23984790788797
      ],
      [
        "簿",
        -11.240170358514812
      ],
      [
        "牝",
        -11.24307710258177
      ],
      [
        "墨",
        -11.245019636575655
      ],
      [
        "坪",
        -11.246154526448548
      ],
      [
        "己",
        -11.247986917462539
      ],
      [
        "ā",
        -11.249404184025353
      ],
      [
        "\\",
        -11.252337932354049
      ],
      [
        "傑",
        -11.254462116154539
      ],
      [
        "勾",
        -11.256263033467645
      ],
      [
        "胤",
        -11.25757483163593
      ],
      [
        "鞭",
        -11.258724068338392
      ],
      [
        "顎",
        -11.263169251808632
      ],
      [
        "帆",
        -11.263499312046873
      ],
      [
        "縛",
        -11.263664383027397
      ],
      [
        "鍛",
        -11.266474766752056
      ],
      [
        "吊",
        -11.272285840703777
      ],
      [
        "靴",
        -11.27328542429157
      ],
      [
        "綾",
        -11.274119174546373
      ],
      [
        "隈",
        -11.275621678999167
      ],
      [
        "倶",
        -11.275788763376777
      ],
      [
        "缶",
        -11.275788763376779
      ],
      [
        "恭",
        -11.276791856328233
      ],
      [
        "逝",
        -11.27729378037976
      ],
      [
        "遼",
        -11.27863347747058
      ],
      [
        "鶏",
        -11.282831636439349
      ],
      [
        "頑",
        -11.283504980457815
      ],
      [
        "錯",
        -11.285527737147763
      ],
      [
        "綴",
        -11.285527737147763
      ],
      [
        "胎",
        -11.285865261409723
      ],
      [
        "戴",
        -11.285865261409725
      ],
      [
        "憧",
        -11.288738826598614
      ],
      [
        "鯨",
        -11.288738826598614
      ],
      [
        "煮",
        -11.288908117270697
      ],
      [
        "ヵ",
        -11.289246784617127
      ],
      [
        "裸",
        -11.289585566697983
      ],
      [
        "輌",
        -11.289585566697985
      ],
      [
        "瓶",
        -11.290093955116463
      ],
      [
        "倣",
        -11.290263475374134
      ],
      [
        "妥",
        -11.292130097326877
      ],
      [
        "汁",
        -11.29213009732688
      ],
      [
        "凝",
        -11.292639781332607
      ],
      [
        "哉",
        -11.293659929340086
      ],
      [
        "培",
        -11.295870626848545
      ],
      [
        "崖",
        -11.296044329680544
      ],
      [
        "棲",
        -11.296726632477215
      ],
      [
        "槍",
        -11.29706795853141
      ],
      [
        "堆",
        -11.298776338544704
      ],
      [
        "骸",
        -11.302545079612932
      ],
      [
        "矛",
        -11.302545079612933
      ],
      [
        "舗",
        -11.302941188717856
      ],
      [
        "−",
        -11.306672697467484
      ],
      [
        "徐",
        -11.308027506595481
      ],
      [
        "貌",
        -11.30839757930527
      ],
      [
        "ヲ",
        -11.30995252087254
      ],
      [
        "靖",
        -11.313937280119855
      ],
      [
        "誉",
        -11.313999806957217
      ],
      [
        "玩",
        -11.317763704467595
      ],
      [
        "曾",
        -11.32003167472918
      ],
      [
        "樽",
        -11.322304800374313
      ],
      [
        "朴",
        -11.323005264458603
      ],
      [
        "痕",
        -11.325460759854284
      ],
      [
        "悼",
        -11.325812037629893
      ],
      [
        "宴",
        -11.32809835589042
      ],
      [
        "暇",
        -11.329331618904705
      ],
      [
        "鴨",
        -11.329331618904705
      ],
      [
        "錬",
        -11.330213453174732
      ],
      [
        "潰",
        -11.338185151702097
      ],
      [
        "豚",
        -11.339252862451128
      ],
      [
        "鞍",
        -11.339787145632505
      ],
      [
        "酬",
        -11.342998853264737
      ],
      [
        "ぴ",
        -11.346758929305148
      ],
      [
        "燕",
        -11.349273524247117
      ],
      [
        "惜",
        -11.35143393555956
      ],
      [
        "曳",
        -11.352696334281047
      ],
      [
        "廻",
        -11.356311993999725
      ],
      [
        "儒",
        -11.35866920270033
      ],
      [
        "填",
        -11.360668113046033
      ],
      [
        "漂",
        -11.361213964586465
      ],
      [
        "轄",
        -11.363223286258075
      ],
      [
        "蒋",
        -11.363947700562433
      ],
      [
        "戚",
        -11.364130215619923
      ],
      [
        "唄",
        -11.367421195818421
      ],
      [
        "┃",
        -11.367421195818457
      ],
      [
        "股",
        -11.368887337376316
      ],
      [
        "坑",
        -11.37293034572063
      ],
      [
        "鷲",
        -11.3742201929568
      ],
      [
        "揆",
        -11.374773494334157
      ],
      [
        "挫",
        -11.37902567303443
      ],
      [
        "狼",
        -11.38013791709808
      ],
      [
        "畳",
        -11.380323411440502
      ],
      [
        "橘",
        -11.380880101006074
      ],
      [
        "藍",
        -11.38833239443996
      ],
      [
        "汎",
        -11.390016841773248
      ],
      [
        "潔",
        -11.395275563614552
      ],
      [
        "聘",
        -11.398859796831736
      ],
      [
        "臼",
        -11.399426904595721
      ],
      [
        "抹",
        -11.400183548912167
      ],
      [
        "究",
        -11.400524966715977
      ],
      [
        "癒",
        -11.40188809477433
      ],
      [
        "塊",
        -11.4039753820534
      ],
      [
        "凱",
        -11.405686409081651
      ],
      [
        "遍",
        -11.405876704038835
      ],
      [
        "赦",
        -11.408544642726179
      ],
      [
        "湘",
        -11.413134877414395
      ],
      [
        "畠",
        -11.413518349759977
      ],
      [
        "椅",
        -11.413901969213011
      ],
      [
        "袖",
        -11.416014510802626
      ],
      [
        "粗",
        -11.417168690017315
      ],
      [
        "楕",
        -11.417746279557964
      ],
      [
        "枯",
        -11.420253029802309
      ],
      [
        "淀",
        -11.420639242029525
      ],
      [
        "甚",
        -11.421605425676566
      ],
      [
        "胃",
        -11.421798774477796
      ],
      [
        "辱",
        -11.422185584267712
      ],
      [
        "飢",
        -11.424121880732631
      ],
      [
        "慌",
        -11.424315716747364
      ],
      [
        "芦",
        -11.425091436748923
      ],
      [
        "鳩",
        -11.429563542185504
      ],
      [
        "廉",
        -11.434447318237588
      ],
      [
        "腺",
        -11.436603758980088
      ],
      [
        "翻",
        -11.444214555009305
      ],
      [
        "楠",
        -11.445870386774441
      ],
      [
        "詠",
        -11.446068485031175
      ],
      [
        "湧",
        -11.446663015367788
      ],
      [
        "跨",
        -11.446861270720685
      ],
      [
        "á",
        -11.448845989039578
      ],
      [
        "盟",
        -11.451309500512615
      ],
      [
        "鄭",
        -11.45143202588104
      ],
      [
        "舌",
        -11.455023768730728
      ],
      [
        "β",
        -11.45562364877071
      ],
      [
        "吏",
        -11.456824489499416
      ],
      [
        "尖",
        -11.457425451053956
      ],
      [
        "粧",
        -11.459029783088269
      ],
      [
        "凡",
        -11.46083773857667
      ],
      [
        "詣",
        -11.461642324758367
      ],
      [
        "殴",
        -11.461843572494328
      ],
      [
        "挺",
        -11.462447558820292
      ],
      [
        "婿",
        -11.463455014070341
      ],
      [
        "姻",
        -11.46466530165724
      ],
      [
        "肪",
        -11.467899914796995
      ],
      [
        "褒",
        -11.468507571285159
      ],
      [
        "μ",
        -11.469318354746276
      ],
      [
        "鰭",
        -11.470535763840415
      ],
      [
        "圭",
        -11.474196908972909
      ],
      [
        "藻",
        -11.475216277049494
      ],
      [
        "瘍",
        -11.480123760554893
      ],
      [
        "馴",
        -11.481559658232463
      ],
      [
        "睦",
        -11.484026004145655
      ],
      [
        "凶",
        -11.487323956211062
      ],
      [
        "悔",
        -11.488150146485422
      ],
      [
        "綻",
        -11.491461750452135
      ],
      [
        "脊",
        -11.492498879767684
      ],
      [
        "笹",
        -11.496033186968267
      ],
      [
        "學",
        -11.496241476907866
      ],
      [
        "笛",
        -11.497492128447279
      ],
      [
        "窒",
        -11.497492128447279
      ],
      [
        "倭",
        -11.499580029814112
      ],
      [
        "汗",
        -11.499998133717495
      ],
      [
        "曰",
        -11.499998133717527
      ],
      [
        "匿",
        -11.502720078436697
      ],
      [
        "丞",
        -11.504818935322897
      ],
      [
        "奔",
        -11.505029063501086
      ],
      [
        "抵",
        -11.510632082202822
      ],
      [
        "ا",
        -11.513258694217924
      ],
      [
        "陀",
        -11.514743003221119
      ],
      [
        "條",
        -11.517079949251455
      ],
      [
        "晃",
        -11.517079949251462
      ],
      [
        "喧",
        -11.517718247143065
      ],
      [
        "賄",
        -11.52006216467865
      ],
      [
        "舵",
        -11.52134298457351
      ],
      [
        "袁",
        -11.526912239602574
      ],
      [
        "蕭",
        -11.529708541693518
      ],
      [
        "薫",
        -11.530139436883264
      ],
      [
        "遽",
        -11.530354954124642
      ],
      [
        "憂",
        -11.531001784675095
      ],
      [
        "騰",
        -11.535324713685856
      ],
      [
        "牙",
        -11.535974767877388
      ],
      [
        "頓",
        -11.53684216465395
      ],
      [
        "扶",
        -11.537493206341058
      ],
      [
        "哀",
        -11.5377103144609
      ],
      [
        "欺",
        -11.538144672159582
      ],
      [
        "俸",
        -11.540972605292588
      ],
      [
        "紡",
        -11.54512017725538
      ],
      [
        "湊",
        -11.545557766145858
      ],
      [
        "梶",
        -11.546433518798223
      ],
      [
        "ä",
        -11.549504706896958
      ],
      [
        "藝",
        -11.553908545329673
      ],
      [
        "讐",
        -11.558775273198897
      ],
      [
        "樺",
        -11.558775273198897
      ],
      [
        "昨",
        -11.5601066835754
      ],
      [
        "槻",
        -11.561439868969025
      ],
      [
        "懇",
        -11.562329647691616
      ],
      [
        "喚",
        -11.565450122739493
      ],
      [
        "嚢",
        -11.5667904557839
      ],
      [
        "腎",
        -11.571271251880885
      ],
      [
        "槽",
        -11.571271251880885
      ],
      [
        "惣",
        -11.571945106350991
      ],
      [
        "嘱",
        -11.57487040095396
      ],
      [
        "莫",
        -11.57599779678449
      ],
      [
        "姦",
        -11.576223428553444
      ],
      [
        "隷",
        -11.576433810978347
      ],
      [
        "侶",
        -11.579614028532275
      ],
      [
        "惹",
        -11.580066978373887
      ],
      [
        "肌",
        -11.58029353025427
      ],
      [
        "桓",
        -11.585290701335895
      ],
      [
        "叶",
        -11.587114063656536
      ],
      [
        "欄",
        -11.588712237505742
      ],
      [
        "汲",
        -11.59054185493211
      ],
      [
        "灌",
        -11.5944409424236
      ],
      [
        "諦",
        -11.596972006810137
      ],
      [
        "д",
        -11.59766341038382
      ],
      [
        "遥",
        -11.598816813044063
      ],
      [
        "爪",
        -11.600665028879037
      ],
      [
        "ö",
        -11.601358991429818
      ],
      [
        "暁",
        -11.601821900821506
      ],
      [
        "裔",
        -11.60228502459754
      ],
      [
        "挨",
        -11.60251666694176
      ],
      [
        "拶",
        -11.602516666941762
      ],
      [
        "彗",
        -11.603675684219768
      ],
      [
        "穫",
        -11.604371739929205
      ],
      [
        "惧",
        -11.606695430984072
      ],
      [
        "抄",
        -11.607859304480776
      ],
      [
        "鱗",
        -11.608791379576077
      ],
      [
        "辿",
        -11.609724324245931
      ],
      [
        "杜",
        -11.61065814011438
      ],
      [
        "溜",
        -11.610891730397022
      ],
      [
        "擦",
        -11.611125375256838
      ],
      [
        "其",
        -11.615105712968624
      ],
      [
        "窪",
        -11.620988082844473
      ],
      [
        "盲",
        -11.622641366160938
      ],
      [
        "漬",
        -11.62429738735022
      ],
      [
        "縫",
        -11.625956155495311
      ],
      [
        "毅",
        -11.625956155495311
      ],
      [
        "麺",
        -11.630710710964735
      ],
      [
        "租",
        -11.631187412199008
      ],
      [
        "泌",
        -11.633813338737236
      ],
      [
        "掴",
        -11.634530698879358
      ],
      [
        "耗",
        -11.638845700160106
      ],
      [
        "皿",
        -11.63932629610601
      ],
      [
        "聡",
        -11.641491840733961
      ],
      [
        "央",
        -11.642372301020515
      ],
      [
        "絹",
        -11.642455812366784
      ],
      [
        "棺",
        -11.643420714137605
      ],
      [
        "凌",
        -11.64486981473434
      ],
      [
        "@",
        -11.648016755103503
      ],
      [
        "詐",
        -11.653121287309391
      ],
      [
        "祇",
        -11.656538842187159
      ],
      [
        "憎",
        -11.657028019154238
      ],
      [
        "恥",
        -11.657272697402346
      ],
      [
        "飽",
        -11.659232281608093
      ],
      [
        "昧",
        -11.659968116810527
      ],
      [
        "霞",
        -11.662178876727094
      ],
      [
        "巴",
        -11.663163007690967
      ],
      [
        "迅",
        -11.665134179934375
      ],
      [
        "牟",
        -11.666121225043431
      ],
      [
        "窯",
        -11.666368138623676
      ],
      [
        "廟",
        -11.666862148758423
      ],
      [
        "泡",
        -11.667356403059804
      ],
      [
        "拐",
        -11.668098242852654
      ],
      [
        "庇",
        -11.668840633380364
      ],
      [
        "鉢",
        -11.669088219416512
      ],
      [
        "俣",
        -11.669335866766685
      ],
      [
        "萌",
        -11.669335866766685
      ],
      [
        "獅",
        -11.670079177005233
      ],
      [
        "悠",
        -11.67057502429189
      ],
      [
        "綬",
        -11.670823040164901
      ],
      [
        "睡",
        -11.671567457068912
      ],
      [
        "耶",
        -11.679292389538082
      ],
      [
        "邑",
        -11.68859127529292
      ],
      [
        "堰",
        -11.689096389583069
      ],
      [
        "塵",
        -11.690866301540096
      ],
      [
        "爾",
        -11.691119402020997
      ],
      [
        "黎",
        -11.69187908804992
      ],
      [
        "賑",
        -11.692639351640503
      ],
      [
        "韻",
        -11.692892901336245
      ],
      [
        "卑",
        -11.692892901336263
      ],
      [
        "腔",
        -11.693907743483104
      ],
      [
        "云",
        -11.696194910922724
      ],
      [
        "й",
        -11.69976315732992
      ],
      [
        "愚",
        -11.70001851994484
      ],
      [
        "■",
        -11.700018520105232
      ],
      [
        "輿",
        -11.700784999283256
      ],
      [
        "拉",
        -11.701552066562915
      ],
      [
        "撰",
        -11.703087968558753
      ],
      [
        "恨",
        -11.705396253746443
      ],
      [
        "榴",
        -11.705909930395467
      ],
      [
        "苑",
        -11.706680940452546
      ],
      [
        "斯",
        -11.709513074152806
      ],
      [
        "畔",
        -11.710544932874006
      ],
      [
        "枕",
        -11.71054493287401
      ],
      [
        "眺",
        -11.71183625536032
      ],
      [
        "娯",
        -11.713905846049972
      ],
      [
        "【",
        -11.721183331019372
      ],
      [
        "】",
        -11.722488473457734
      ],
      [
        "猶",
        -11.726938742557174
      ],
      [
        "漆",
        -11.728776978358356
      ],
      [
        "’",
        -11.734312047808311
      ],
      [
        "嘩",
        -11.736693631349311
      ],
      [
        "ヂ",
        -11.740143740908465
      ],
      [
        "灘",
        -11.742805794907236
      ],
      [
        "魯",
        -11.746812210498856
      ],
      [
        "癖",
        -11.751372304210463
      ],
      [
        "寅",
        -11.756223411929344
      ],
      [
        "熙",
        -11.757304639220958
      ],
      [
        "撫",
        -11.764906141774112
      ],
      [
        "м",
        -11.767361804657284
      ],
      [
        "忙",
        -11.772840519874963
      ],
      [
        "喰",
        -11.77366492222479
      ],
      [
        "叡",
        -11.773939874108212
      ],
      [
        "冶",
        -11.774765183640913
      ],
      [
        "ο",
        -11.775591174872083
      ],
      [
        "虹",
        -11.77586665696575
      ],
      [
        "蝶",
        -11.776142214970706
      ],
      [
        "鐵",
        -11.776693558881941
      ],
      [
        "迦",
        -11.776969344872013
      ],
      [
        "閑",
        -11.778349416846021
      ],
      [
        "哺",
        -11.778625659939946
      ],
      [
        "渕",
        -11.778901979365202
      ],
      [
        "摘",
        -11.779035302678745
      ],
      [
        "嘘",
        -11.780008021223983
      ],
      [
        "$",
        -11.781392296076278
      ],
      [
        "誕",
        -11.784585512916538
      ],
      [
        "廣",
        -11.784722394872603
      ],
      [
        "傭",
        -11.786948637603217
      ],
      [
        "沸",
        -11.789179847550788
      ],
      [
        "栖",
        -11.79029732216742
      ],
      [
        "峯",
        -11.791975878992051
      ],
      [
        "★",
        -11.792536024640901
      ],
      [
        "巳",
        -11.793937763016554
      ],
      [
        "亘",
        -11.7947797501503
      ],
      [
        "董",
        -11.79646585423404
      ],
      [
        "坦",
        -11.798436575579558
      ],
      [
        "溢",
        -11.79956444824205
      ],
      [
        "肯",
        -11.800976080313502
      ],
      [
        "謳",
        -11.800976080313502
      ],
      [
        "伽",
        -11.80238970790732
      ],
      [
        "于",
        -11.803522050554367
      ],
      [
        "肘",
        -11.803805336673348
      ],
      [
        "樋",
        -11.805790589722733
      ],
      [
        "萬",
        -11.806074519308222
      ],
      [
        "貰",
        -11.808064286864301
      ],
      [
        "或",
        -11.810343165487925
      ],
      [
        "殉",
        -11.814343742306514
      ],
      [
        "儲",
        -11.81951097064776
      ],
      [
        "寵",
        -11.819798823267218
      ],
      [
        "憤",
        -11.820951063052583
      ],
      [
        "卸",
        -11.821239330564838
      ],
      [
        "汰",
        -11.824994389832634
      ],
      [
        "у",
        -11.825862948074564
      ],
      [
        "諱",
        -11.829344744691056
      ],
      [
        "焉",
        -11.830799078852204
      ],
      [
        "牌",
        -11.830799078852204
      ],
      [
        "〇",
        -11.830799078852218
      ],
      [
        "剖",
        -11.831090199667344
      ],
      [
        "諮",
        -11.837809477018014
      ],
      [
        "暑",
        -11.84398415110511
      ],
      [
        "糾",
        -11.846642156194688
      ],
      [
        "憩",
        -11.850197188797413
      ],
      [
        "嶽",
        -11.852574251257103
      ],
      [
        "餅",
        -11.853764904760007
      ],
      [
        "渦",
        -11.855851965728718
      ],
      [
        "牢",
        -11.856449069787402
      ],
      [
        "醍",
        -11.858242524148055
      ],
      [
        "醐",
        -11.858841057754153
      ],
      [
        "峙",
        -11.858841057754155
      ],
      [
        "楚",
        -11.859739530404465
      ],
      [
        "悦",
        -11.863040853906249
      ],
      [
        "詔",
        -11.863642267241154
      ],
      [
        "脆",
        -11.863943109599754
      ],
      [
        "蛍",
        -11.86424404249172
      ],
      [
        "歪",
        -11.86454506597155
      ],
      [
        "鴻",
        -11.864545065971551
      ],
      [
        "茅",
        -11.86575006686137
      ],
      [
        "濱",
        -11.865750066861375
      ],
      [
        "盧",
        -11.866051544099843
      ],
      [
        "ó",
        -11.869071325927786
      ],
      [
        "纏",
        -11.873314399392585
      ],
      [
        "帖",
        -11.875442706655704
      ],
      [
        "圓",
        -11.875747120658751
      ],
      [
        "朋",
        -11.876356226809618
      ],
      [
        "隼",
        -11.877880617336906
      ],
      [
        "翁",
        -11.881854942317117
      ],
      [
        "葺",
        -11.88277434170046
      ],
      [
        "紳",
        -11.883080996100952
      ],
      [
        "璧",
        -11.883387744567207
      ],
      [
        "濫",
        -11.884922899907298
      ],
      [
        "諜",
        -11.8849228999073
      ],
      [
        "喉",
        -11.885537622528243
      ],
      [
        "頁",
        -11.88615272326553
      ],
      [
        "婆",
        -11.886152723265532
      ],
      [
        "柵",
        -11.886768202584612
      ],
      [
        "ν",
        -11.890778078376082
      ],
      [
        "蜜",
        -11.891087197386902
      ],
      [
        "弊",
        -11.89170572222
      ],
      [
        "蒼",
        -11.894493828093042
      ],
      [
        "逢",
        -11.894804098027883
      ],
      [
        "苻",
        -11.897912103612734
      ],
      [
        "尹",
        -11.901654506203819
      ],
      [
        "蝦",
        -11.902279603890593
      ],
      [
        "惟",
        -11.907294502308174
      ],
      [
        "餓",
        -11.907608770064298
      ],
      [
        "冥",
        -11.910441633125215
      ],
      [
        "祷",
        -11.912334676741567
      ],
      [
        "霜",
        -11.913914955186229
      ],
      [
        "憑",
        -11.918353066729226
      ],
      [
        "紐",
        -11.918670829678067
      ],
      [
        "噛",
        -11.918670829678067
      ],
      [
        "醒",
        -11.921535249180838
      ],
      [
        "醤",
        -11.9247275902527
      ],
      [
        "迂",
        -11.927288821021044
      ],
      [
        "紹",
        -11.927819076493419
      ],
      [
        "箕",
        -11.934043430111492
      ],
      [
        "曖",
        -11.935335211323007
      ],
      [
        "壺",
        -11.935981728230153
      ],
      [
        "杖",
        -11.936305143495352
      ],
      [
        "壕",
        -11.936952287987296
      ],
      [
        "í",
        -11.937276017349552
      ],
      [
        "酢",
        -11.937923790645891
      ],
      [
        "隋",
        -11.93889623803978
      ],
      [
        "蛮",
        -11.939220597429983
      ],
      [
        "怠",
        -11.940843974395621
      ],
      [
        "瞭",
        -11.945403500248212
      ],
      [
        "瑠",
        -11.946710049499707
      ],
      [
        "翅",
        -11.948345640297896
      ],
      [
        "稜",
        -11.952282007490739
      ],
      [
        "梱",
        -11.955574191504478
      ],
      [
        "濁",
        -11.95722435688046
      ],
      [
        "購",
        -11.959151481628068
      ],
      [
        "幌",
        -11.959154283576998
      ],
      [
        "欽",
        -11.959539172707819
      ],
      [
        "眞",
        -11.96285537535172
      ],
      [
        "荻",
        -11.964850388463859
      ],
      [
        "扮",
        -11.96518327794455
      ],
      [
        "仇",
        -11.965849389536714
      ],
      [
        "〔",
        -11.967850390686085
      ],
      [
        "棘",
        -11.968184280502445
      ],
      [
        "я",
        -11.968518281838445
      ],
      [
        "晒",
        -11.969855403870444
      ],
      [
        "〕",
        -11.969855403870447
      ],
      [
        "仔",
        -11.970189963923975
      ],
      [
        "錐",
        -11.970524635945393
      ],
      [
        "錠",
        -11.972870481503225
      ],
      [
        "頸",
        -11.973877530924295
      ],
      [
        "舘",
        -11.979941217965628
      ],
      [
        "杵",
        -11.985701992906847
      ],
      [
        "拷",
        -11.98672205418914
      ],
      [
        "襄",
        -11.986722054189142
      ],
      [
        "崔",
        -11.991496146756898
      ],
      [
        "瞳",
        -11.99183802709878
      ],
      [
        "蔑",
        -11.994577285761402
      ],
      [
        "榎",
        -11.995263274462765
      ],
      [
        "弧",
        -11.995263274462765
      ],
      [
        "鬱",
        -11.995949734067674
      ],
      [
        "桶",
        -11.998356060402774
      ],
      [
        "膳",
        -11.99904464709903
      ],
      [
        "徽",
        -12.00630357969564
      ],
      [
        "捻",
        -12.008039691225374
      ],
      [
        "此",
        -12.009430753859625
      ],
      [
        "ч",
        -12.012916899938162
      ],
      [
        "凄",
        -12.013965118052838
      ],
      [
        "痺",
        -12.014664541050266
      ],
      [
        "ゥ",
        -12.017540966925019
      ],
      [
        "狗",
        -12.019925864953507
      ],
      [
        "鵬",
        -12.021333572368334
      ],
      [
        "蔽",
        -12.021333572368345
      ],
      [
        "柿",
        -12.0216858090714
      ],
      [
        "漑",
        -12.022743264217148
      ],
      [
        "寂",
        -12.024508178176191
      ],
      [
        "梓",
        -12.025215016862338
      ],
      [
        "伺",
        -12.026984302514196
      ],
      [
        "唇",
        -12.027338535599565
      ],
      [
        "è",
        -12.02840198836501
      ],
      [
        "謁",
        -12.029466573266305
      ],
      [
        "乞",
        -12.03088778507345
      ],
      [
        "琵",
        -12.033379776368779
      ],
      [
        "琶",
        -12.035163579890998
      ],
      [
        "粟",
        -12.035877993201876
      ],
      [
        "埴",
        -12.03909918421332
      ],
      [
        "扁",
        -12.041252423852232
      ],
      [
        "ل",
        -12.04197120195267
      ],
      [
        "ρ",
        -12.04269049706678
      ],
      [
        "瀧",
        -12.043410309938746
      ],
      [
        "侮",
        -12.043410309938746
      ],
      [
        "鈍",
        -12.043770410766982
      ],
      [
        "麟",
        -12.045572862569262
      ],
      [
        "宙",
        -12.045858135608798
      ],
      [
        "罹",
        -12.047017166830639
      ],
      [
        "譚",
        -12.047378569071332
      ],
      [
        "溺",
        -12.05027449866539
      ],
      [
        "賓",
        -12.05245196275714
      ],
      [
        "炊",
        -12.05245196275714
      ],
      [
        "渠",
        -12.05317883903046
      ],
      [
        "梗",
        -12.053906244037243
      ],
      [
        "戊",
        -12.054270145056165
      ],
      [
        "蚕",
        -12.058647317781531
      ],
      [
        "糞",
        -12.061576113545469
      ],
[...]
