{
  "version": "1.0",
  "truncation": null,
  "padding": null,
  "added_tokens": [
    {
      "id": 0,
      "content": "<pad>",
      "single_word": false,
      "lstrip": false,
      "rstrip": false,
      "normalized": false,
      "special": true
    },
    {
      "id": 1,
      "content": "<s>",
      "single_word": false,
      "lstrip": false,
      "rstrip": false,
      "normalized": false,
      "special": true
    },
    {
      "id": 2,
      "content": "</s>",
      "single_word": false,
      "lstrip": false,
      "rstrip": false,
      "normalized": false,
      "special": true
    },
    {
      "id": 3,
      "content": "<unk>",
      "single_word": false,
      "lstrip": false,
      "rstrip": false,
      "normalized": false,
      "special": true
    },
    {
      "id": 4,
      "content": "<mask>",
      "single_word": false,
      "lstrip": false,
      "rstrip": false,
      "normalized": false,
      "special": true
    }
  ],
  "normalizer": {
    "type": "NFKC"
  },
  "pre_tokenizer": {
    "type": "UnicodeScripts"
  },
  "post_processor": {
    "type": "TemplateProcessing",
    "single": [
      {
        "SpecialToken": {
          "id": "<s>",
          "type_id": 0
        }
      },
      {
        "Sequence": {
          "id": "A",
          "type_id": 0
        }
      },
      {
        "SpecialToken": {
          "id": "</s>",
          "type_id": 0
        }
      }
    ],
    "pair": [
      {
        "Sequence": {
          "id": "A",
          "type_id": 0
        }
      },
      {
        "Sequence": {
          "id": "B",
          "type_id": 1
        }
      }
    ],
    "special_tokens": {
      "</s>": {
        "id": "</s>",
        "ids": [
          2
        ],
        "tokens": [
          "</s>"
        ]
      },
      "<s>": {
        "id": "<s>",
        "ids": [
          1
        ],
        "tokens": [
          "<s>"
        ]
      }
    }
  },
  "decoder": {
    "type": "Metaspace",
    "replacement": "▁",
    "prepend_scheme": "always",
    "split": true
  },
  "model": {
    "type": "Unigram",
    "unk_id": 3,
    "vocab": [
      [
        "<pad>",
        0.0
      ],
      [
        "<s>",
        0.0
      ],
      [
        "</s>",
        0.0
      ],
      [
        "<unk>",
        0.0
      ],
      [
        "<mask>",
        0.0
      ],
      [
        "、",
        -3.1322453354390696
      ],
      [
        "の",
        -3.4202180923043333
      ],
      [
        "。",
        -3.8014821236467427
      ],
      [
        "を",
        -4.049320077434
      ],
      [
        "が",
        -4.136012945814899
      ],
      [
        "は",
        -4.251363997669404
      ],
      [
        "に",
        -4.255161602373885
      ],
      [
        "で",
        -4.573530729823624
      ],
      [
        "と",
        -4.69399798188889
      ],
      [
        " ",
        -4.785148436931413
      ],
      [
        "も",
        -5.141662425260392
      ],
      [
        "。\n",
        -5.145150258779617
      ],
      [
        "」",
        -5.19269895031392
      ],
      [
        "「",
        -5.241632684242255
      ],
      [
        "(",
        -5.326949037854849
      ],
      [
        "・",
        -5.340210315007129
      ],
      [
        "や",
        -5.342087412361668
      ],
      [
        ")",
        -5.466403558471628
      ],
      [
        "し",
        -5.534650764775941
      ],
      [
        "\n",
        -5.589405629103288
      ],
      [
        "な",
        -5.598215375728072
      ],
      [
        "から",
        -5.623011965950457
      ],
      [
        "です",
        -5.713167558087239
      ],
      [
        "る",
        -5.750877137204444
      ],
      [
        "する",
        -5.76116834893506
      ],
      [
        "い",
        -5.936957250649927
      ],
      [
        "た",
        -5.968909861876533
      ],
      [
        "した",
        -5.9706430970264535
      ],
      [
        "か",
        -5.976322580418897
      ],
      [
        "ス",
        -6.02710634051353
      ],
      [
        "して",
        -6.047905530297969
      ],
      [
        "年",
        -6.108968321438272
      ],
      [
        "り",
        -6.117085198129047
      ],
      [
        "1",
        -6.129977457580113
      ],
      [
        "。 ",
        -6.204033572471303
      ],
      [
        "お",
        -6.211079958385968
      ],
      [
        "日",
        -6.233778350405943
      ],
      [
        "て",
        -6.240607717554115
      ],
      [
        "という",
        -6.264075691693684
      ],
      [
        "2",
        -6.272266066804514
      ],
      [
        "3",
        -6.351195666824939
      ],
      [
        "この",
        -6.361164569061257
      ],
      [
        "その",
        -6.376206351488806
      ],
      [
        "月",
        -6.427180442208
      ],
      [
        "では",
        -6.443600777257895
      ],
      [
        "く",
        -6.44506349155462
      ],
      [
        "大",
        -6.456607651954883
      ],
      [
        "人",
        -6.468987799345189
      ],
      [
        "って",
        -6.509696167647432
      ],
      [
        "ル",
        -6.518881424870669
      ],
      [
        "など",
        -6.599349199119439
      ],
      [
        "ら",
        -6.604002029854879
      ],
      [
        "として",
        -6.6116536623009345
      ],
      [
        "ます",
        -6.621986144847856
      ],
      [
        "/",
        -6.668276254765461
      ],
      [
        "ク",
        -6.668586911985267
      ],
      [
        ".",
        -6.675165612417205
      ],
      [
        "には",
        -6.684191634249144
      ],
      [
        "ー",
        -6.684266488161695
      ],
      [
        "4",
        -6.685219072279885
      ],
      [
        "本",
        -6.69846459740193
      ],
      [
        "一",
        -6.727927533482925
      ],
      [
        "リ",
        -6.731742024731597
      ],
      [
        "!",
        -6.735148193883283
      ],
      [
        "き",
        -6.735320964488508
      ],
      [
        "5",
        -6.762463028917525
      ],
      [
        "ない",
        -6.7649860461832265
      ],
      [
        "み",
        -6.769818758535477
      ],
      [
        "でも",
        -6.781534465994689
      ],
      [
        "中",
        -6.815244342798609
      ],
      [
        "だ",
        -6.843453132513577
      ],
      [
        "さ",
        -6.853772107538369
      ],
      [
        "ア",
        -6.857071542112214
      ],
      [
        "ト",
        -6.871901973561231
      ],
      [
        "している",
        -6.878367137861
      ],
      [
        "う",
        -6.884866336842052
      ],
      [
        "また",
        -6.890348540898817
      ],
      [
        "...",
        -6.929921280496419
      ],
      [
        ",",
        -6.9355162849048995
      ],
      [
        "コ",
        -6.93660510271204
      ],
      [
        "イ",
        -6.936945961711746
      ],
      [
        "す",
        -6.93965147968475
      ],
      [
        "ラ",
        -6.944576417584086
      ],
      [
        "-",
        -6.944683659666321
      ],
      [
        ":",
        -6.9468947496686315
      ],
      [
        "ん",
        -6.967782527555244
      ],
      [
        "ので",
        -6.970054983716997
      ],
      [
        "マ",
        -6.984044468554059
      ],
      [
        "カ",
        -6.989207454030918
      ],
      [
        "め",
        -7.009473907298425
      ],
      [
        "出",
        -7.009535003497618
      ],
      [
        "である",
        -7.012862414148572
      ],
      [
        "った",
        -7.022358585361268
      ],
      [
        "ました",
        -7.026051847931811
      ],
      [
        "者",
        -7.033917856874984
      ],
      [
        "分",
        -7.04113206007435
      ],
      [
        "します",
        -7.046949260379716
      ],
      [
        "つ",
        -7.058190466346863
      ],
      [
        "会",
        -7.0619069552029945
      ],
      [
        "ご",
        -7.062393546281806
      ],
      [
        "手",
        -7.065596033955998
      ],
      [
        "』",
        -7.07247116533383
      ],
      [
        "ド",
        -7.074674293592707
      ],
      [
        "『",
        -7.078197106631567
      ],
      [
        "ている",
        -7.080577088214971
      ],
      [
        "6",
        -7.10817613862849
      ],
      [
        "9",
        -7.109764500937992
      ],
      [
        "ム",
        -7.118853484489572
      ],
      [
        "水",
        -7.118895142826036
      ],
      [
        "見",
        -7.1224698743889405
      ],
      [
        "まで",
        -7.122536685928427
      ],
      [
        "7",
        -7.1312261219351765
      ],
      [
        "上",
        -7.1341364156414215
      ],
      [
        "性",
        -7.134689741674043
      ],
      [
        "S",
        -7.135050936566175
      ],
      [
        "P",
        -7.13801925950467
      ],
      [
        "レ",
        -7.141584591883708
      ],
      [
        "C",
        -7.142524420963813
      ],
      [
        "8",
        -7.151606230591545
      ],
      [
        "、「",
        -7.15468692269906
      ],
      [
        "生",
        -7.1555464119782695
      ],
      [
        "こと",
        -7.161515634082134
      ],
      [
        "事",
        -7.163964992835329
      ],
      [
        "山",
        -7.1657269060522015
      ],
      [
        "A",
        -7.169164627716116
      ],
      [
        "わ",
        -7.191715597664086
      ],
      [
        "高",
        -7.193744274203198
      ],
      [
        "された",
        -7.197022875838659
      ],
      [
        "日本",
        -7.19717292237625
      ],
      [
        "タ",
        -7.1991441921108095
      ],
      [
        "方",
        -7.2034915474663705
      ],
      [
        "子",
        -7.215793345463172
      ],
      [
        "より",
        -7.216304463535408
      ],
      [
        "ね",
        -7.219823395591373
      ],
      [
        "にも",
        -7.22594194938905
      ],
      [
        "10",
        -7.226296833245845
      ],
      [
        "?",
        -7.230678919265268
      ],
      [
        "ま",
        -7.236668792761703
      ],
      [
        "ロ",
        -7.237743682641124
      ],
      [
        "地",
        -7.254100857394604
      ],
      [
        "D",
        -7.254696369940419
      ],
      [
        "T",
        -7.259445773172271
      ],
      [
        "市",
        -7.262354833414866
      ],
      [
        "下",
        -7.263984432942442
      ],
      [
        "体",
        -7.264275769137168
      ],
      [
        "ナ",
        -7.274467067945206
      ],
      [
        "的な",
        -7.278261148580526
      ],
      [
        "B",
        -7.280238224122501
      ],
      [
        "ン",
        -7.2834794869050725
      ],
      [
        "田",
        -7.2837944569951425
      ],
      [
        "しました",
        -7.2898583829092
      ],
      [
        "時",
        -7.30107393073812
      ],
      [
        "化",
        -7.308393292867047
      ],
      [
        "しています",
        -7.3102831346581265
      ],
      [
        "シ",
        -7.323575502155723
      ],
      [
        "エ",
        -7.327144536672339
      ],
      [
        "M",
        -7.337741068718767
      ],
      [
        "名",
        -7.339313144344844
      ],
      [
        "気",
        -7.339406034611299
      ],
      [
        "について",
        -7.344281736429798
      ],
      [
        "ミ",
        -7.3447699472567045
      ],
      [
        "長",
        -7.345192953046496
      ],
      [
        "回",
        -7.350455434577404
      ],
      [
        "ズ",
        -7.3522888666660755
      ],
      [
        "数",
        -7.3530462261717755
      ],
      [
        "物",
        -7.359554849874483
      ],
      [
        "前",
        -7.363691512688058
      ],
      [
        "ウ",
        -7.364297318065123
      ],
      [
        "国",
        -7.365817745931212
      ],
      [
        "力",
        -7.372808042869266
      ],
      [
        "あ",
        -7.37412684846284
      ],
      [
        "がある",
        -7.382085056666652
      ],
      [
        "いた",
        -7.382323511635622
      ],
      [
        "行",
        -7.389965206568117
      ],
      [
        "いる",
        -7.393570350764268
      ],
      [
        "新",
        -7.39371568787363
      ],
      [
        "できる",
        -7.396948643236907
      ],
      [
        "チ",
        -7.401381603415606
      ],
      [
        "れ",
        -7.4068551560985405
      ],
      [
        "時間",
        -7.414469361259821
      ],
      [
        "こ",
        -7.414860901499038
      ],
      [
        "外",
        -7.415088161273424
      ],
      [
        "へ",
        -7.415489948255091
      ],
      [
        "さん",
        -7.415624147554611
      ],
      [
        "される",
        -7.416632943790214
      ],
      [
        "点",
        -7.421099660557809
      ],
      [
        "金",
        -7.425996285241876
      ],
      [
        "キ",
        -7.43248816071347
      ],
      [
        "オ",
        -7.434953965265288
      ],
      [
        "s",
        -7.435883462579078
      ],
      [
        "~",
        -7.437334679956868
      ],
      [
        "G",
        -7.438108944265116
      ],
      [
        "的に",
        -7.44118654248383
      ],
      [
        "同",
        -7.4434656271347315
      ],
      [
        "後",
        -7.452074946259593
      ],
      [
        "的",
        -7.452999065522368
      ],
      [
        "だった",
        -7.457407495183489
      ],
      [
        "部",
        -7.466359857345321
      ],
      [
        "入",
        -7.467789202326834
      ],
      [
        "a",
        -7.471339801403266
      ],
      [
        "家",
        -7.47646445028079
      ],
      [
        "ジ",
        -7.479666827942713
      ],
      [
        "今",
        -7.479899132008397
      ],
      [
        "度",
        -7.4849062324472
      ],
      [
        "F",
        -7.4855360307715735
      ],
      [
        "法",
        -7.486278906884785
      ],
      [
        "目",
        -7.487615645323048
      ],
      [
        "学",
        -7.489337589816433
      ],
      [
        "え",
        -7.493112162219399
      ],
      [
        "ブ",
        -7.493484983081693
      ],
      [
        "フ",
        -7.494422658999401
      ],
      [
        "け",
        -7.498867024975317
      ],
      [
        "そして",
        -7.504945011890504
      ],
      [
        "小",
        -7.505112875046963
      ],
      [
        "バ",
        -7.520770707211366
      ],
      [
        "合",
        -7.5228027718315005
      ],
      [
        "サ",
        -7.535522502381307
      ],
      [
        "感",
        -7.539205905340024
      ],
      [
        "ば",
        -7.546359765248738
      ],
      [
        "所",
        -7.548132773833922
      ],
      [
        "っ",
        -7.549210240648826
      ],
      [
        "ッ",
        -7.554570010267131
      ],
      [
        "E",
        -7.5559435253382645
      ],
      [
        "への",
        -7.55913388713083
      ],
      [
        "ある",
        -7.560508125478439
      ],
      [
        "代",
        -7.585195703556321
      ],
      [
        "メ",
        -7.595514657133304
      ],
      [
        "店",
        -7.5992647883847155
      ],
      [
        "o",
        -7.599926000821913
      ],
      [
        "なら",
        -7.607316297774856
      ],
      [
        "ット",
        -7.6148265166985
      ],
      [
        "等",
        -7.6162195270537705
      ],
      [
        "”",
        -7.6199947271210124
      ],
      [
        "L",
        -7.624840166403697
      ],
      [
        "よ",
        -7.625083361727791
      ],
      [
        "います",
        -7.628335729998289
      ],
      [
        "道",
        -7.629145220689917
      ],
      [
        "不",
        -7.63087071176653
      ],
      [
        "内",
        -7.631288491248302
      ],
      [
        "いい",
        -7.634891149682337
      ],
      [
        "リー",
        -7.638732892550635
      ],
      [
        "ています",
        -7.63909333267509
      ],
      [
        "川",
        -7.640551645018711
      ],
      [
        "ネ",
        -7.643245285948938
      ],
      [
        "e",
        -7.64336712552889
      ],
      [
        "i",
        -7.6558438761988015
      ],
      [
        "面",
        -7.65945671165813
      ],
      [
        "もの",
        -7.660412314506262
      ],
      [
        "ニ",
        -7.660772042029972
      ],
      [
        "たい",
        -7.661553500076382
      ],
      [
        "でした",
        -7.662453313443212
      ],
      [
        "R",
        -7.668365256146934
      ],
      [
        "着",
        -7.669107216315934
      ],
      [
        "じ",
        -7.670815626506956
      ],
      [
        "され",
        -7.671678327950232
      ],
      [
        "第",
        -7.67242019837102
      ],
      [
        "イン",
        -7.67419916357859
      ],
      [
        "作",
        -7.679085498269625
      ],
      [
        "テ",
        -7.6806043175428105
      ],
      [
        "ため",
        -7.681802216023179
      ],
      [
        "プ",
        -7.685331888903873
      ],
      [
        "先",
        -7.690555876565515
      ],
      [
        "場",
        -7.691056295324067
      ],
      [
        "食",
        -7.6930025825641355
      ],
      [
        "用",
        -7.69347405068039
      ],
      [
        "野",
        -7.694065734296968
      ],
      [
        "ください",
        -7.6951846040118905
      ],
      [
        "による",
        -7.6990742788503255
      ],
      [
        "とは",
        -7.703933660409824
      ],
      [
        "グ",
        -7.706039541487494
      ],
      [
        "ことを",
        -7.706475904360538
      ],
      [
        "そう",
        -7.712879800882499
      ],
      [
        "ですが",
        -7.715191431467897
      ],
      [
        "心",
        -7.715208590969013
      ],
      [
        "ように",
        -7.715557415793953
      ],
      [
        "情報",
        -7.7179796194658845
      ],
      [
        "県",
        -7.724332465608816
      ],
      [
        "ながら",
        -7.728094534115344
      ],
      [
        "だけ",
        -7.729645159126944
      ],
      [
        "ツ",
        -7.7331680430540715
      ],
      [
        "三",
        -7.739287874448154
      ],
      [
        "K",
        -7.741782310065085
      ],
      [
        "20",
        -7.746691587537821
      ],
      [
        "む",
        -7.747937573068651
      ],
      [
        "p",
        -7.755137410125574
      ],
      [
        "無",
        -7.756510916883302
      ],
      [
        "になる",
        -7.7600042279088495
      ],
      [
        "木",
        -7.760109116727444
      ],
      [
        "知",
        -7.762256724748967
      ],
      [
        "発",
        -7.762680486918542
      ],
      [
        "大学",
        -7.764418763082343
      ],
      [
        "しかし",
        -7.771086270615548
      ],
      [
        "立",
        -7.771374985487496
      ],
      [
        "戦",
        -7.772545540705016
      ],
      [
        "などの",
        -7.773974662459597
      ],
      [
        "のか",
        -7.778336211924984
      ],
      [
        "何",
        -7.778375427843333
      ],
      [
        "世界",
        -7.782729116588177
      ],
      [
        "ビ",
        -7.787270313667429
      ],
      [
        "m",
        -7.7879029200303105
      ],
      [
        "定",
        -7.790460293251467
      ],
      [
        "っている",
        -7.791562772840921
      ],
      [
        "モ",
        -7.793593392587743
      ],
      [
        "書",
        -7.798457022497393
      ],
      [
        "通",
        -7.801006176359042
      ],
      [
        "【",
        -7.80401345496338
      ],
      [
        "ガ",
        -7.806731999921771
      ],
      [
        "ハ",
        -7.809471832129596
      ],
      [
        "g",
        -7.814952985764593
      ],
      [
        "によって",
        -7.8167987041623075
      ],
      [
        "19",
        -7.817780481127263
      ],
      [
        "】",
        -7.818040554095532
      ],
      [
        "約",
        -7.818938467922768
      ],
      [
        "なく",
        -7.819707558908279
      ],
      [
        "と思います",
        -7.821934674367808
      ],
      [
        "O",
        -7.823468344791202
      ],
      [
        "なかった",
        -7.824761380151356
      ],
      [
        "ず",
        -7.826160192982588
      ],
      [
        "いて",
        -7.836091220723521
      ],
      [
        "U",
        -7.840218240483441
      ],
      [
        "原",
        -7.842481398658991
      ],
      [
        "...\n",
        -7.852828476583863
      ],
      [
        "ち",
        -7.853284095258472
      ],
      [
        "30",
        -7.854999420926106
      ],
      [
        "されている",
        -7.855529375363735
      ],
      [
        "動",
        -7.858803481387255
      ],
      [
        "々",
        -7.860861707478454
      ],
      [
        "y",
        -7.8624461113432265
      ],
      [
        "とか",
        -7.8645595462600095
      ],
      [
        "色",
        -7.869199365754421
      ],
      [
        "サービス",
        -7.870497466970102
      ],
      [
        "口",
        -7.871966118980177
      ],
      [
        "デ",
        -7.874312917732302
      ],
      [
        "線",
        -7.874518821189961
      ],
      [
        "主",
        -7.874668007905898
      ],
      [
        "間",
        -7.876918264963754
      ],
      [
        "問題",
        -7.878592944592134
      ],
      [
        "セ",
        -7.882272591097328
      ],
      [
        "ような",
        -7.885592399696376
      ],
      [
        "正",
        -7.890904241738898
      ],
      [
        "I",
        -7.891622122568297
      ],
      [
        "V",
        -7.892389178615456
      ],
      [
        "スト",
        -7.8925338477228575
      ],
      [
        "ノ",
        -7.8926897139965515
      ],
      [
        "んで",
        -7.901860882209755
      ],
      [
        "元",
        -7.903597425991636
      ],
      [
        "重",
        -7.905078054710129
      ],
      [
        "当",
        -7.910843057507572
      ],
      [
        "車",
        -7.912303556119204
      ],
      [
        "んだ",
        -7.912728480526555
      ],
      [
        ")\n",
        -7.91330663735827
      ],
      [
        "活動",
        -7.920264101075881
      ],
      [
        "られる",
        -7.920373869048181
      ],
      [
        "W",
        -7.922782337194098
      ],
      [
        "様",
        -7.929298977899043
      ],
      [
        "そんな",
        -7.9294563973422285
      ],
      [
        "」「",
        -7.9317380781158295
      ],
      [
        "12",
        -7.9332677937653
      ],
      [
        "社会",
        -7.933386327796075
      ],
      [
        "ること",
        -7.934881052696355
      ],
      [
        "ことが",
        -7.936378018479292
      ],
      [
        "話",
        -7.936817079465586
      ],
      [
        "よく",
        -7.941418312393925
      ],
      [
        "11",
        -7.948112218948104
      ],
      [
        "島",
        -7.950103422813186
      ],
      [
        "#",
        -7.950908757989067
      ],
      [
        "感じ",
        -7.952881949903787
      ],
      [
        "でしょう",
        -7.953307594633799
      ],
      [
        "品",
        -7.954566843771511
      ],
      [
        "H",
        -7.9591313762511415
      ],
      [
        "研究",
        -7.9630044941344735
      ],
      [
        "どう",
        -7.96331985767983
      ],
      [
        "ダ",
        -7.964621304561353
      ],
      [
        "ック",
        -7.968308850018422
      ],
      [
        "多",
        -7.971123860536993
      ],
      [
        "ぶ",
        -7.971581618485626
      ],
      [
        "味",
        -7.9719500492079725
      ],
      [
        "パ",
        -7.972998354671535
      ],
      [
        "自分の",
        -7.973872851059575
      ],
      [
        "u",
        -7.975056022966628
      ],
      [
        "N",
        -7.97589562651449
      ],
      [
        "それ",
        -7.979342684775615
      ],
      [
        "全",
        -7.980677034340456
      ],
      [
        "ところ",
        -7.9809952945317395
      ],
      [
        "仕事",
        -7.981970463606485
      ],
      [
        "! ",
        -7.988492196944451
      ],
      [
        "t",
        -7.99219275801811
      ],
      [
        "使用",
        -7.993798632875881
      ],
      [
        "期",
        -7.999427084800068
      ],
      [
        "k",
        -8.006728459389556
      ],
      [
        "環境",
        -8.00683939627224
      ],
      [
        "事業",
        -8.00693201805683
      ],
      [
        "社",
        -8.007940668304915
      ],
      [
        ") ",
        -8.015688707282347
      ],
      [
        "があります",
        -8.018155194936973
      ],
      [
        "ほど",
        -8.023254226095728
      ],
      [
        "により",
        -8.024879536961487
      ],
      [
        "実",
        -8.025239711495942
      ],
      [
        "町",
        -8.025825749794027
      ],
      [
        "直",
        -8.02896269049471
      ],
      [
        "良い",
        -8.033572026422288
      ],
      [
        "身",
        -8.03792999581765
      ],
      [
        "会社",
        -8.038814939507024
      ],
      [
        "神",
        -8.04102619825485
      ],
      [
        "型",
        -8.04714134304899
      ],
      [
        "生活",
        -8.05078115641317
      ],
      [
        "作品",
        -8.052801646578331
      ],
      [
        "愛",
        -8.054178112553783
      ],
      [
        "さらに",
        -8.05789821312455
      ],
      [
        "花",
        -8.058138885803125
      ],
      [
        "ヤ",
        -8.058234969887982
      ],
      [
        "企業",
        -8.06217147275121
      ],
      [
        "コン",
        -8.062319394046405
      ],
      [
        "利用",
        -8.062840189346545
      ],
      [
        "東京",
        -8.064915759513138
      ],
      [
        "海",
        -8.065455394070446
      ],
      [
        "ボ",
        -8.06610480542403
      ],
      [
        "せ",
        -8.066535626473296
      ],
      [
        "質",
        -8.06756249537851
      ],
      [
        "すること",
        -8.068298427593705
      ],
      [
        "よう",
        -8.069533611829742
      ],
      [
        "方法",
        -8.070062564082546
      ],
      [
        "美",
        -8.073849991415635
      ],
      [
        "すると",
        -8.074468016899083
      ],
      [
        "“",
        -8.07690413731349
      ],
      [
        "技術",
        -8.079321771945407
      ],
      [
        "音",
        -8.080773174830375
      ],
      [
        "したい",
        -8.081042770809743
      ],
      [
        "内容",
        -8.081515781186159
      ],
      [
        "ター",
        -8.08441957442779
      ],
      [
        "なので",
        -8.087458312719042
      ],
      [
        "円",
        -8.091685020891012
      ],
      [
        "れば",
        -8.093119225488085
      ],
      [
        "場合",
        -8.09434331116966
      ],
      [
        "J",
        -8.095838357772433
      ],
      [
        "ふ",
        -8.09617383418333
      ],
      [
        "来",
        -8.096530871450842
      ],
      [
        "量",
        -8.10188240480179
      ],
      [
        "f",
        -8.104447088704648
      ],
      [
        "機",
        -8.105804898516997
      ],
      [
        "ろ",
        -8.105818263973008
      ],
      [
        "ディ",
        -8.106434500105278
      ],
      [
        "c",
        -8.106527449397152
      ],
      [
        "東",
        -8.108201479615396
      ],
      [
        "けど",
        -8.108602694330273
      ],
      [
        "していた",
        -8.110056334330046
      ],
      [
        "地域",
        -8.110301223230008
      ],
      [
        "風",
        -8.113513305854426
      ],
      [
        "区",
        -8.11396064191481
      ],
      [
        "ロー",
        -8.119982668968946
      ],
      [
        "人の",
        -8.12016281294647
      ],
      [
        "ません",
        -8.122821077707547
      ],
      [
        "二",
        -8.131228347932627
      ],
      [
        "位",
        -8.135441768868834
      ],
      [
        "関係",
        -8.138599654917158
      ],
      [
        "足",
        -8.138914063279552
      ],
      [
        "のですが",
        -8.139864979336785
      ],
      [
        "となる",
        -8.14114777497132
      ],
      [
        "天",
        -8.143854770306358
      ],
      [
        "流",
        -8.147806709798267
      ],
      [
        "土",
        -8.1563981979601
      ],
      [
        "ティ",
        -8.156987648082687
      ],
      [
        "白",
        -8.157308313935395
      ],
      [
        "ケ",
        -8.171967540064541
      ],
      [
        "形",
        -8.174804870761003
      ],
      [
        "石",
        -8.17629078513327
      ],
      [
        "ソ",
        -8.176323011826412
      ],
      [
        "役",
        -8.179256841309114
      ],
      [
        "管理",
        -8.179712790611937
      ],
      [
        "次",
        -8.179737421771602
      ],
      [
        "産",
        -8.180022748147685
      ],
      [
        "ベ",
        -8.185527936493846
      ],
      [
        "夜",
        -8.185595554085085
      ],
      [
        "バー",
        -8.187580824772478
      ],
      [
        "頭",
        -8.192114667349745
      ],
      [
        "Y",
        -8.19274372712269
      ],
      [
        "治療",
        -8.192958042016258
      ],
      [
        "光",
        -8.193444485838722
      ],
      [
        "取り",
        -8.193610673693167
      ],
      [
        "安",
        -8.194546309484663
      ],
      [
        "女性",
        -8.19549782609548
      ],
      [
        "語",
        -8.198322094527303
      ],
      [
        "これ",
        -8.198523109513957
      ],
      [
        "解",
        -8.198949761869823
      ],
      [
        "になって",
        -8.200762280891679
      ],
      [
        "最",
        -8.20357800657399
      ],
      [
        "開発",
        -8.203946445174694
      ],
      [
        "場所",
        -8.203957090100488
      ],
      [
        "和",
        -8.206130602898696
      ],
      [
        "られた",
        -8.207597861420414
      ],
      [
        "西",
        -8.210740709859706
      ],
      [
        "商品",
        -8.210801017601597
      ],
      [
        "有",
        -8.211106449954139
      ],
      [
        "サイト",
        -8.212992307828031
      ],
      [
        "思い",
        -8.213105228943974
      ],
      [
        "平",
        -8.213967982458913
      ],
      [
        "ど",
        -8.215351667475456
      ],
      [
        "支援",
        -8.215724954822644
      ],
      [
        "であり",
        -8.216386868796622
      ],
      [
        "初",
        -8.217091632665007
      ],
      [
        "記",
        -8.218215162817646
      ],
      [
        "d",
        -8.220242211198327
      ],
      [
        "ピ",
        -8.221060008627509
      ],
      [
        "私は",
        -8.224849515269378
      ],
      [
        "前に",
        -8.226408286943856
      ],
      [
        "成",
        -8.228909460780198
      ],
      [
        "にある",
        -8.230650680609413
      ],
      [
        "村",
        -8.231276126158091
      ],
      [
        "ぐ",
        -8.232016167077628
      ],
      [
        "北",
        -8.232571463587657
      ],
      [
        "文",
        -8.233091407357252
      ],
      [
        "付け",
        -8.23345182247709
      ],
      [
        "かった",
        -8.234490183656366
      ],
      [
        "観",
        -8.235861510960326
      ],
      [
        "薬",
        -8.236166081666564
      ],
      [
        "人が",
        -8.239985030014399
      ],
      [
        "朝",
        -8.246089289738508
      ],
      [
        "達",
        -8.246245031408712
      ],
      [
        "明",
        -8.24679592565841
      ],
      [
        "写真",
        -8.251184324593062
      ],
      [
        "n",
        -8.251666092764681
      ],
      [
        "l",
        -8.251673686710525
      ],
      [
        "熱",
        -8.251972719384181
      ],
      [
        "・・・",
        -8.254057417617858
      ],
      [
        "駅",
        -8.255382432467616
      ],
      [
        "ていた",
        -8.257606146210657
      ],
      [
        "状況",
        -8.258911312390703
      ],
      [
        "ポ",
        -8.26433986895983
      ],
      [
        "室",
        -8.264544120581808
      ],
      [
        "自",
        -8.26476607481401
      ],
      [
        "ぎ",
        -8.267402164788848
      ],
      [
        "られ",
        -8.270097365993621
      ],
      [
        "のある",
        -8.27300542061485
      ],
      [
        "楽",
        -8.275071002050787
      ],
      [
        "自分",
        -8.277750295870279
      ],
      [
        "!\n",
        -8.279031971260887
      ],
      [
        "になった",
        -8.280139357752523
      ],
      [
        "結果",
        -8.283785603547441
      ],
      [
        "ひ",
        -8.284249147395862
      ],
      [
        "あります",
        -8.284569696040922
      ],
      [
        "w",
        -8.28469080888433
      ],
      [
        "デザイン",
        -8.286767916498691
      ],
      [
        "もう",
        -8.289925751337814
      ],
      [
        "アン",
        -8.290089606969563
      ],
      [
        "素",
        -8.291600632276047
      ],
      [
        "び",
        -8.291861144259888
      ],
      [
        "屋",
        -8.29465021750483
      ],
      [
        "私",
        -8.295552376359074
      ],
      [
        "種",
        -8.29557405222661
      ],
      [
        "大きな",
        -8.297693860633014
      ],
      [
        "集",
        -8.298698895590567
      ],
      [
        "映画",
        -8.2999448227968
      ],
      [
        "?\n",
        -8.30173229390875
      ],
      [
        "&",
        -8.302174688659896
      ],
      [
        "ですね",
        -8.305002912875237
      ],
      [
        "残",
        -8.305339900587033
      ],
      [
        "対応",
        -8.306957341197851
      ],
      [
        "〜",
        -8.30934204564702
      ],
      [
        "親",
        -8.311233002370978
      ],
      [
        "歳",
        -8.312104415479046
      ],
      [
        "プロ",
        -8.312831557745538
      ],
      [
        "とても",
        -8.312948796442052
      ],
      [
        "業",
        -8.313824594972447
      ],
      [
        "ると",
        -8.316186858934612
      ],
      [
        "b",
        -8.317495293281528
      ],
      [
        "機能",
        -8.319059867819352
      ],
      [
        "しい",
        -8.320797380254527
      ],
      [
        "15",
        -8.32338804529914
      ],
      [
        "井",
        -8.323832738372436
      ],
      [
        "必要",
        -8.329736204677403
      ],
      [
        "南",
        -8.330884714104055
      ],
      [
        "各",
        -8.333744372850045
      ],
      [
        "半",
        -8.336952080060335
      ],
      [
        "のです",
        -8.338334308748088
      ],
      [
        "ではない",
        -8.338797225145441
      ],
      [
        "なる",
        -8.340700613718562
      ],
      [
        "教育",
        -8.342177479941494
      ],
      [
        "系",
        -8.34259109966814
      ],
      [
        "理",
        -8.34296553803481
      ],
      [
        "経験",
        -8.344416269114479
      ],
      [
        "記事",
        -8.34543614012953
      ],
      [
        "取",
        -8.348155043734547
      ],
      [
        "ラン",
        -8.350034827565171
      ],
      [
        "効果",
        -8.354112487433891
      ],
      [
        "ワ",
        -8.355088714464795
      ],
      [
        "現在",
        -8.355534293754395
      ],
      [
        "0",
        -8.355708505881987
      ],
      [
        "特に",
        -8.355890937223368
      ],
      [
        "ペ",
        -8.35635287810174
      ],
      [
        "連",
        -8.35706090735276
      ],
      [
        "ことは",
        -8.359366060003083
      ],
      [
        "X",
        -8.360547613011889
      ],
      [
        "気持ち",
        -8.363538159824884
      ],
      [
        "台",
        -8.366462083165318
      ],
      [
        "かな",
        -8.371898955393185
      ],
      [
        "付",
        -8.376290650838289
      ],
      [
        "だと",
        -8.37752514563241
      ],
      [
        "しない",
        -8.378930489298007
      ],
      [
        "r",
        -8.380968667263772
      ],
      [
        "マン",
        -8.381174489808119
      ],
      [
        "年に",
        -8.381309260923501
      ],
      [
        "ール",
        -8.381807070740349
      ],
      [
        "時に",
        -8.38183618635138
      ],
      [
        "50",
        -8.38370973223758
      ],
      [
        "げ",
        -8.384400393710832
      ],
      [
        "紹介",
        -8.384476840960433
      ],
      [
        "これは",
        -8.3847377601473
      ],
      [
        "ヒ",
        -8.385303996286465
      ],
      [
        "例",
        -8.386047843734914
      ],
      [
        "空",
        -8.388751232964339
      ],
      [
        "曲",
        -8.389798792553925
      ],
      [
        "ギ",
        -8.389950192435524
      ],
      [
        "多くの",
        -8.391669120958259
      ],
      [
        "ゲーム",
        -8.394417962117185
      ],
      [
        "れる",
        -8.396332602361275
      ],
      [
        "があり",
        -8.3977044845444
      ],
      [
        "になります",
        -8.398899281625148
      ],
      [
        "同じ",
        -8.400460638553454
      ],
      [
        "自然",
        -8.401573580039031
      ],
      [
        "つけ",
        -8.402244586906672
      ],
      [
        "アップ",
        -8.40260561129066
      ],
      [
        "くらい",
        -8.40526078752713
      ],
      [
        "部分",
        -8.407201637926123
      ],
      [
        "とも",
        -8.407448200416903
      ],
      [
        "様々な",
        -8.409272762342592
      ],
      [
        "対策",
        -8.415697814584561
      ],
      [
        "カー",
        -8.415988637825617
      ],
      [
        "選",
        -8.417281245760014
      ],
      [
        "ゴ",
        -8.418129507534406
      ],
      [
        "学校",
        -8.419859694113914
      ],
      [
        "イベント",
        -8.422600386496486
      ],
      [
        "歯",
        -8.423457046788434
      ],
      [
        "体験",
        -8.424005157524869
      ],
      [
        "別",
        -8.425357922936017
      ],
      [
        "器",
        -8.425750274371016
      ],
      [
        "ザ",
        -8.42852951831455
      ],
      [
        "だから",
        -8.43956786053263
      ],
      [
        "18",
        -8.440177673180663
      ],
      [
        "だけで",
        -8.440200195153691
      ],
      [
        "館",
        -8.440609130500587
      ],
      [
        "近",
        -8.442149459567341
      ],
      [
        "したり",
        -8.4464648769065
      ],
      [
        "データ",
        -8.44733869091919
      ],
      [
        "米",
        -8.448724636938447
      ],
      [
        "販売",
        -8.449077009780568
      ],
      [
        "されています",
        -8.449405847979074
      ],
      [
        "歌",
        -8.449709338169258
      ],
      [
        "システム",
        -8.45072825659194
      ],
      [
        "に関する",
        -8.45121184427817
      ],
      [
        "万",
        -8.452022480039425
      ],
      [
        "新しい",
        -8.452270226967945
      ],
      [
        "ホ",
        -8.452994910847096
      ],
      [
        "真",
        -8.458224726167836
      ],
      [
        "悪",
        -8.458293775821838
      ],
      [
        "公",
        -8.458854178024582
      ],
      [
        "考え",
        -8.460495338296711
      ],
      [
        "とき",
        -8.464486345192347
      ],
      [
        "今回は",
        -8.465027021682383
      ],
      [
        "死",
        -8.46503079397605
      ],
      [
        "対",
        -8.46723369791863
      ],
      [
        "務",
        -8.46840105816552
      ],
      [
        "式",
        -8.471485857900053
      ],
      [
        "そ",
        -8.471490769447685
      ],
      [
        "格",
        -8.472771125812145
      ],
      [
        "できない",
        -8.473666350871786
      ],
      [
        "の中で",
        -8.474168561700235
      ],
      [
        "er",
        -8.475635274708543
      ],
      [
        "ただ",
        -8.475726856163556
      ],
      [
        "開催",
        -8.47683914602348
      ],
      [
        ", ",
        -8.47768346177145
      ],
      [
        "しく",
        -8.47812939865892
      ],
      [
        "チーム",
        -8.478764415781203
      ],
      [
        "先生",
        -8.479254456283547
      ],
      [
        "説明",
        -8.4804519870988
      ],
      [
        "火",
        -8.480859092904229
      ],
      [
        "士",
        -8.481040259765251
      ],
      [
        "ラー",
        -8.482048746154959
      ],
      [
        "調",
        -8.482285226750516
      ],
      [
        "参加",
        -8.485728822791268
      ],
      [
        "院",
        -8.486802206980549
      ],
      [
        "松",
        -8.487637903849647
      ],
      [
        "ということ",
        -8.48863471162931
      ],
      [
        "言",
        -8.492402030167037
      ],
      [
        "古",
        -8.49343514088811
      ],
      [
        "施設",
        -8.493446590274077
      ],
      [
        "民",
        -8.495125867469335
      ],
      [
        "2022",
        -8.495623689670023
      ],
      [
        "フェ",
        -8.497099335306105
      ],
      [
        "選手",
        -8.498252364643685
      ],
      [
        "と思う",
        -8.499048581913234
      ],
      [
        "健康",
        -8.49908241452847
      ],
      [
        "ダー",
        -8.502082226323662
      ],
      [
        "言葉",
        -8.502433995725154
      ],
      [
        "再",
        -8.503282751412211
      ],
      [
        "立ち",
        -8.503446905559885
      ],
      [
        "少し",
        -8.505187691873768
      ],
      [
        "in",
        -8.505959385125287
      ],
      [
        "指",
        -8.506934397998434
      ],
      [
        "意",
        -8.50840472630922
      ],
      [
        "それは",
        -8.508650671113928
      ],
      [
        "。\n「",
        -8.510418345718495
      ],
      [
        "医療",
        -8.511300925064736
      ],
      [
        "リング",
        -8.51230580912791
      ],
      [
        "女",
        -8.513118112693084
      ],
      [
        "しか",
        -8.513184651610795
      ],
      [
        "といった",
        -8.513812031383468
      ],
      [
        "日に",
        -8.51498000775993
      ],
      [
        "人は",
        -8.515305053555128
      ],
      [
        "顔",
        -8.515391638825502
      ],
      [
        "に対して",
        -8.516146176042836
      ],
      [
        "たち",
        -8.51670404019408
      ],
      [
        "笑",
        -8.518503492364651
      ],
      [
        "変",
        -8.521118094000876
      ],
      [
        "急",
        -8.521310899179898
      ],
      [
        "根",
        -8.521617392468777
      ],
      [
        "ゆ",
        -8.522602059595814
      ],
      [
        "宮",
        -8.524327835356708
      ],
      [
        "保",
        -8.525219240882691
      ],
      [
        "において",
        -8.525488041540077
      ],
      [
        "居",
        -8.528100651532487
      ],
      [
        "あり",
        -8.5281555278717
      ],
      [
        "an",
        -8.528384916053032
      ],
      [
        "ざ",
        -8.52876265923989
      ],
      [
        "強",
        -8.531330955624382
      ],
      [
        "男",
        -8.532846035149952
      ],
      [
        "表",
        -8.535133855884464
      ],
      [
        "号",
        -8.535744052374316
      ],
      [
        "送",
        -8.536952120770806
      ],
      [
        "経",
        -8.537566005642091
      ],
      [
        "確認",
        -8.538333617650647
      ],
      [
        "以上",
        -8.539877149397276
      ],
      [
        "ライ",
        -8.540585517159908
      ],
      [
        "率",
        -8.540637886665616
      ],
      [
        "ことで",
        -8.542436083818279
      ],
      [
        "のような",
        -8.546533955413958
      ],
      [
        "いました",
        -8.546872660377819
      ],
      [
        "? ",
        -8.55342808229389
      ],
      [
        "たら",
        -8.55427788340811
      ],
      [
        "相",
        -8.554462955495774
      ],
      [
        "レー",
        -8.555860404175693
      ],
      [
        "進",
        -8.557701108958662
      ],
      [
        "ポイント",
        -8.55955878039764
      ],
      [
        "開",
        -8.560286393466036
      ],
      [
        "総",
        -8.562646319864944
      ],
      [
        "っています",
        -8.563467941736938
      ],
      [
        "存在",
        -8.563524666282994
      ],
      [
        "好き",
        -8.566355522521116
      ],
      [
        "たり",
        -8.567475615418926
      ],
      [
        "頃",
        -8.568926331301894
      ],
      [
        "十",
        -8.57075692976907
      ],
      [
        "v",
        -8.57158782223656
      ],
      [
        "通り",
        -8.57369929116899
      ],
      [
        "40",
        -8.575036039184793
      ],
      [
        "夏",
        -8.576113654462715
      ],
      [
        "提供",
        -8.576299101747455
      ],
      [
        "ちょっと",
        -8.576977706881083
      ],
      [
        "科",
        -8.577112392972913
      ],
      [
        "本当に",
        -8.577528617460317
      ],
      [
        "状態",
        -8.578390721811267
      ],
      [
        "作業",
        -8.580070258062696
      ],
      [
        "そうです",
        -8.584008514827207
      ],
      [
        "を見",
        -8.5847820501053
      ],
      [
        "調査",
        -8.585377671806837
      ],
      [
        "on",
        -8.586524767381619
      ],
      [
        "番",
        -8.586834405272677
      ],
      [
        "時代",
        -8.586899024742994
      ],
      [
        "文化",
        -8.588345563132016
      ],
      [
        "にて",
        -8.590059065344114
      ],
      [
        "可",
        -8.591662310638021
      ],
      [
        "一度",
        -8.592914478069819
      ],
      [
        "求人",
        -8.593070361797796
      ],
      [
        "相談",
        -8.594106411446031
      ],
      [
        "まだ",
        -8.595280915689074
      ],
      [
        "※",
        -8.595364906376533
      ],
      [
        "家族",
        -8.596846196666453
      ],
      [
        "さんの",
        -8.598174369290788
      ],
      [
        "音楽",
        -8.598223408009504
      ],
      [
        "期間",
        -8.59966877309172
      ],
      [
        "リン",
        -8.60030314901181
      ],
      [
        "員",
        -8.60063262311317
      ],
      [
        "園",
        -8.603092077856443
      ],
      [
        "理由",
        -8.603657445642918
      ],
      [
        "個人",
        -8.604839496728017
      ],
      [
        "座",
        -8.605671677131424
      ],
      [
        "だろう",
        -8.607581559529983
      ],
      [
        "いたします",
        -8.609595130459951
      ],
      [
        "ちゃん",
        -8.609895780113156
      ],
      [
        "王",
        -8.611241099127568
      ],
      [
        "しながら",
        -8.611824720772612
      ],
      [
        "料",
        -8.612351014362837
      ],
      [
        "住",
        -8.612722644707262
      ],
      [
        "上げ",
        -8.615535951741602
      ],
      [
        "病",
        -8.61871036888273
      ],
      [
        "渡",
        -8.618785654375266
      ],
      [
        "させ",
        -8.618859182687254
      ],
      [
        "フィ",
        -8.622806930968734
      ],
      [
        "路",
        -8.624098318233848
      ],
      [
        "学生",
        -8.624405230673872
      ],
      [
        "教",
        -8.625706819204732
      ],
      [
        "える",
        -8.626769598110968
      ],
      [
        "受け",
        -8.627792434046615
      ],
      [
        "もあります",
        -8.628607433860948
      ],
      [
        "されて",
        -8.630077398824978
      ],
      [
        "活用",
        -8.631342835906947
      ],
      [
        "シー",
        -8.631574967133785
      ],
      [
        "春",
        -8.632616989863555
      ],
      [
        "させて",
        -8.633641151154283
      ],
      [
        "城",
        -8.63423245453313
      ],
      [
        "ではなく",
        -8.634729071706195
      ],
      [
        "加",
        -8.634907097948858
      ],
      [
        "できます",
        -8.635719026765747
      ],
      [
        "=",
        -8.636497419826483
      ],
      [
        "交",
        -8.638482936722937
      ],
      [
        "16",
        -8.638693671648598
      ],
      [
        "人気",
        -8.639666362383814
      ],
      [
        "馬",
        -8.63970758692354
      ],
      [
        "やすい",
        -8.64023971416958
      ],
      [
        "サン",
        -8.641619246806206
      ],
      [
        "ップ",
        -8.641739571049678
      ],
      [
        "増",
        -8.64277002773536
      ],
      [
        "があった",
        -8.643359551136525
      ],
      [
        "[",
        -8.645917761496241
      ],
      [
        "のように",
        -8.646874915445242
      ],
      [
        "安全",
        -8.647057982646064
      ],
      [
        "]",
        -8.647952802314494
      ],
      [
        "人間",
        -8.648313357080918
      ],
      [
        "その後",
        -8.650253998754884
      ],
      [
        "広",
        -8.651181097346125
      ],
      [
        "論",
        -8.651268502648422
      ],
      [
        "ブログ",
        -8.652218724984236
      ],
      [
        "際",
        -8.654186079002724
      ],
      [
        "肌",
        -8.655261539492336
      ],
      [
        "生き",
        -8.65570493484415
      ],
      [
        "権",
        -8.656649966654383
      ],
      [
        "あまり",
        -8.658268199068777
      ],
      [
        "こう",
        -8.660639797511235
      ],
      [
        "黒",
        -8.660843587407648
      ],
      [
        "中国",
        -8.661422301349907
      ],
      [
        "満",
        -8.662648965468264
      ],
      [
        "センター",
        -8.663067411591436
      ],
      [
        "になり",
        -8.664056114410629
      ],
      [
        "目的",
        -8.665283400554472
      ],
      [
        "における",
        -8.666188322267773
      ],
      [
        "声",
        -8.66819361483846
      ],
      [
        "御",
        -8.66836037644895
      ],
      [
        "失",
        -8.669006538793994
      ],
      [
        "発表",
        -8.66903113321087
      ],
      [
        "母",
        -8.669161413200273
      ],
      [
        "どんな",
        -8.670300541186034
      ],
      [
        "命",
        -8.670785681382466
      ],
      [
        "方が",
        -8.672253181407854
      ],
      [
        "などを",
        -8.672999400981798
      ],
      [
        "制",
        -8.673443722593316
      ],
      [
        "!」",
        -8.674363957156434
      ],
      [
        "ゼ",
        -8.675668460437473
      ],
      [
        "を受け",
        -8.676487625224837
      ],
      [
        "全国",
        -8.677619244196862
      ],
      [
        "ありません",
        -8.678871066659964
      ],
      [
        "もっと",
        -8.679858562741071
      ],
      [
        "!!",
        -8.680152214499005
      ],
      [
        "やって",
        -8.680325834072052
      ],
      [
        "電",
        -8.680691812391705
      ],
      [
        "校",
        -8.681621929857613
      ],
      [
        "00",
        -8.681759062215576
      ],
      [
        "める",
        -8.682111120760178
      ],
      [
        "専門",
        -8.682278527550192
      ],
      [
        "っと",
        -8.682467164204542
      ],
      [
        "われ",
        -8.684025080019007
      ],
      [
        "セン",
        -8.68415991725628
      ],
      [
        "好",
        -8.684202763533305
      ],
      [
        "谷",
        -8.685480162269661
      ],
      [
        "からの",
        -8.685627511662709
      ],
      [
        "料理",
        -8.686497279568414
      ],
      [
        "断",
        -8.689859713790813
      ],
      [
        "ジェ",
        -8.69106685859972
      ],
      [
        "氏",
        -8.69113322747345
      ],
      [
        "評価",
        -8.691623747439639
      ],
      [
        "業務",
        -8.692756961537588
      ],
      [
        "こんな",
        -8.696412466520313
      ],
      [
        "経済",
        -8.697047024151997
      ],
      [
        "肉",
        -8.697667554990527
      ],
      [
        "賞",
        -8.697930899160035
      ],
      [
        "よりも",
        -8.698115997592703
      ],
      [
        "割",
        -8.698478833571224
      ],
      [
        "他の",
        -8.699396275980801
      ],
      [
        "させる",
        -8.70013121039726
      ],
      [
        "青",
        -8.700231097521286
      ],
      [
        "意識",
        -8.70092513062398
      ],
      [
        "をして",
        -8.70390268768285
      ],
      [
        "服",
        -8.704723564937908
      ],
      [
        "動画",
        -8.704823920147504
      ],
      [
        "引",
        -8.70485719662102
      ],
      [
        "をする",
        -8.70692698918072
      ],
      [
        "姿",
        -8.7071887735223
      ],
      [
        "者の",
        -8.707434799930548
      ],
      [
        "意味",
        -8.709784135535285
      ],
      [
        "もある",
        -8.71117534462036
      ],
      [
        "2021",
        -8.712661921725324
      ],
      [
        "育",
        -8.712694796668574
      ],
      [
        "ナー",
        -8.713200105207786
      ],
      [
        "すれば",
        -8.714723237264161
      ],
      [
        "14",
        -8.714767746911956
      ],
      [
        "子供",
        -8.71561806491131
      ],
      [
        "2020",
        -8.716209628746627
      ],
      [
        "良",
        -8.717477548825865
      ],
      [
        "*",
        -8.71965461894563
      ],
      [
        "おり",
        -8.719696049207146
      ],
      [
        "波",
        -8.721341469467639
      ],
      [
        "」\n",
        -8.722237265234135
      ],
      [
        "編",
        -8.722385852962951
      ],
      [
        "17",
        -8.723426911754665
      ],
      [
        "骨",
        -8.723510842282499
      ],
      [
        "利",
        -8.724333695803336
      ],
      [
        "戻",
        -8.724470928026147
      ],
      [
        "画",
        -8.724839878495777
      ],
      [
        "具",
        -8.72544385180249
      ],
      [
        "減",
        -8.725518422056233
      ],
      [
        "ここ",
        -8.727095812291786
      ],
      [
        "出し",
        -8.728170467192086
      ],
      [
        "お客様",
        -8.729030378134642
      ],
      [
        "日本の",
        -8.729293017454491
      ],
      [
        "視",
        -8.731086973472634
      ],
      [
        "製",
        -8.732185691245459
      ],
      [
        "配",
        -8.732422513217797
      ],
      [
        "撮影",
        -8.734164426549986
      ],
      [
        "%",
        -8.734288762534076
      ],
      [
        "寺",
        -8.735220713880917
      ],
      [
        "re",
        -8.735745841291841
      ],
      [
        "ていく",
        -8.735933508203622
      ],
      [
        "街",
        -8.736089743518805
      ],
      [
        "図",
        -8.736111017972899
      ],
      [
        "くれ",
        -8.73682038981837
      ],
      [
        "100",
        -8.73696626380651
      ],
      [
        "スタッフ",
        -8.737243674008422
      ],
      [
        "四",
        -8.737318035450166
      ],
      [
        "血",
        -8.73733645111212
      ],
      [
        "結",
        -8.737391708426971
      ],
      [
        "温",
        -8.73746565490893
      ],
      [
        "ことに",
        -8.738053625157654
      ],
      [
        "おすすめ",
        -8.738137715165884
      ],
      [
        "出す",
        -8.738285976558874
      ],
      [
        "レン",
        -8.738372685068093
      ],
      [
        "25",
        -8.738666912059914
      ],
      [
        "私の",
        -8.738793892911033
      ],
      [
        "赤",
        -8.739598532246136
      ],
      [
        "入れ",
        -8.740465586473004
      ],
      [
        "13",
        -8.741458609846546
      ],
      [
        "or",
        -8.742001521960127
      ],
      [
        "現",
        -8.742170989622178
      ],
      [
        "放",
        -8.743490173630674
      ],
      [
        "アル",
        -8.743491844684586
      ],
      [
        "向け",
        -8.744623749321486
      ],
      [
        "他",
        -8.745193364080041
      ],
      [
        "代表",
        -8.745838291017353
      ],
      [
        "予定",
        -8.747089648026238
      ],
      [
        "登録",
        -8.748302728955823
      ],
      [
        "にとって",
        -8.750440283804423
      ],
      [
        "てきた",
        -8.750633216464983
      ],
      [
        "税",
        -8.75175997369139
      ],
      [
        "男性",
        -8.75179208925864
      ],
      [
        "成長",
        -8.751972453349312
      ],
      [
        "任",
        -8.752637209500792
      ],
      [
        "まとめ",
        -8.752682723495054
      ],
      [
        "パン",
        -8.752863755146628
      ],
      [
        "伝え",
        -8.753090188837417
      ],
      [
        "まず",
        -8.75323637899795
      ],
      [
        "チャ",
        -8.753597087152984
      ],
      [
        "年間",
        -8.754569496826058
      ],
      [
        "かなり",
        -8.755023314757654
      ],
      [
        "がない",
        -8.755206103374578
      ],
      [
        "造",
        -8.75521723769229
      ],
      [
        "向",
        -8.757189470187363
      ],
      [
        "しております",
        -8.758852044390638
      ],
      [
        "軍",
        -8.761758801066714
      ],
      [
        "アメリカ",
        -8.76176081042451
      ],
      [
        "ーション",
        -8.761918259867537
      ],
      [
        "月に",
        -8.762356315418492
      ],
      [
        "引き",
        -8.762457761801542
      ],
      [
        ")」",
        -8.763218399394685
      ],
      [
        "のお",
        -8.764005248325233
      ],
      [
        "仕",
        -8.7644741842703
      ],
      [
        "運",
        -8.764538603879078
      ],
      [
        "アルバイト",
        -8.76482866709947
      ],
      [
        "非常に",
        -8.766160565710793
      ],
      [
        "が多い",
        -8.76670232069962
      ],
      [
        "の方",
        -8.767329398697834
      ],
      [
        "営業",
        -8.767397684883024
      ],
      [
        "切",
        -8.768445508338333
      ],
      [
        "勉強",
        -8.768558402053586
      ],
      [
        "仕事を",
        -8.769776028922237
      ],
      [
        "勝",
        -8.770911529909906
      ],
      [
        "治",
        -8.771115190373104
      ],
      [
        "一番",
        -8.771525474294696
      ],
      [
        "師",
        -8.772540207211426
      ],
      [
        "理解",
        -8.77351179436141
      ],
      [
        "職",
        -8.774002198144936
      ],
      [
        "つく",
        -8.77427858278313
      ],
      [
        "橋",
        -8.774349225739984
      ],
      [
        "いく",
        -8.774828719052808
      ],
      [
        "ックス",
        -8.775274501917627
      ],
      [
        "それを",
        -8.775521937207257
      ],
      [
        "出来",
        -8.776616031224046
      ],
      [
        "\"",
        -8.776853726574553
      ],
      [
        "べ",
        -8.77746185587704
      ],
      [
        "参",
        -8.777831412757246
      ],
      [
        "雨",
        -8.778053087059403
      ],
      [
        "つの",
        -8.778643253799043
      ],
      [
        "グループ",
        -8.779180076619786
      ],
      [
        "カル",
        -8.779345866681862
      ],
      [
        "毎日",
        -8.780271441174202
      ],
      [
        "期待",
        -8.780720376853719
      ],
      [
        "団",
        -8.780967242694478
      ],
      [
        "込み",
        -8.78224186075247
      ],
      [
        "株式会社",
        -8.782314258976983
      ],
      [
        "そこで",
        -8.782721558861931
      ],
      [
        "国際",
        -8.783562334322223
      ],
      [
        "太",
        -8.783772612534829
      ],
      [
        "特",
        -8.785102225251832
      ],
      [
        "子ども",
        -8.785160002926132
      ],
      [
        "反",
        -8.786548527045099
      ],
      [
        "ために",
        -8.7865812364437
      ],
      [
        "ファ",
        -8.787242237478873
      ],
      [
        "守",
        -8.789081452029608
      ],
      [
        "されました",
        -8.790211097392012
      ],
      [
        "ファン",
        -8.790364450413996
      ],
      [
        "サー",
        -8.79163504001187
      ],
      [
        "症",
        -8.791773712715576
      ],
      [
        "イメージ",
        -8.792127998156845
      ],
      [
        "大会",
        -8.792200256067332
      ],
      [
        "なり",
        -8.792997192823707
      ],
      [
        "等の",
        -8.793024068931832
      ],
      [
        "24",
        -8.795030253697792
      ],
      [
        "強い",
        -8.796828033180281
      ],
      [
        "っていた",
        -8.796931699940723
      ],
      [
        "ぼ",
        -8.798718247026937
      ],
      [
        "年度",
        -8.799408012636201
      ],
      [
        "いつも",
        -8.799501127920943
      ],
      [
        "に対する",
        -8.799624844260027
      ],
      [
        "中の",
        -8.800569230977965
      ],
      [
        "合わせ",
        -8.802906011718298
      ],
      [
        "藤",
        -8.804066665808763
      ],
      [
        "場合は",
        -8.80495071081619
      ],
      [
        "工",
        -8.80577263204144
      ],
      [
        "ジャ",
        -8.806553183840965
      ],
      [
        "側",
        -8.806563887393125
      ],
      [
        "今回の",
        -8.806908809830748
      ],
      [
        "購入",
        -8.80749341296668
      ],
      [
        "パー",
        -8.80877031956199
      ],
      [
        "異",
        -8.808831157606356
      ],
      [
        "公開",
        -8.809220633133696
      ],
      [
        "返",
        -8.809832707147454
      ],
      [
        "計画",
        -8.809990768822182
      ],
      [
        "指導",
        -8.810062727837849
      ],
      [
        "については",
        -8.810198515381927
      ],
      [
        "ーン",
        -8.810605628258347
      ],
      [
        "病院",
        -8.81060758872891
      ],
      [
        "んです",
        -8.811013304333294
      ],
      [
        "世",
        -8.811769969252502
      ],
      [
        "製品",
        -8.812374714600626
      ],
      [
        "彼女",
        -8.81384682167904
      ],
      [
        "毛",
        -8.816124616761156
      ],
      [
        "最近",
        -8.817522456645861
      ],
      [
        "信",
        -8.818014017632267
      ],
      [
        "転",
        -8.81832359948351
      ],
      [
        "とともに",
        -8.819326256641547
      ],
      [
        "ことも",
        -8.820284313118359
      ],
      [
        "組",
        -8.820923721193045
      ],
      [
        "良く",
        -8.82120271589537
      ],
      [
        "_",
        -8.822607282082105
      ],
      [
        "版",
        -8.823248300277598
      ],
      [
        "ガー",
        -8.823419880774722
      ],
      [
        "サポート",
        -8.824138067505984
      ],
      [
        "」(",
        -8.8250826198852
      ],
      [
        "及び",
        -8.825243892313882
      ],
      [
        "岡",
        -8.828223166461777
      ],
      [
        "課題",
        -8.82851722978274
      ],
      [
        "x",
        -8.829586347765485
      ],
      [
        "限",
        -8.829710674106158
      ],
      [
        "何か",
        -8.830533609737122
      ],
      [
        "ar",
        -8.833205164337802
      ],
      [
        "星",
        -8.833315917256254
      ],
      [
        "をお",
        -8.83560925943441
      ],
      [
        "改善",
        -8.83733952916814
      ],
      [
        "紙",
        -8.837607702776403
      ],
      [
        "200",
        -8.838375827841473
      ],
      [
        "ようです",
        -8.839070183088486
      ],
      [
        "さんが",
        -8.8406115907902
      ],
      [
        "省",
        -8.84084102451575
      ],
      [
        "乗",
        -8.840954313214816
      ],
      [
        "差",
        -8.841625101196017
      ],
      [
        "らない",
        -8.842153535079712
      ],
      [
        "となった",
        -8.842986013361031
      ],
      [
        "可能性",
        -8.843695098855653
      ],
      [
        "乳",
        -8.84491000353175
      ],
      [
        "食べ",
        -8.84526673088581
      ],
      [
        "まる",
        -8.84631266919258
      ],
      [
        "費",
        -8.846615173559679
      ],
      [
        "望",
        -8.847499650576317
      ],
      [
        "立て",
        -8.848638214192045
      ],
      [
        "行動",
        -8.849321741837887
      ],
      [
        "運動",
        -8.850859658330288
      ],
      [
        "売",
        -8.850956672265738
      ],
      [
        "のために",
        -8.851189483975684
      ],
      [
        "今回",
        -8.851945657674236
      ],
      [
        "ネット",
        -8.852066384618167
      ],
      [
        "除",
        -8.852095939219124
      ],
      [
        "かけ",
        -8.852427827450727
      ],
      [
        "持ち",
        -8.852677690220387
      ],
      [
        "みたい",
        -8.852808934225878
      ],
      [
        "設定",
        -8.853754069748788
      ],
      [
        "修",
        -8.853850976439158
      ],
      [
        "エン",
        -8.855548488695781
      ],
      [
        "方は",
        -8.85623176129164
      ],
      [
        "|",
        -8.856703190331976
      ],
      [
        "一人",
        -8.85673267386609
      ],
      [
        "戸",
        -8.857565915200137
      ],
      [
        "とした",
        -8.859124357681399
      ],
      [
        "://",
        -8.859337650002638
      ],
      [
        "福",
        -8.860708927599692
      ],
      [
        "在",
        -8.860898599924452
      ],
      [
        "越",
        -8.861516370006635
      ],
      [
        "テレビ",
        -8.86186793529694
      ],
      [
        "en",
        -8.862348402794613
      ],
      [
        "落",
        -8.863100107904499
      ],
      [
        "圧",
        -8.863406263077614
      ],
      [
        "両",
        -8.863535917450893
      ],
      [
        "初めて",
        -8.863718902674012
      ],
      [
        "おります",
        -8.864542685939284
      ],
      [
        "となります",
        -8.865074357875264
      ],
      [
        "ほとんど",
        -8.865769178744594
      ],
      [
        "お店",
        -8.865787877788417
      ],
      [
        "対象",
        -8.866332422252729
      ],
      [
        "下さい",
        -8.867680362141435
      ],
      [
        "遠",
        -8.867850307009302
      ],
      [
        "切り",
        -8.86807031470914
      ],
      [
        "細",
        -8.868247188405144
      ],
      [
        "検査",
        -8.868695398133264
      ],
      [
        "ビー",
        -8.870110112267898
      ],
      [
        "することで",
        -8.870238404513765
      ],
      [
        "材",
        -8.870311590044599
      ],
      [
        "人生",
        -8.870673325917235
      ],
      [
        "絶",
        -8.87124940192577
      ],
      [
        "されます",
        -8.871539740392253
      ],
      [
        "関連",
        -8.872454511969357
      ],
      [
        "なんて",
        -8.87332531582554
      ],
      [
        "類",
        -8.873717353748287
      ],
      [
        "打",
        -8.874483422247707
      ],
      [
        "キャ",
        -8.875847035651848
      ],
      [
        "剤",
        -8.876599379484786
      ],
      [
        "モデル",
        -8.876924821316814
      ],
      [
        "夢",
        -8.877629973492482
      ],
      [
        "だけでなく",
        -8.877829000530978
      ],
      [
        "?」",
        -8.878297494316959
      ],
      [
        "実際に",
        -8.87847254619352
      ],
      [
        "ばかり",
        -8.878978548180813
      ],
      [
        "医",
        -8.879098209125381
      ],
      [
        "優",
        -8.879365474070052
      ],
      [
        "高い",
        -8.879986839658278
      ],
      [
        "僕",
        -8.880323144560176
      ],
      [
        "防",
        -8.880772781248302
      ],
      [
        "メール",
        -8.880922231950128
      ],
      [
        "を行う",
        -8.881220116786084
      ],
      [
        "てしまう",
        -8.881462595098219
      ],
      [
        "中に",
        -8.881674133506792
      ],
      [
        "運営",
        -8.884199705562109
      ],
      [
        "ニー",
        -8.88539575684245
      ],
      [
        "上で",
        -8.88602004246191
      ],
      [
        "制度",
        -8.886357788593285
      ],
      [
        "ります",
        -8.888323945738055
      ],
      [
        "したら",
        -8.888440444280322
      ],
      [
        "装",
        -8.888924628002536
      ],
      [
        "局",
        -8.889078496673035
      ],
      [
        "だが",
        -8.889572270006555
      ],
      [
        "23",
        -8.890809091040705
      ],
      [
        "と思って",
        -8.891116319275731
      ],
      [
        "作り",
        -8.891680516644323
      ],
      [
        "Q",
        -8.892021486232734
      ],
      [
        "マー",
        -8.892094561255975
      ],
      [
        "リア",
        -8.892347619978207
      ],
      [
        "人に",
        -8.892355233303723
      ],
      [
        "持",
        -8.895771050519999
      ],
      [
        "スポーツ",
        -8.896456719859017
      ],
      [
        "注意",
        -8.897135149271147
      ],
      [
        "ときに",
        -8.897268868619186
      ],
      [
        "きます",
        -8.897678365475748
      ],
      [
        "低",
        -8.897856344415578
      ],
      [
        "どこ",
        -8.897945694740267
      ],
      [
        "都",
        -8.898774673558284
      ],
      [
        "バス",
        -8.899032597406482
      ],
      [
        "マイ",
        -8.900302344885342
      ],
      [
        "年の",
        -8.900713446267872
      ],
      [
        "身体",
        -8.901373621638774
      ],
      [
        "海外",
        -8.902277896363602
      ],
      [
        "難",
        -8.9024297060462
      ],
      [
        "ページ",
        -8.903435238430802
      ],
      [
        "酒",
        -8.904211342466768
      ],
      [
        "すぐに",
        -8.905070811228246
      ],
      [
        "com",
        -8.90576565600816
      ],
      [
        "秋",
        -8.906879992542557
      ],
      [
        "時期",
        -8.90717656240754
      ],
      [
        "検",
        -8.908538632982589
      ],
      [
        "実施",
        -8.908585139312706
      ],
      [
        "知識",
        -8.908929327810233
      ],
      [
        "英語",
        -8.909550776472742
      ],
      [
        "志",
        -8.909964731723585
      ],
      [
        ": ",
        -8.910631065101223
      ],
      [
        "森",
        -8.912294015736833
      ],
      [
        "級",
        -8.912848054261943
      ],
      [
        "ぜひ",
        -8.914308460925684
      ],
      [
        "であった",
        -8.91628140790526
      ],
      [
        "らしい",
        -8.91694906765898
      ],
      [
        "れた",
        -8.917439833934344
      ],
      [
        "ジュ",
        -8.917929127574324
      ],
      [
        "条",
        -8.918561345707502
      ],
      [
        "それが",
        -8.91902168819541
      ],
      [
        "していく",
        -8.920113003836038
      ],
      [
        "ビジネス",
        -8.920272220470325
      ],
      [
        "とする",
        -8.920524967176284
      ],
      [
        "タイ",
        -8.920601898494498
      ],
      [
        "でしょうか",
        -8.920715414164126
      ],
      [
        "続け",
        -8.9215285688432
      ],
      [
        "表現",
        -8.92473301741437
      ],
      [
        "h",
        -8.925456508127242
      ],
      [
        "テン",
        -8.926410710553528
      ],
      [
        "コース",
        -8.929124711281524
      ],
      [
        "21",
        -8.929281332670396
      ],
      [
        "少",
        -8.929726509735437
      ],
      [
        "これまで",
        -8.929931941501076
      ],
      [
        "カード",
        -8.930837731066074
      ],
      [
        "ッド",
        -8.931302477553988
      ],
      [
        "茶",
        -8.932016184999691
      ],
      [
        "活躍",
        -8.932365515587305
      ],
      [
        "誰",
        -8.93388731132177
      ],
      [
        "ご紹介",
        -8.933908123137604
      ],
      [
        "ステ",
        -8.93450108839228
      ],
      [
        "走",
        -8.935117407828635
      ],
      [
        "Z",
        -8.935264204513986
      ],
      [
        "あと",
        -8.935563969978935
      ],
      [
        "監督",
        -8.935765995538157
      ],
      [
        "2019",
        -8.93604179762766
      ],
      [
        "かもしれません",
        -8.936425114231877
      ],
      [
        "まり",
        -8.936859857517916
      ],
      [
        "経営",
        -8.93719604938736
      ],
      [
        "使",
        -8.937623237955313
      ],
      [
        "れて",
        -8.938312317951649
      ],
      [
        "創",
        -8.938701516238796
      ],
      [
        "ピー",
        -8.939689683229428
      ],
      [
        "シリーズ",
        -8.940681372983745
      ],
      [
        "しており",
        -8.940717459617842
      ],
      [
        "電話",
        -8.941484391834752
      ],
      [
        "額",
        -8.941629870452795
      ],
      [
        "合い",
        -8.942122708951132
      ],
      [
        "トラ",
        -8.94226950439558
      ],
      [
        "枚",
        -8.942405190431288
      ],
      [
        "いない",
        -8.943289669927196
      ],
      [
        "グラ",
        -8.943458711221771
      ],
      [
        "活",
        -8.944157188529438
      ],
      [
        "保険",
        -8.946631336015141
      ],
      [
        "武",
        -8.946690912201952
      ],
      [
        "極",
        -8.947618034222485
      ],
      [
        "葉",
        -8.947670308992477
      ],
      [
        "絵",
        -8.948896074957675
      ],
      [
        "解決",
        -8.949188901677358
      ],
      [
        "起",
        -8.949752235146088
      ],
      [
        "過",
        -8.951006252487998
      ],
      [
        "......",
        -8.951463829162362
      ],
      [
        "報告",
        -8.951480732224752
      ],
      [
        "さんは",
        -8.952504402818903
      ],
      [
        "ゲ",
        -8.952923943264336
      ],
      [
        "もちろん",
        -8.953294644978817
      ],
      [
        "多く",
        -8.95423935736835
      ],
      [
        "客",
        -8.954393198082874
      ],
      [
        "官",
        -8.954421335263163
      ],
      [
        "クリ",
        -8.95470767750948
      ],
      [
        "よい",
        -8.955567746279414
      ],
      [
        "こちら",
        -8.956299683825431
      ],
      [
        "コー",
        -8.956993937723896
      ],
      [
        "ものです",
        -8.957790075998883
      ],
      [
        "入り",
        -8.958039694477122
      ],
      [
        "一般",
        -8.958344313892244
      ],
      [
        "沢",
        -8.958683146911785
      ],
      [
        "八",
        -8.958916942885317
      ],
      [
        "最高",
        -8.959215724079163
      ],
      [
        "順",
        -8.959588234027047
      ],
      [
        "不安",
        -8.960332030016922
      ],
      [
        "酸",
        -8.961122111235131
      ],
      [
        "情",
        -8.962276523140293
      ],
      [
        "ったり",
        -8.962448832975541
      ],
      [
        "変更",
        -8.963812085775249
      ],
      [
        "らず",
        -8.965049812298089
      ],
      [
        "しても",
        -8.965079683566632
      ],
      [
        "きました",
        -8.966781843273148
      ],
      [
        "大変",
        -8.96680882154903
      ],
      [
        "千",
        -8.966904352647425
      ],
      [
        "退",
        -8.967169895402112
      ],
      [
        ">",
        -8.96733657782659
      ],
      [
        "関",
        -8.967751539426269
      ],
      [
        "違う",
        -8.96811457613584
      ],
      [
        "伝",
        -8.968197929457595
      ],
      [
        "機会",
        -8.96958896647609
      ],
      [
        "オンライン",
        -8.969900984083692
      ],
      [
        "平成",
        -8.973358009128887
      ],
      [
        "介護",
        -8.97379655820173
      ],
      [
        "収",
        -8.97437578462274
      ],
      [
        "端",
        -8.97515763298745
      ],
      [
        "メンバー",
        -8.976863824174057
      ],
      [
        "待",
        -8.977055087575634
      ],
      [
        "未",
        -8.977296295613257
      ],
      [
        "読み",
        -8.978091430159978
      ],
      [
        "なぜ",
        -8.978099273887674
      ],
      [
        "殺",
        -8.978374190681466
      ],
      [
        "書き",
        -8.978418844432099
      ],
      [
        "要",
        -8.978599174044462
      ],
      [
        "歩",
        -8.979330453045995
      ],
      [
        "を使って",
        -8.979670772991511
      ],
      [
        "人々",
        -8.979724019835604
      ],
      [
        "中で",
        -8.980157206198799
      ],
      [
        "末",
        -8.98060098248446
      ],
      [
        "使い",
        -8.981965341774417
      ],
      [
        "企画",
        -8.982987592386994
      ],
      [
        "角",
        -8.983109975872791
      ],
      [
        "改",
        -8.983341585454498
      ],
      [
        "としても",
        -8.984626541281099
      ],
      [
        "苦",
        -8.985602176000492
      ],
      [
        "確",
        -8.986171062639508
      ],
      [
        "超",
        -8.986212088098592
      ],
      [
        "ッシュ",
        -8.986267216891829
      ],
      [
        "つか",
        -8.986746381224602
      ],
      [
        "訳",
        -8.989375583940701
      ],
      [
        "スタート",
        -8.989621056901845
      ],
      [
        "洋",
        -8.989942738520629
      ],
      [
        "アイ",
        -8.992762258747375
      ],
      [
        "計",
        -8.993493458916559
      ],
      [
        "寝",
        -8.994601327505862
      ],
      [
        "ぬ",
        -8.994601327505862
      ],
      [
        "大きく",
        -8.994899956391846
      ],
      [
        "ート",
        -8.996807913391383
      ],
      [
        "裏",
        -8.996988556967793
      ],
      [
        "を持って",
        -8.99699451015412
      ],
      [
        "めて",
        -8.998010516554809
      ],
      [
        "ましょう",
        -8.998116767253904
      ],
      [
        "右",
        -8.998198530027315
      ],
      [
        "生産",
        -8.998743987564275
      ],
      [
        "程度",
        -8.998886303181296
      ],
      [
        "日々",
        -9.001650341344705
      ],
      [
        "五",
        -9.001896562702925
      ],
      [
        "組織",
        -9.002718656269998
      ],
      [
        "セット",
        -9.002850291715033
      ],
      [
        "自由",
        -9.00293491999693
      ],
      [
        "となり",
        -9.003184996808754
      ],
      [
        "と考え",
        -9.003319196133976
      ],
      [
        "父",
        -9.003321135785423
      ],
      [
        "+",
        -9.003415913581579
      ],
      [
        "くる",
        -9.00345023355366
      ],
      [
        "および",
        -9.00425349915946
      ],
      [
        "崎",
        -9.004365569283367
      ],
      [
        "症状",
        -9.004545665212856
      ],
      [
        "変化",
        -9.0046865947996
      ],
      [
        "夫",
        -9.005541862110018
      ],
      [
        "せる",
        -9.005810498469707
      ],
      [
        "大阪",
        -9.005895822176644
      ],
      [
        "サイズ",
        -9.006597302498589
      ],
      [
        "国内",
        -9.008215423557376
      ],
      [
        "導入",
        -9.009571995299593
      ],
      [
        "素材",
        -9.009792763237176
      ],
      [
        "首",
        -9.010925994940475
      ],
      [
        "学習",
        -9.012562584286796
      ],
      [
        "ブランド",
        -9.013183478030374
      ],
      [
        "個",
        -9.013205752468034
      ],
      [
        "過ぎ",
        -9.014134112159098
      ],
      [
        "以前",
        -9.014192410429331
      ],
      [
        "題",
        -9.014276963837341
      ],
      [
        "痛",
        -9.01599806791585
      ],
      [
        "が必要",
        -9.017176455231786
      ],
      [
        "短",
        -9.017364633752486
      ],
      [
        "現場",
        -9.017423271352882
      ],
      [
        "印象",
        -9.017941071944797
      ],
      [
        "一つ",
        -9.01811204696912
      ],
      [
        "密",
        -9.018430336048644
      ],
      [
        "にして",
        -9.020176469457962
      ],
      [
        "津",
        -9.021009599726916
      ],
      [
        "シャ",
        -9.022684242979434
      ],
      [
        "軽",
        -9.022869534133212
      ],
      [
        "嫌",
        -9.024688641876008
      ],
      [
        "なお",
        -9.025096751261398
      ],
      [
        "目標",
        -9.02614062099898
      ],
      [
        "スター",
        -9.02629252156687
      ],
      [
        "こそ",
        -9.027499382965201
      ],
      [
        "60",
        -9.027567481673515
      ],
      [
        "なくて",
        -9.028629377822229
      ],
      [
        "制作",
        -9.028801346285503
      ],
      [
        "スタ",
        -9.029435696591923
      ],
      [
        "ch",
        -9.029479372498725
      ],
      [
        "ルー",
        -9.0295035174808
      ],
      [
        "じゃ",
        -9.029513222131811
      ],
      [
        "落ち",
        -9.030206171565336
      ],
      [
        "非",
        -9.030377204776194
      ],
      [
        "試合",
        -9.030909103680603
      ],
      [
        "得",
        -9.0320730690075
      ],
      [
        "布",
        -9.032185576110416
      ],
      [
        "告",
        -9.032493975540762
      ],
      [
        "ケア",
        -9.032666048321113
      ],
      [
        "万円",
        -9.0328754975472
      ],
      [
        "案",
        -9.033548301139971
      ],
      [
        "そういう",
        -9.033739028432622
      ],
      [
        "なかなか",
        -9.033856308697068
      ],
      [
        "後に",
        -9.034056463340525
      ],
      [
        "を見て",
        -9.034058231583959
      ],
      [
        "の中に",
        -9.03470208414999
      ],
      [
        "st",
        -9.034816486865726
      ],
      [
        "値",
        -9.035695806833425
      ],
      [
        "農",
        -9.036184547965268
      ],
      [
        "ッチ",
        -9.03779925899643
      ],
      [
        "22",
        -9.037835595335274
      ],
      [
        "を持つ",
        -9.037846655154738
      ],
      [
        "老",
        -9.038433854240878
      ],
      [
        "左",
        -9.039625775502689
      ],
      [
        "としては",
        -9.040340996879873
      ],
      [
        "ング",
        -9.040615738815822
      ],
      [
        "見え",
        -9.041493917979201
      ],
      [
        "付き",
        -9.042021602024159
      ],
      [
        "昨年",
        -9.04337578409016
      ],
      [
        "精",
        -9.04410385485702
      ],
      [
        "住宅",
        -9.044168823274454
      ],
      [
        "私が",
        -9.044953103297223
      ],
      [
        "le",
        -9.046195432314033
      ],
      [
        "e ",
        -9.048534786186773
      ],
      [
        "脳",
        -9.048693386394952
      ],
      [
        "ハイ",
        -9.048910754504867
      ],
      [
        "じゃない",
        -9.049532032871474
      ],
      [
        "生まれ",
        -9.049771756220606
      ],
      [
        "力を",
        -9.049868919554955
      ],
      [
        "を取り",
        -9.050367936184276
      ],
      [
        "単",
        -9.050837539548262
      ],
      [
        "づ",
        -9.051308635957083
      ],
      [
        "過去",
        -9.051449970350344
      ],
      [
        "わり",
        -9.053317772732006
      ],
      [
        "しっかり",
        -9.053594491931051
      ],
      [
        "判断",
        -9.054940594542503
      ],
      [
        "アー",
        -9.055023563323076
      ],
      [
        "傷",
        -9.055216635366438
      ],
      [
        "これから",
        -9.055614927537345
      ],
      [
        "聴",
        -9.057450655533177
      ],
      [
        "トップ",
        -9.057483747973206
      ],
      [
        "助",
        -9.057877835449881
      ],
      [
        "早",
        -9.057907959101504
      ],
      [
        "練習",
        -9.059600138989842
      ],
      [
        "ブラ",
        -9.06040910563918
      ],
      [
        "ヘ",
        -9.060561441701273
      ],
      [
        "門",
        -9.061169729519875
      ],
      [
        "筋",
        -9.061261491546697
      ],
      [
        "草",
        -9.062278686925842
      ],
      [
        "遊",
        -9.06270160442064
      ],
      [
        "接",
        -9.063107609697463
      ],
      [
        "準備",
        -9.063627045515497
      ],
      [
        "移",
        -9.06397433181363
      ],
      [
        "部屋",
        -9.064369959712609
      ],
      [
        "なのか",
        -9.066133899954917
      ],
      [
        "に出",
        -9.066213242570692
      ],
      [
        "商",
        -9.066964985286127
      ],
      [
        "丸",
        -9.067251965856684
      ],
      [
        "条件",
        -9.067526074021496
      ],
      [
        "節",
        -9.069377621305723
      ],
      [
        "レベル",
        -9.069694263693165
      ],
      [
        "のみ",
        -9.06981464105326
      ],
      [
        "週",
        -9.07017358224007
      ],
      [
        "追",
        -9.070688529416808
      ],
      [
        "きた",
        -9.070999905125639
      ],
      [
        "ケース",
        -9.071633185261764
      ],
      [
        "席",
        -9.072277377268435
      ],
      [
        "全体",
        -9.073041489269912
      ],
      [
        "決定",
        -9.073198754165572
      ],
      [
        "高校",
        -9.073855718567726
      ],
      [
        "が出",
        -9.074134947650982
      ],
      [
        "するために",
        -9.074447258965954
      ],
      [
        "考えて",
        -9.075138866511715
      ],
      [
        "脱",
        -9.075148459135288
      ],
      [
        "幸",
        -9.07541171949712
      ],
      [
        "好きな",
        -9.077135210565476
      ],
      [
        "なければ",
        -9.077699292717728
      ],
      [
        "船",
        -9.077705085075262
      ],
      [
        "であれば",
        -9.078013544223584
      ],
      [
        "の中",
        -9.078931071311418
      ],
      [
        "横",
        -9.079220864417971
      ],
      [
        "展開",
        -9.07925618884992
      ],
      [
        "旅",
        -9.080534271061792
      ],
      [
        "店舗",
        -9.081429202692867
      ],
      [
        "試験",
        -9.081980223047768
      ],
      [
        "画像",
        -9.08204990110479
      ],
      [
        "近く",
        -9.082312522720652
      ],
      [
        "難しい",
        -9.082482170783921
      ],
      [
        "登場",
        -9.082575410018
      ],
      [
        "試",
        -9.08326549099298
      ],
      [
        "養",
        -9.083317658168456
      ],
      [
        "授業",
        -9.084497008228341
      ],
      [
        "注",
        -9.084573807695485
      ],
      [
        "件",
        -9.084602212834717
      ],
      [
        "登",
        -9.084733913433759
      ],
      [
        "を提供",
        -9.084738339741179
      ],
      [
        "深",
        -9.08522961369049
      ],
      [
        "問",
        -9.085613753444017
      ],
      [
        "習",
        -9.085851129025889
      ],
      [
        "作成",
        -9.085967761058365
      ],
      [
        "無料",
        -9.086599958853089
      ],
      [
        "放送",
        -9.086945904834876
      ],
      [
        "いません",
        -9.087092248835644
      ],
      [
        "相手",
        -9.088679041175904
      ],
      [
        "向上",
        -9.089482302750794
      ],
      [
        "奥",
        -9.091109383078358
      ],
      [
        "というのは",
        -9.091365149457546
      ],
      [
        "お金を",
        -9.091374606442026
      ],
      [
        "を感じ",
        -9.09202380779697
      ],
      [
        "一緒に",
        -9.092499472459293
      ],
      [
        "今日",
        -9.09320332544369
      ],
      [
        "注目",
        -9.094002650808063
      ],
      [
        "派",
        -9.094401420995947
      ],
      [
        "ほ",
        -9.09507865837637
      ],
      [
        "られます",
        -9.095398689173438
      ],
      [
        "起こ",
        -9.095935689967778
      ],
      [
        "速",
        -9.097028357917264
      ],
      [
        "テーマ",
        -9.097150289734573
      ],
      [
        "<",
        -9.097549097251365
      ],
      [
        "ic",
        -9.097552324575915
      ],
      [
        "談",
        -9.097588971067344
      ],
      [
        "を紹介",
        -9.097604876139334
      ],
      [
        "最も",
        -9.09797980425456
      ],
      [
        "京都",
        -9.09839924136885
      ],
      [
        "あなた",
        -9.09945741596854
      ],
      [
        "ヨ",
        -9.099645097402062
      ],
      [
        "契約",
        -9.099819982540021
      ],
      [
        "そうな",
        -9.099974670387681
      ],
      [
        "違い",
        -9.100521557147882
      ],
      [
        "自分が",
        -9.100896174863873
      ],
      [
        "冬",
        -9.101005554884985
      ],
      [
        "動き",
        -9.101036538165461
      ],
      [
        "になっている",
        -9.101328047236434
      ],
      [
        "取得",
        -9.101712348656001
      ],
      [
        "が多く",
        -9.102358474217732
      ],
      [
        "かもしれない",
        -9.10311696493865
      ],
      [
        "例えば",
        -9.103303827702437
      ],
      [
        "備",
        -9.103497380936
      ],
      [
        "能力",
        -9.103556009966077
      ],
      [
        "●",
        -9.103735025623722
      ],
      [
        "堂",
        -9.103993604916626
      ],
      [
        "食事",
        -9.10420190268964
      ],
      [
        "プロジェクト",
        -9.104400102947015
      ],
      [
        "スタイル",
        -9.10484129116506
      ],
      [
        "設置",
        -9.105098292480085
      ],
      [
        "表示",
        -9.105102190359737
      ],
      [
        "久",
        -9.107621375950814
      ],
      [
        "感染",
        -9.107694618497186
      ],
      [
        "弾",
        -9.110368364750277
      ],
      [
        "づくり",
        -9.110628679822861
      ],
      [
        "いっぱい",
        -9.110891584065008
      ],
      [
        "ライン",
        -9.111140155668762
      ],
      [
        "業界",
        -9.111310790638827
      ],
      [
        "くて",
        -9.111586638969808
      ],
      [
        "2018",
        -9.111654081651832
      ],
      [
        "よね",
        -9.11290139873213
      ],
      [
        "バイト",
        -9.113291789919659
      ],
      [
        "雰囲気",
        -9.113309981598224
      ],
      [
        "1.",
        -9.114809776975946
      ],
      [
        "帯",
        -9.11507180684112
      ],
      [
        "分野",
        -9.115244674939587
      ],
      [
        "なし",
        -9.116836986662696
      ],
      [
        "生徒",
        -9.118736498535139
      ],
      [
        "以下",
        -9.118746341877886
      ],
      [
        "ほう",
        -9.118799129383959
      ],
      [
        "スク",
        -9.120964793846072
      ],
      [
        "休",
        -9.121328653749169
      ],
      [
        "いただき",
        -9.121562829940974
      ],
      [
        "→",
        -9.122676327534716
      ],
      [
        "実は",
        -9.122686461148271
      ],
      [
        "投資",
        -9.123543316766758
      ],
      [
        "ブル",
        -9.123584673296861
      ],
      [
        "28",
        -9.124247394638516
      ],
      [
        "新たな",
        -9.125774687711854
      ],
      [
        "発売",
        -9.127495299918824
      ],
      [
        "ホテル",
        -9.12787978959975
      ],
      [
        "空間",
        -9.128006167530234
      ],
      [
        "すべて",
        -9.128131117751918
      ],
      [
        "さまざまな",
        -9.128151836191337
      ],
      [
        "消",
        -9.128614672864021
      ],
      [
        "なん",
        -9.130448694263645
      ],
      [
        "常",
        -9.130688542235635
      ],
      [
        "香",
        -9.131716535057524
      ],
      [
        "階",
        -9.133719085870368
      ],
      [
        "林",
        -9.134050476053657
      ],
      [
        "トン",
        -9.134232045198978
      ],
      [
        "目の",
        -9.134386411725018
      ],
      [
        "字",
        -9.13472059907605
      ],
      [
        "風俗",
        -9.135063053191557
      ],
      [
        "散",
        -9.136268366509073
      ],
      [
        "ワン",
        -9.13651200570707
      ],
      [
        "レス",
        -9.136569247117366
      ],
      [
        "株",
        -9.136683030403278
      ],
      [
        "られて",
        -9.137300734278789
      ],
      [
        "日の",
        -9.137712382908928
      ],
      [
        "今後",
        -9.13778466535764
      ],
      [
        "80",
        -9.138212814996118
      ],
      [
        "と言う",
        -9.138364675095097
      ],
      [
        "解説",
        -9.138457974632024
      ],
      [
        "工事",
        -9.139819849643974
      ],
      [
        "それぞれ",
        -9.140474116245523
      ],
      [
        "置",
        -9.140594707504103
      ],
      [
        "補",
        -9.140701878858724
      ],
      [
        "社員",
        -9.141113369847595
      ],
      [
        "になりました",
        -9.141405250748434
      ],
      [
        "アプリ",
        -9.14205800872236
      ],
      [
        "つき",
        -9.142571669796416
      ],
      [
        "そのため",
        -9.143496406232586
      ],
      [
        "やすく",
        -9.145536747973736
      ],
      [
        "ra",
        -9.145843721401494
      ],
      [
        "基本",
        -9.14638056230028
      ],
      [
        "OK",
        -9.146613866075349
      ],
      [
        "特徴",
        -9.147669138883167
      ],
      [
        "名前",
        -9.148559252396852
      ],
      [
        "気が",
        -9.149473100126283
      ],
      [
        "のだ",
        -9.150716027905817
      ],
      [
        "\n「",
        -9.151263546835944
      ],
      [
        "法人",
        -9.151948403261988
      ],
      [
        "シン",
        -9.153463360470251
      ],
      [
        "球",
        -9.153532138849043
      ],
      [
        "られている",
        -9.153687789015581
      ],
      [
        "前の",
        -9.153825716435176
      ],
      [
        "×",
        -9.155427882338962
      ],
      [
        "くなる",
        -9.15550046993442
      ],
      [
        "26",
        -9.157029288131806
      ],
      [
        "早く",
        -9.15705666798452
      ],
      [
        "原因",
        -9.158001016242437
      ],
      [
        "精神",
        -9.158252957349648
      ],
      [
        "働き",
        -9.15846728270779
      ],
      [
        "27",
        -9.158607736647667
      ],
      [
        "もし",
        -9.158921636031648
      ],
      [
        "ベル",
        -9.158988582547748
      ],
      [
        "言う",
        -9.159461012628542
      ],
      [
        "今日は",
        -9.159994916089206
      ],
      [
        "出演",
        -9.160174954186356
      ],
      [
        "報",
        -9.160773659628537
      ],
      [
        "チェック",
        -9.161001248848875
      ],
      [
        "ける",
        -9.162832485581047
      ],
      [
        "などで",
        -9.162900242442099
      ],
      [
        "可能",
        -9.162940920133764
      ],
      [
        "射",
        -9.163197959470855
      ],
      [
        "000",
        -9.163432192737263
      ],
      [
        "安心",
        -9.164773190809694
      ],
      [
        "結婚",
        -9.164963470772218
      ],
      [
        "昔",
        -9.165159843771775
      ],
      [
        "バン",
        -9.165441605194264
      ],
      [
        "河",
        -9.16547409301325
      ],
      [
        "チャー",
        -9.165538124650052
      ],
      [
        "冷",
        -9.16576588759384
      ],
      [
        "予",
        -9.166355854543452
      ],
      [
        "適",
        -9.166643071849487
      ],
      [
        "と思った",
        -9.166651822371817
      ],
      [
        "多い",
        -9.166815464414684
      ],
      [
        "してください",
        -9.168155550219671
      ],
      [
        "吉",
        -9.168767351477683
      ],
      [
        "鉄",
        -9.169249677102497
      ],
      [
        "ほか",
        -9.169445018591658
      ],
      [
        "油",
        -9.16952650545683
      ],
      [
        "s ",
        -9.169863602430988
      ],
      [
        "果",
        -9.17040656249289
      ],
      [
        "今まで",
        -9.171347194832922
      ],
      [
        "できた",
        -9.171510562936625
      ],
      [
        "旅行",
        -9.172273920049935
      ],
      [
        "トリ",
        -9.172609778571616
      ],
      [
        "岩",
        -9.174075617764313
      ],
      [
        "人と",
        -9.174135541403484
      ],
      [
        "当社",
        -9.17494719603212
      ],
      [
        "ワーク",
        -9.175527514204289
      ],
      [
        "清",
        -9.17572030517313
      ],
      [
        "まして",
        -9.176194544293747
      ],
      [
        "似",
        -9.177091792289808
      ],
      [
        "ずに",
        -9.177799893697712
      ],
      [
        "責任",
        -9.177862758392719
      ],
      [
        "意見",
        -9.17871356531343
      ],
      [
        "害",
        -9.179280730911668
      ],
      [
        "描",
        -9.179468611857429
      ],
      [
        "at",
        -9.179594835377296
      ],
      [
        "記念",
        -9.17987606054541
      ],
      [
        "家庭",
        -9.180589656381175
      ],
      [
        "タン",
        -9.180774857844899
      ],
      [
        "情報を",
        -9.181123814151784
      ],
      [
        "ホーム",
        -9.18137688990815
      ],
      [
        "見て",
        -9.182084631851279
      ],
      [
        "種類",
        -9.182111897327069
      ],
      [
        "やはり",
        -9.182282484481242
      ],
      [
        "to",
        -9.183030081383038
      ],
      [
        "留",
        -9.183102474517856
      ],
      [
        "ょ",
        -9.183438429218233
      ],
      [
        "ボール",
        -9.183868982518833
      ],
      [
        "打ち",
        -9.184070644744136
      ],
      [
        "コロナ",
        -9.184485535850614
      ],
      [
        "応",
        -9.18473748623989
      ],
      [
        "質問",
        -9.184929527396108
      ],
      [
        "することが",
        -9.185217921374292
      ],
      [
        "リスト",
        -9.185875405855146
      ],
      [
        "カラー",
        -9.186085897248406
      ],
      [
        "楽しみ",
        -9.186149916391047
      ],
      [
        "政府",
        -9.18664666285099
      ],
      [
        "限り",
        -9.188140371940252
      ],
      [
        "科学",
        -9.18836918392743
      ],
      [
        "暮らし",
        -9.189567350989252
      ],
      [
        "自宅",
        -9.189659642142692
      ],
      [
        "研修",
        -9.189835092389831
      ],
      [
        "z",
        -9.191649042872395
      ],
      [
        "ちゃ",
        -9.192110805642146
      ],
      [
        "希望",
        -9.192852903458153
      ],
      [
        "設計",
        -9.193417157769208
      ],
      [
        "みんな",
        -9.193592552721963
      ],
      [
        "オー",
        -9.194275606679053
      ],
      [
        "大人",
        -9.194495505481996
      ],
      [
        "採用",
        -9.195165436080599
      ],
      [
        "モン",
        -9.195215025289082
      ],
      [
        "義",
        -9.19698071881493
      ],
      [
        "鳥",
        -9.19704347975918
      ],
      [
        "給",
        -9.197681710095832
      ],
      [
        "ドラマ",
        -9.197754310272883
      ],
      [
        "al",
        -9.198237446711667
      ],
      [
        "けれど",
        -9.19824649321036
      ],
      [
        "機関",
        -9.198266407481544
      ],
      [
        "ではありません",
        -9.198369562684809
      ],
      [
        "のこと",
        -9.19847553247094
      ],
      [
        "ダイ",
        -9.198566442567015
      ],
      [
        "湯",
        -9.198829158283788
      ],
      [
        "議",
        -9.199397711532804
      ],
      [
        "きて",
        -9.199465173519483
      ],
      [
        "はず",
        -9.199682023933773
      ],
      [
        "やり",
        -9.199773870814509
      ],
      [
        "クラブ",
        -9.201274571370016
      ],
      [
        "をはじめ",
        -9.201375844417509
      ],
      [
        "起き",
        -9.20173327059997
      ],
      [
        "障害",
        -9.20183724907892
      ],
      [
        "協力",
        -9.202512045128515
      ],
      [
        "ており",
        -9.202735521334908
      ],
      [
        "または",
        -9.202994788312742
      ],
      [
        "影響",
        -9.205420840496272
      ],
      [
        "魅力",
        -9.205576464950049
      ],
      [
        "ものを",
        -9.205759807567565
      ],
      [
        "と同じ",
        -9.205981682117962
      ],
      [
        "しさ",
        -9.206737039058485
      ],
      [
        "層",
        -9.20788922420058
      ],
      [
        "2.",
        -9.208116890784588
      ],
      [
        "団体",
        -9.21013493087155
      ],
      [
        "受",
        -9.21164238286437
      ],
      [
        "市場",
        -9.211739455729633
      ],
      [
        "資格",
        -9.212181788444404
      ],
      [
        "甘",
        -9.212530243738222
      ],
      [
        "話を",
        -9.212932942809298
      ],
      [
        "至",
        -9.213725183927211
      ],
      [
        "板",
        -9.214044277636273
      ],
      [
        "\n【",
        -9.21463628836841
      ],
      [
        "あって",
        -9.215345149795823
      ],
      [
        "片",
        -9.216202016500224
      ],
      [
        "プラ",
        -9.218862487185898
      ],
      [
        "でき",
        -9.21921233600097
      ],
      [
        "為",
        -9.219421389641475
      ],
      [
        "いただく",
        -9.22000382699113
      ],
      [
        "産業",
        -9.220276069222786
      ],
      [
        "幅",
        -9.222211409644963
      ],
      [
        "大切",
        -9.22242452589825
      ],
      [
        "強く",
        -9.222874094279842
      ],
      [
        "べき",
        -9.223116387425303
      ],
      [
        "まずは",
        -9.22330226202064
      ],
      [
        "犬",
        -9.223336459934925
      ],
      [
        "書いて",
        -9.22390007269689
      ],
      [
        "重要",
        -9.22399703900089
      ],
      [
        "地方",
        -9.22464061550262
      ],
      [
        "示",
        -9.224849450521187
      ],
      [
        "総合",
        -9.225258865876219
      ],
      [
        "と言って",
        -9.225414400915804
      ],
      [
        "フォー",
        -9.225583286199651
      ],
      [
        "記録",
        -9.225782152569233
      ],
      [
        "以降",
        -9.226103281741064
      ],
      [
        "配信",
        -9.227032452724437
      ],
      [
        "祭",
        -9.227049151117482
      ],
      [
        "妻",
        -9.227466111654829
      ],
      [
        "ロン",
        -9.227567689491151
      ],
      [
        "フル",
        -9.229050292733529
      ],
      [
        "術",
        -9.22906728494537
      ],
      [
        "ライブ",
        -9.230042889799648
      ],
      [
        "ニア",
        -9.230233318583227
      ],
      [
        "かれ",
        -9.23149569202836
      ],
      [
        "みると",
        -9.231701786982228
      ],
      [
        "会員",
        -9.23219826292774
      ],
      [
        "人たち",
        -9.2324084258928
      ],
      [
        "彼",
        -9.232554587433924
      ],
      [
        "にお",
        -9.23270740683034
      ],
      [
        "ハー",
        -9.23304002842086
      ],
      [
        "程",
        -9.23309492269375
      ],
      [
        "の仕事",
        -9.233394480845668
      ],
      [
        "交換",
        -9.234035831836943
      ],
      [
        "豆",
        -9.234850089320327
      ],
      [
        "歴史",
        -9.234942304723242
      ],
      [
        "☆",
        -9.235018542290739
      ],
      [
        "願",
        -9.235315873889354
      ],
      [
        "以外",
        -9.236100641220705
      ],
      [
        "壁",
        -9.236694049355394
      ],
      [
        "容",
        -9.23694942312242
      ],
      [
        "29",
        -9.237088989128605
      ],
      [
        "坂",
        -9.238393574498096
      ],
      [
        "つまり",
        -9.238464052701339
      ],
      [
        "会場",
        -9.238583981278254
      ],
      [
        "以上の",
        -9.238792818365315
      ],
      [
        "女子",
        -9.239055904164724
      ],
      [
        "カメラ",
        -9.23915583049871
      ],
      [
        "込んで",
        -9.240832878098587
      ],
      [
        "合う",
        -9.24094175139665
      ],
      [
        "バック",
        -9.24120657171099
      ],
      [
        "魚",
        -9.24131371707803
      ],
      [
        "プログラム",
        -9.241398748877584
      ],
      [
        "、『",
        -9.24250815316907
      ],
      [
        "いか",
        -9.242825594299187
      ],
      [
        "事務所",
        -9.243720873994596
      ],
      [
        "独",
        -9.243809920410829
      ],
      [
        "激",
        -9.244440257829831
      ],
      [
        "樹",
        -9.245050372451763
      ],
      [
        "はない",
        -9.246258477694765
      ],
      [
        "決",
        -9.246758450144219
      ],
      [
        "全く",
        -9.246811388006734
      ],
      [
        "開始",
        -9.247307745995633
      ],
      [
        "事件",
        -9.24781399582291
      ],
      [
        "盤",
        -9.248380552696467
      ],
      [
        "取り組み",
        -9.248513567610859
      ],
      [
        "タイム",
        -9.248797701280688
      ],
      [
        "厚",
        -9.248947763611056
      ],
      [
        "英",
        -9.249014272646617
      ],
      [
        "州",
        -9.249071866363735
      ],
      [
        "観光",
        -9.249177163175357
      ],
      [
        "悪い",
        -9.24920495389146
      ],
      [
        "ガン",
        -9.249866668546717
      ],
      [
        "認",
        -9.250510569913866
      ],
      [
        "蔵",
        -9.25059610285705
      ],
      [
        "位置",
        -9.251188909673925
      ],
      [
        "タイプ",
        -9.25123511631401
      ],
      [
        "沢山",
        -9.252530115247005
      ],
      [
        "郎",
        -9.252583981378793
      ],
      [
        "co",
        -9.252928935672593
      ],
      [
        "規模",
        -9.253252859521957
      ],
      [
        "副",
        -9.253337653695711
      ],
      [
        "クラス",
        -9.254151696509133
      ],
      [
        "めた",
        -9.254872336622437
      ],
      [
        "流れ",
        -9.25548060519896
      ],
      [
        "もあり",
        -9.255686580124085
      ],
      [
        "ここで",
        -9.255709124650105
      ],
      [
        "もない",
        -9.256153093637371
      ],
      [
        "が増え",
        -9.257420450447128
      ],
      [
        "メディア",
        -9.257446625573504
      ],
      [
        "そのまま",
        -9.257544637274703
      ],
      [
        "韓国",
        -9.257820362268
      ],
      [
        "最大",
        -9.257915216410751
      ],
      [
        "自己",
        -9.25857216012157
      ],
      [
        "いつ",
        -9.259407134471454
      ],
      [
        "オン",
        -9.259625329029038
      ],
      [
        "投",
        -9.259983017778362
      ],
      [
        "界",
        -9.260605331651377
      ],
      [
        "最新",
        -9.260669776940233
      ],
      [
        "メーカー",
        -9.261436374604438
      ],
      [
        "へと",
        -9.26183821636767
      ],
      [
        "私たち",
        -9.261887084697523
      ],
      [
        "ドル",
        -9.26219305592217
      ],
      [
        "覚",
        -9.262317272898716
      ],
      [
        "東京都",
        -9.263498529206931
      ],
      [
        "余",
        -9.263870143129713
      ],
      [
        "のため",
        -9.264463063203095
      ],
      [
        "ro",
        -9.264713030002744
      ],
      [
        "彼ら",
        -9.264917921715455
      ],
      [
        " S",
        -9.265039706975497
      ],
      [
        "言い",
        -9.265167073172291
      ],
      [
        "ても",
        -9.265270440070887
      ],
      [
        "忘れ",
        -9.265842247826061
      ],
      [
        "ティング",
        -9.266288581976386
      ],
      [
        "展",
        -9.266936801247267
      ],
      [
        "巻",
        -9.26734797795011
      ],
      [
        "尾",
        -9.268856920771924
      ],
      [
        "復",
        -9.26901301485594
      ],
      [
        "雪",
        -9.269074776203887
      ],
      [
        "シーン",
        -9.269433477362671
      ],
      [
        "髪",
        -9.269723799364735
      ],
      [
        "キー",
        -9.270634908924169
      ],
      [
        "が高い",
        -9.272611322388737
      ],
      [
        "困",
        -9.274093879869156
      ],
      [
        "だと思います",
        -9.274622676381883
      ],
      [
        "出来る",
        -9.27475618489744
      ],
      [
        "掲載",
        -9.276461473682525
      ],
      [
        "帰",
        -9.276648729438183
      ],
      [
        "番組",
        -9.2769618210768
      ],
      [
        "届",
        -9.277157267482771
      ],
      [
        "プレー",
        -9.277875283626154
      ],
      [
        "et",
        -9.278515212138782
      ],
      [
        "方も",
        -9.278558801700232
      ],
      [
        "を中心に",
        -9.279485476369038
      ],
      [
        "してきた",
        -9.279546826913538
      ],
      [
        "終了",
        -9.280546732583723
      ],
      [
        "抜",
        -9.280876120448854
      ],
      [
        "映像",
        -9.280950577058483
      ],
      [
        "浮",
        -9.281924317936447
      ],
      [
        "時の",
        -9.282194831861757
      ],
      [
        "者が",
        -9.282240474792909
      ],
      [
        "未来",
        -9.282647986574364
      ],
      [
        "就",
        -9.283073641911805
      ],
      [
        "里",
        -9.283205565364131
      ],
      [
        "跡",
        -9.283338162049388
      ],
      [
        "限定",
        -9.283629887251118
      ],
      [
        "★",
        -9.28378027802354
      ],
      [
        "源",
        -9.283837813680977
      ],
      [
        "皆さん",
        -9.284231948851074
      ],
      [
        "納",
        -9.284501954795896
      ],
      [
        "柄",
        -9.284576579686842
      ],
      [
        "製造",
        -9.284629277973059
      ],
      [
        "エネルギー",
        -9.285462103644042
      ],
      [
        "ティー",
        -9.285671062276046
      ],
      [
        "共",
        -9.286818417517855
      ],
      [
        "となって",
        -9.28690443001853
      ],
      [
        "うち",
        -9.287311749304546
      ],
      [
        "痛み",
        -9.287535282867257
      ],
      [
        "みた",
        -9.287629876351996
      ],
      [
        "推進",
        -9.287650424652192
      ],
      [
        "ご利用",
        -9.287911985363044
      ],
      [
        "募集",
        -9.288040641821848
      ],
      [
        "当時",
        -9.28845333359361
      ],
      [
        "交流",
        -9.289042705721586
      ],
      [
        "トレ",
        -9.28932025919507
      ],
      [
        "都市",
        -9.289678985895566
      ],
      [
        "オープン",
        -9.289990884024043
      ],
      [
        "2017",
        -9.290669354217853
      ],
      [
        "アニメ",
        -9.290973615327772
      ],
      [
        "塩",
        -9.291994879519034
      ],
      [
        "算",
        -9.29225012610636
      ],
      [
        "抗",
        -9.29225136606364
      ],
      [
        "地元",
        -9.29231524930378
      ],
      [
        "便",
        -9.29368918874533
      ],
      [
        "重要な",
        -9.294225518296066
      ],
      [
        "を見る",
        -9.29437556802257
      ],
      [
        "自分で",
        -9.294584559087616
      ],
      [
        "cm",
        -9.294949335248335
      ],
      [
        "終",
        -9.296054693779652
      ],
      [
        "@",
        -9.29655303733764
      ],
      [
        "全て",
        -9.296849010091869
      ],
      [
        "成功",
        -9.297073184826088
      ],
      [
        "盛り",
        -9.298137098164398
      ],
      [
        "感謝",
        -9.298242586536134
      ],
      [
        "離",
        -9.300022738308055
      ],
      [
        "会議",
        -9.300693965765308
      ],
      [
        "がん",
        -9.301676249030706
      ],
      [
        "ございます",
        -9.301844267874191
      ],
      [
        "管",
        -9.302010692892502
      ],
      [
        "展示",
        -9.302232298868818
      ],
      [
        "そこ",
        -9.302318579018628
      ],
      [
        "ができる",
        -9.302457280481027
      ],
      [
        "am",
        -9.302618854568863
      ],
      [
        "娘",
        -9.302978581798946
      ],
      [
        "労働",
        -9.303307073835164
      ],
      [
        "勢",
        -9.303334511501149
      ],
      [
        "向き",
        -9.303537658078652
      ],
      [
        "予約",
        -9.303880697106607
      ],
      [
        "ますが",
        -9.304146883385672
      ],
      [
        "方に",
        -9.304200158423978
      ],
      [
        "すぐ",
        -9.304837944520955
      ],
      [
        "られない",
        -9.305175839354442
      ],
      [
        "コメント",
        -9.305281820260356
      ],
      [
        "たくさん",
        -9.305765046910016
      ],
      [
        "ード",
        -9.306072859742827
      ],
      [
        "デン",
        -9.306752075145706
      ],
      [
        "https",
        -9.306813154784846
      ],
      [
        "京",
        -9.306813970521297
      ],
      [
        "ザー",
        -9.306890286713772
      ],
      [
        "あった",
        -9.307060960309745
      ],
      [
        "レイ",
        -9.308528227211353
      ],
      [
        "実現",
        -9.30907471392038
      ],
      [
        "医師",
        -9.309138227803329
      ],
      [
        "処理",
        -9.309776054904523
      ],
      [
        "特別",
        -9.310261083237506
      ],
      [
        "多数",
        -9.31120987880001
      ],
      [
        "小さな",
        -9.311893720839791
      ],
      [
        "はもちろん",
        -9.312100723214394
      ],
      [
        "日本人",
        -9.312138959965312
      ],
      [
        "玉",
        -9.312351953325676
      ],
      [
        "してくれる",
        -9.312600187202298
      ],
      [
        "このような",
        -9.312753086521328
      ],
      [
        "中心",
        -9.312798437003021
      ],
      [
        "聞いて",
        -9.312988733898159
      ],
      [
        "聖",
        -9.313674113271688
      ],
      [
        "答え",
        -9.314806654794905
      ],
      [
        "掛け",
        -9.315548752820876
      ],
      [
        "70",
        -9.315779256710314
      ],
      [
        "バランス",
        -9.316539910146329
      ],
      [
        "でしたが",
        -9.316576578853109
      ],
      [
        "th",
        -9.317869391839148
      ],
      [
        "シュ",
        -9.317986987295509
      ],
      [
        "週間",
        -9.31803785156144
      ],
      [
        "移動",
        -9.318362017246747
      ],
      [
        "サイ",
        -9.318780695005243
      ],
      [
        "欲しい",
        -9.318835834748594
      ],
      [
        "公園",
        -9.319407385607144
      ],
      [
        "があって",
        -9.319915339638488
      ],
      [
        "まれ",
        -9.321092920883872
      ],
      [
        "楽しい",
        -9.321577764605276
      ],
      [
        "ヌ",
        -9.322276907305842
      ],
      [
        "編集",
        -9.323038922535423
      ],
      [
        "洗",
        -9.323847879251183
      ],
      [
        "状",
        -9.324034654921926
      ],
      [
        "詳細",
        -9.324492143436615
      ],
      [
        "なか",
        -9.324492514837264
      ],
      [
        "継",
        -9.324845719047316
      ],
      [
        "上の",
        -9.325358709651448
      ],
      [
        "永",
        -9.325637403953904
      ],
      [
        "百",
        -9.325821867511312
      ],
      [
        "一方",
        -9.326230779657044
      ],
      [
        "更新",
        -9.3262314735149
      ],
      [
        "皮",
        -9.3268364396601
      ],
      [
        "保護",
        -9.32763198840386
      ],
      [
        "フレ",
        -9.327688916321199
      ],
      [
        "興味",
        -9.328108681768745
      ],
      [
        "後の",
        -9.328813618642544
      ],
      [
        "拡大",
        -9.328919027212999
      ],
      [
        "となりました",
        -9.329502111429976
      ],
      [
        "佐",
        -9.329506776775306
      ],
      [
        "学び",
        -9.329528611623822
      ],
      [
        "証",
        -9.329905920836481
      ],
      [
        "史",
        -9.330039105479923
      ],
      [
        "説",
        -9.33011676404374
      ],
      [
        "委員会",
        -9.330215687090268
      ],
      [
        "あげ",
        -9.330518957491485
      ],
      [
        "現代",
        -9.33075498367596
      ],
      [
        "IT",
        -9.33114039453585
      ],
      [
        "価値",
        -9.331358626698623
      ],
      [
        "ですか",
        -9.331839573649141
      ],
      [
        "れない",
        -9.332308682552254
      ],
      [
        "カン",
        -9.332312009837477
      ],
      [
        "第一",
        -9.332699341925766
      ],
      [
        "技",
        -9.333087804968214
      ],
      [
        "卒業",
        -9.333646790439536
      ],
      [
        "ランド",
        -9.33448764438294
      ],
      [
        "ソン",
        -9.334492505894291
      ],
      [
        "染",
        -9.3345661326923
      ],
      [
        "♪",
        -9.33475002173636
      ],
      [
        "話題",
        -9.335026801105826
      ],
      [
        "ことです",
        -9.335108175652497
      ],
      [
        "念",
        -9.335896441227167
      ],
      [
        "さま",
        -9.336158559653722
      ],
      [
        "しよう",
        -9.336767518089028
      ],
      [
        "】\n",
        -9.33718368919613
      ],
      [
        "わけ",
        -9.33742872682654
      ],
      [
        "与",
        -9.33830055133216
      ],
      [
        "建築",
        -9.338572658133009
      ],
      [
        "ジャー",
        -9.33888274251945
      ],
      [
        "事故",
        -9.339121051276987
      ],
      [
        "るように",
        -9.339810237575314
      ],
      [
        "行き",
        -9.341328218081848
      ],
      [
        "ポー",
        -9.341855820602463
      ],
      [
        "振",
        -9.342193606724395
      ],
      [
        "ハン",
        -9.342280754844712
      ],
      [
        "がありました",
        -9.343906018357444
      ],
      [
        "なくても",
        -9.344383763279668
      ],
      [
        "ri",
        -9.344707136400972
      ],
      [
        "かつ",
        -9.34556695170616
      ],
      [
        "猫",
        -9.345758713426852
      ],
      [
        "続ける",
        -9.346324221096927
      ],
      [
        "普段",
        -9.34671094830656
      ],
      [
        "考える",
        -9.347117772839864
      ],
      [
        "リスク",
        -9.3472204283229
      ],
      [
        "まま",
        -9.347289701716358
      ],
      [
        "いま",
        -9.34730133716871
      ],
      [
        "昭和",
        -9.347875358594225
      ],
      [
        "去",
        -9.348523259083768
      ],
      [
        "分析",
        -9.34855090313755
      ],
      [
        "ですよね",
        -9.34879996595974
      ],
      [
        "縮",
        -9.349104774326545
      ],
      [
        "立つ",
        -9.349413126626118
      ],
      [
        "の方が",
        -9.349423207178814
      ],
      [
        "クロ",
        -9.350261875724279
      ],
      [
        "導",
        -9.350286635039513
      ],
      [
        "聞き",
        -9.350873170499428
      ],
      [
        "焼",
        -9.351360651944493
      ],
      [
        "jp",
        -9.35179098723892
      ],
      [
        "ヶ月",
        -9.351808475422667
      ],
      [
        "比",
        -9.351874748189937
      ],
      [
        "静",
        -9.352220678930147
      ],
      [
        "友",
        -9.352486494923056
      ],
      [
        "破",
        -9.353050506090142
      ],
      [
        "建",
        -9.353212310003306
      ],
      [
        "ユ",
        -9.3534401991288
      ],
      [
        "あたり",
        -9.354578824604886
      ],
      [
        "バイ",
        -9.355107995243317
      ],
      [
        "こんにちは",
        -9.35587822374009
      ],
      [
        "どの",
        -9.356912621471405
      ],
      [
        "直接",
        -9.357057364589568
      ],
      [
        "プレ",
        -9.357465279622966
      ],
      [
        "予防",
        -9.357521047367769
      ],
      [
        "今年",
        -9.358017882458661
      ],
      [
        "時間が",
        -9.358044952852234
      ],
      [
        "プラン",
        -9.359004852493916
      ],
      [
        "| ",
        -9.359047447241746
      ],
      [
        "文字",
        -9.359457879063449
      ],
      [
        "ディング",
        -9.360695302607105
      ],
      [
        "皆様",
        -9.360945030573111
      ],
      [
        "教室",
        -9.361548998069994
      ],
      [
        "若",
        -9.3615492181486
      ],
      [
        "90",
        -9.361908059705
      ],
      [
        "るのは",
        -9.362519464682128
      ],
      [
        "ひとつ",
        -9.362945206741477
      ],
      [
        "豊",
        -9.363106172384665
      ],
      [
        "積",
        -9.363365863903098
      ],
      [
        "していました",
        -9.363698007266136
      ],
      [
        "担当",
        -9.363790179689964
      ],
      [
        "メリット",
        -9.364669405715606
      ],
      [
        "ていました",
        -9.365373587210797
      ],
      [
        "ということで",
        -9.365656322147682
      ],
      [
        "賀",
        -9.366101133687305
      ],
      [
        "止め",
        -9.366694223487185
      ],
      [
        "簡単に",
        -9.366914903410738
      ],
      [
        "なります",
        -9.368241340369277
      ],
      [
        "必ず",
        -9.368390492193909
      ],
      [
        "見る",
        -9.369256829526377
      ],
      [
        "メニュー",
        -9.369367304922084
      ],
      [
        "辺",
        -9.370111361862634
      ],
      [
        "扱",
        -9.370114570989267
      ],
      [
        "弁",
        -9.37062482138178
      ],
      [
        "コミュニケーション",
        -9.371879690436797
      ],
      [
        "続",
        -9.372502042533325
      ],
      [
        "悩",
        -9.372567594902998
      ],
      [
        "美容",
        -9.372574730124557
      ],
      [
        "継続",
        -9.372887997162314
      ],
      [
        "党",
        -9.373426128126267
      ],
      [
        "ニュース",
        -9.3734571363801
      ],
      [
        "』(",
        -9.373458691822606
      ],
      [
        "などが",
        -9.373522340084433
      ],
      [
        "次の",
        -9.374255189844103
      ],
      [
        "倍",
        -9.374892822331033
      ],
      [
        "必要な",
        -9.375887150855267
      ],
      [
        "君",
        -9.376429663192628
      ],
      [
        "ないと",
        -9.376818378748641
      ],
      [
        "を通して",
        -9.37693103915693
      ],
      [
        "旧",
        -9.378031916399722
      ],
      [
        "称",
        -9.378348011611783
      ],
      [
        "池",
        -9.378696584512436
      ],
      [
        "覚え",
        -9.378893323958367
      ],
      [
        "提案",
        -9.379138783733707
      ],
      [
        "決め",
        -9.37941887543319
      ],
      [
        "患者",
        -9.380794184582804
      ],
      [
        "を行って",
        -9.384484081794565
      ],
      [
        "クラ",
        -9.384709485349871
      ],
      [
        "だけど",
        -9.384926814616012
      ],
      [
        "年齢",
        -9.38500186739128
      ],
      [
        "常に",
        -9.38502645138771
      ],
      [
        "内の",
        -9.385204055977042
      ],
      [
        "思う",
        -9.385212856588646
      ],
      [
        "子どもたち",
        -9.38536120720807
      ],
      [
        "政治",
        -9.385390057385278
      ],
      [
        "物語",
        -9.386263289684118
      ],
      [
        "ベース",
        -9.386660591811802
      ],
      [
        "ていない",
        -9.38696708497915
      ],
      [
        "テスト",
        -9.38699861070107
      ],
      [
        "仮",
        -9.387797857437766
      ],
      [
        "輪",
        -9.388312673038259
      ],
      [
        "フォ",
        -9.388766551771342
      ],
      [
        "礼",
        -9.3887797176519
      ],
      [
        "働く",
        -9.389324092400798
      ],
      [
        "www",
        -9.38956613200229
      ],
      [
        "ぶり",
        -9.389579368833193
      ],
      [
        "薄",
        -9.389664216861743
      ],
      [
        "ですから",
        -9.390045173875276
      ],
      [
        "検討",
        -9.39005788369731
      ],
      [
        "j",
        -9.390459605620322
      ],
      [
        "ろう",
        -9.39229469243564
      ],
      [
        "ずっと",
        -9.392339796021577
      ],
      [
        "ぞ",
        -9.39241964828766
      ],
      [
        "参考",
        -9.392623398262266
      ],
      [
        "負担",
        -9.392974077472676
      ],
      [
        "協会",
        -9.393007876417268
      ],
      [
        "連携",
        -9.393404422166507
      ],
      [
        "込む",
        -9.393442211845029
      ],
      [
        "能",
        -9.393584446239505
      ],
      [
        "いただいた",
        -9.393664783739194
      ],
      [
        "中央",
        -9.394451988879128
      ],
      [
        "アイテム",
        -9.394790591392745
      ],
      [
        "発生",
        -9.395221375710282
      ],
      [
        "基準",
        -9.395269549732626
      ],
      [
        "it",
        -9.39550764536976
      ],
      [
        "将来",
        -9.395993051749494
      ],
      [
        "つい",
        -9.39641652583014
      ],
      [
        "自ら",
        -9.397283767461602
      ],
      [
        "陸",
        -9.398106210124103
      ],
      [
        "野菜",
        -9.398364433787822
      ],
      [
        "そこに",
        -9.400050869114638
      ],
      [
        "公式",
        -9.401125217780775
      ],
      [
        "であること",
        -9.401351836201712
      ],
      [
        "息",
        -9.402032860163917
      ],
      [
        "動物",
        -9.402041641202358
      ],
      [
        "に参加",
        -9.40233484364693
      ],
      [
        "二人",
        -9.402410370425303
      ],
      [
        "暗",
        -9.402528357844337
      ],
      [
        "心配",
        -9.403142277969586
      ],
      [
        "迫",
        -9.403375266677726
      ],
      [
        "距離",
        -9.404572809209535
      ],
      [
        "若い",
        -9.404680883033128
      ],
      [
        "お客様の",
        -9.405433328556965
      ],
      [
        "構造",
        -9.406066246606025
      ],
      [
        "整",
        -9.406514843657172
      ],
      [
        "飲",
        -9.406562199976182
      ],
      [
        "感覚",
        -9.406585454752575
      ],
      [
        "年生",
        -9.406930606686231
      ],
      [
        "安定",
        -9.406949454697477
      ],
      [
        "からは",
        -9.407151884124394
      ],
      [
        "オリジナル",
        -9.407770768670959
      ],
      [
        "比較",
        -9.408027711673006
      ],
      [
        "米国",
        -9.408132029706351
      ],
      [
        "いただいて",
        -9.408137970678215
      ],
      [
        "価",
        -9.408252729141397
      ],
      [
        "介",
        -9.408608430719925
      ],
      [
        "みました",
        -9.408768855301009
      ],
      [
        "飲み",
        -9.40879093446087
      ],
      [
        "宿",
        -9.40906517893448
      ],
      [
        "ュ",
        -9.409339301058719
      ],
      [
        "調整",
        -9.40949120988787
      ],
      [
        "それに",
        -9.409604202124902
      ],
      [
        "のための",
        -9.40985813195188
      ],
      [
        "縁",
        -9.410427411537679
      ],
      [
        "あの",
        -9.410552775186089
      ],
      [
        "500",
        -9.411591382356882
      ],
      [
        "遺",
        -9.413160421383523
      ],
      [
        "どのような",
        -9.414299511179133
      ],
      [
        "病気",
        -9.414312435228457
      ],
      [
        "と思い",
        -9.414609530707041
      ],
      [
        "発見",
        -9.415127991728216
      ],
      [
        "誘",
        -9.41540880454849
      ],
      [
        "用意",
        -9.415472507565887
      ],
      [
        "敷",
        -9.41556014390202
      ],
      [
        "昨日",
        -9.41577285156727
      ],
      [
        "新聞",
        -9.41625349722306
      ],
      [
        "2016",
        -9.416258280286854
      ],
      [
        "フリー",
        -9.416278028736789
      ],
      [
        "分け",
        -9.416303576850957
      ],
      [
        "を与え",
        -9.416490249290442
      ],
      [
        "勤務",
        -9.417092185331729
      ],
      [
        "みて",
        -9.417198518762087
      ],
      [
        "ことができる",
        -9.418336685345382
      ],
      [
        "行く",
        -9.418464666884088
      ],
      [
        "築",
        -9.418922208380339
      ],
      [
        "弱",
        -9.41922657146193
      ],
      [
        "ad",
        -9.419696434297334
      ],
      [
        "長い",
        -9.419848415724944
      ],
      [
        "国民",
        -9.41998173210821
      ],
      [
        "まい",
        -9.420196470023177
      ],
      [
        "司",
        -9.421082973385966
      ],
      [
        "昼",
        -9.421683260043144
      ],
      [
        "実践",
        -9.421836536539608
      ],
      [
        "歴",
        -9.422254433763527
      ],
      [
        "ユーザー",
        -9.42232135991365
      ],
      [
        "内で",
        -9.422617138992488
      ],
      [
        "思って",
        -9.424538278535222
      ],
      [
        "as",
        -9.425008054166685
      ],
      [
        "延",
        -9.425638140626212
      ],
      [
        "ご覧",
        -9.426002919334719
      ],
      [
        "欲",
        -9.426009538364092
      ],
      [
        "想",
        -9.426082630881018
      ],
      [
        "業者",
        -9.426867212726014
      ],
      [
        "景",
        -9.427022518285813
      ],
      [
        "人材",
        -9.427058221430146
      ],
      [
        "メント",
        -9.427107088183414
      ],
      [
        "ニング",
        -9.427231650384156
      ],
      [
        "ヴィ",
        -9.427910643851174
      ],
      [
        "演奏",
        -9.4279471596929
      ],
      [
        "の高い",
        -9.42803882381351
      ],
      [
        "乗り",
        -9.428373400600192
      ],
      [
        "様に",
        -9.428694241011023
      ],
      [
        "少なく",
        -9.42882344213682
      ],
      [
        "はありません",
        -9.429643607875377
      ],
      [
        "芸",
        -9.430219731066613
      ],
      [
        "ないように",
        -9.430346725610358
      ],
      [
        "舞台",
        -9.432620309701443
      ],
      [
        "秀",
        -9.43394058090788
      ],
      [
        "しっかりと",
        -9.433956314764187
      ],
      [
        "江",
        -9.43415793858653
      ],
      [
        "わたし",
        -9.434182151582283
      ],
      [
        "是非",
        -9.43462897111851
      ],
      [
        "来た",
        -9.434645180739013
      ],
      [
        "を実施",
        -9.435572407795359
      ],
      [
        "TO",
        -9.435853938979687
      ],
      [
        "のではないか",
        -9.436889625745627
      ],
      [
        "んでいる",
        -9.437293161586501
      ],
      [
        "ってきた",
        -9.438026247147551
      ],
      [
        "効率",
        -9.438120983418385
      ],
      [
        "エリア",
        -9.438838926146994
      ],
      [
        "液",
        -9.439035146380185
      ],
      [
        "してる",
        -9.439702060627726
      ],
      [
        "防止",
        -9.439783522924728
      ],
      [
        "段",
        -9.440022774736937
      ],
      [
        "ノー",
        -9.44113466312175
      ],
      [
        "行って",
        -9.44133344630187
      ],
      [
        "お話",
        -9.441400285233227
      ],
      [
        "北海道",
        -9.441420056542265
      ],
      [
        "投稿",
        -9.44145264790254
      ],
      [
        "しまう",
        -9.441572973702502
      ],
      [
        "デジタル",
        -9.441782113369845
      ],
      [
        "周",
        -9.441876972474146
      ],
      [
        "兵",
        -9.441885487950854
      ],
      [
        "買い",
        -9.44214292436654
      ],
      [
        "ませんか",
        -9.442284173132233
      ],
      [
        "ol",
        -9.442556781099835
      ],
      [
        "列",
        -9.442811784788281
      ],
      [
        "に入れ",
        -9.443966821453941
      ],
      [
        "を進め",
        -9.444012056805363
      ],
      [
        "メイン",
        -9.444204457205567
      ],
      [
        "演",
        -9.444262987972145
      ],
      [
        "いただきました",
        -9.444290186459341
      ],
      [
        "としての",
        -9.444479249169069
      ],
      [
        "遊び",
        -9.444637998704556
      ],
      [
        "包",
        -9.444784661441295
      ],
      [
        "整備",
        -9.444875367294717
      ],
      [
        "菌",
        -9.444961128406641
      ],
      [
        "しましょう",
        -9.44524183004492
      ],
      [
        "チェ",
        -9.44530250129801
      ],
      [
        "りました",
        -9.445853766103081
      ],
      [
        "したこと",
        -9.446114653425406
      ],
      [
        "見える",
        -9.446277478219933
      ],
      [
        "隊",
        -9.446297894787229
      ],
      [
        "周り",
        -9.44674427303604
      ],
      [
        "指定",
        -9.446963043905031
      ],
      [
        "基",
        -9.447234891025117
      ],
      [
        "粉",
        -9.447495200081548
      ],
      [
        "無理",
        -9.44749904551673
      ],
      [
        "ソフト",
        -9.448402811025247
      ],
      [
        "もなく",
        -9.448996823584613
      ],
      [
        "ストレス",
        -9.449353667443027
      ],
      [
        "年代",
        -9.449540639830944
      ],
      [
        "役割",
        -9.45060706928566
      ],
      [
        "負",
        -9.450798367323467
      ],
      [
        "ための",
        -9.451353810969332
      ],
      [
        "を通じて",
        -9.451559481475833
      ],
      [
        "張",
        -9.451565675380595
      ],
      [
        "課",
        -9.452131562000503
      ],
      [
        "損",
        -9.452143205230966
      ],
      [
        "市民",
        -9.452216732461258
      ],
      [
        "ものの",
        -9.453112128410224
      ],
      [
        "シェ",
        -9.453419670367476
      ],
      [
        "かどうか",
        -9.453716729611106
      ],
      [
        "思い出",
        -9.453947883809228
      ],
      [
        "セル",
        -9.454339625921774
      ],
      [
        "従",
        -9.454687809328037
      ],
      [
        "行う",
        -9.454897133379882
      ],
      [
        "職員",
        -9.455390870754213
      ],
      [
        "福祉",
        -9.456126844894664
      ],
      [
        "するのは",
        -9.456588930267875
      ],
      [
        "のでしょうか",
        -9.456808173932709
      ],
      [
        "すべての",
        -9.457046004943175
      ],
      [
        "かり",
        -9.457222621034578
      ],
      [
        "宝",
        -9.457335892960328
      ],
      [
        "快",
        -9.457336534862648
      ],
      [
        "満足",
        -9.457413374537897
      ],
      [
        "ほぼ",
        -9.457663970921816
      ],
      [
        "可能な",
        -9.4581916521266
      ],
      [
        "してしまう",
        -9.458570588852332
      ],
      [
        "疑",
        -9.459065858433325
      ],
      [
        "ライト",
        -9.45967456653757
      ],
      [
        "ER",
        -9.45984083815132
      ],
      [
        "時は",
        -9.459965893466878
      ],
      [
        "ませ",
        -9.460856213150187
      ],
      [
        "それぞれの",
        -9.461202398519582
      ],
      [
        "までの",
        -9.461204789064839
      ],
      [
        "加工",
        -9.4617192139987
      ],
      [
        "確保",
        -9.461818296723921
      ],
      [
        "いった",
        -9.462440414551956
      ],
      [
        "ワー",
        -9.462466863325467
      ],
      [
        "さて",
        -9.462529274900302
      ],
      [
        "仲間",
        -9.462914587488166
      ],
      [
        "支え",
        -9.463520882546746
      ],
      [
        "○",
        -9.463562333146937
      ],
      [
        "MA",
        -9.464704160294879
      ],
      [
        "児",
        -9.465343338139231
      ],
      [
        "友達",
        -9.4664002563201
      ],
      [
        "触れ",
        -9.466614869151192
      ],
      [
        "頼",
        -9.466684458682206
      ],
      [
        "していきます",
        -9.467199629360513
      ],
      [
        "これが",
        -9.467671163483004
      ],
      [
        "撃",
        -9.467846130356092
      ],
      [
        "読",
        -9.46788000465259
      ],
      [
        "広告",
        -9.467914644191055
      ],
      [
        "上がり",
        -9.467967689353705
      ],
      [
        "us",
        -9.468122115534022
      ],
      [
        "はこちら",
        -9.468856589512738
      ],
      [
        "発展",
        -9.468889132736233
      ],
      [
        "性を",
        -9.468959143140756
      ],
      [
        "折",
        -9.46956983286341
      ],
      [
        "ウィ",
        -9.470676083203509
      ],
      [
        "あれ",
        -9.470729606161818
      ],
      [
        "お願い",
        -9.47139820569041
      ],
      [
        "一部",
        -9.471404254810459
      ],
      [
        "社長",
        -9.471410714594548
      ],
      [
        "特定",
        -9.47165699118649
      ],
      [
        "完成",
        -9.472592833851182
      ],
      [
        "すべき",
        -9.473576941244024
      ],
      [
        "増え",
        -9.47364658219494
      ],
      [
        "当然",
        -9.473774106914716
      ],
      [
        "バル",
        -9.474018800331342
      ],
      [
        "現実",
        -9.474508012276228
      ],
      [
        "目に",
        -9.474647314749673
      ],
      [
        "存",
        -9.47471818311549
      ],
      [
        "国の",
        -9.475065475347284
      ],
      [
        "カップ",
        -9.475703705960592
      ],
      [
        "羽",
        -9.477098017140085
      ],
      [
        "さえ",
        -9.477538645897223
      ],
      [
        "恵",
        -9.477955774652942
      ],
      [
        "思え",
        -9.479061457335646
      ],
      [
        "幸せ",
        -9.479235790123393
      ],
      [
        "被",
        -9.479450959698328
      ],
      [
        "押し",
        -9.47999976028586
      ],
      [
        "ファー",
        -9.48004332817684
      ],
      [
        "麻",
        -9.480322352898865
      ],
      [
        "方向",
        -9.481235999913393
      ],
      [
        "床",
        -9.481663592569669
      ],
      [
        "曜",
        -9.482179598172065
      ],
      [
        "スペース",
        -9.48305504761607
      ],
      [
        "者は",
        -9.483088561178805
      ],
      [
        "細胞",
        -9.483194430786252
      ],
      [
        "プレイ",
        -9.483705932412366
      ],
      [
        "内に",
        -9.483859096069468
      ],
      [
        "追加",
        -9.484941610933932
      ],
      [
        "維持",
        -9.485313343239493
      ],
      [
        "政",
        -9.485400566412174
      ],
      [
        "ことができます",
        -9.48557284270464
      ],
      [
        "スマホ",
        -9.485618061602318
      ],
      [
        "トレーニング",
        -9.485720865078003
      ],
      [
        "パス",
        -9.485841064664974
      ],
      [
        "健",
        -9.486588461092126
      ],
      [
        "っち",
        -9.486893782378896
      ],
      [
        "ております",
        -9.487238125347439
      ],
      [
        "徳",
        -9.487398491103596
      ],
      [
        "突",
        -9.488269165923288
      ],
      [
        "行為",
        -9.488894307113014
      ],
      [
        "診断",
        -9.489209719214209
      ],
      [
        "友人",
        -9.48924649764427
      ],
      [
        "替え",
        -9.489463915854428
      ],
      [
        "エステ",
        -9.490441399874754
      ],
      [
        "かかる",
        -9.4906277701717
      ],
      [
        "と思っています",
        -9.490631401053792
      ],
      [
        "信頼",
        -9.491787458019196
      ],
      [
        "その他",
        -9.491928686731978
      ],
      [
        "みたいな",
        -9.492104814908233
      ],
      [
        "焼き",
        -9.492213812984446
      ],
      [
        "自動車",
        -9.493192804446744
      ],
      [
        "時間を",
        -9.494211156987514
      ],
      [
        "自動",
        -9.494909277199646
      ],
      [
        "固",
        -9.495369003747367
      ],
      [
        "を行い",
        -9.495431888916471
      ],
      [
        "最終",
        -9.495723114141686
      ],
      [
        "に向けて",
        -9.495767609205217
      ],
      [
        "電子",
        -9.495930768261466
      ],
      [
        "ダン",
        -9.49643969214733
      ],
      [
        "いている",
        -9.496616359489169
      ],
      [
        "講",
        -9.497187675661289
      ],
      [
        "これらの",
        -9.497458381777912
      ],
      [
        "異なる",
        -9.498131364060175
      ],
      [
        "アウト",
        -9.498236219082392
      ],
      [
        "致",
        -9.498563883579564
      ],
      [
        "mm",
        -9.498724495829679
      ],
      [
        "虫",
        -9.499999574269099
      ],
      [
        "挑戦",
        -9.500364450729863
      ],
      [
        "栄養",
        -9.500978978979884
      ],
      [
        "含まれ",
        -9.501028669600538
      ],
      [
        "ないので",
        -9.501763634344076
      ],
      [
        "炎",
        -9.502152834064193
      ],
      [
        "今の",
        -9.502177643610123
      ],
      [
        "敵",
        -9.502250015531542
      ],
      [
        "倒",
        -9.502262795818053
      ],
      [
        "方の",
        -9.502306247196282
      ],
      [
        "カフェ",
        -9.503383320284307
      ],
      [
        "になっています",
        -9.50340430877117
      ],
      [
        "ましたが",
        -9.503462718170868
      ],
      [
        "と共に",
        -9.503552350293917
      ],
      [
        "シーズン",
        -9.504071186895603
      ],
      [
        "牛",
        -9.504235470138479
      ],
      [
        "抜け",
        -9.504819965889878
      ],
      [
        "これを",
        -9.504918037747176
      ],
      [
        "ですので",
        -9.505339955759242
      ],
      [
        "わからない",
        -9.505595284134044
      ],
      [
        "深い",
        -9.506550206222014
      ],
      [
        "美しい",
        -9.507511145351796
      ],
      [
        "緑",
        -9.50771459889548
      ],
      [
        "講座",
        -9.507733709484059
      ],
      [
        "IN",
        -9.507804639224242
      ],
      [
        "本日",
        -9.507994065409738
      ],
      [
        "応援",
        -9.508076715739364
      ],
      [
        "構成",
        -9.508256623874463
      ],
      [
        "つつ",
        -9.508265079744968
      ],
      [
        "まった",
        -9.50834026836152
      ],
      [
        "仏",
        -9.509264772215891
      ],
      [
        "31",
        -9.510296397921788
      ],
      [
        "ひと",
        -9.510679649952943
      ],
      [
        "共同",
        -9.510724353420485
      ],
      [
        "てる",
        -9.510859561011983
      ],
      [
        "周辺",
        -9.511352901983642
      ],
      [
        "求人サイト",
        -9.511591868929163
      ],
      [
        "家の",
        -9.511705585732363
      ],
      [
        "出した",
        -9.511994609355487
      ],
      [
        "飾",
        -9.512094491686456
      ],
      [
        "訪問",
        -9.512207324294534
      ],
      [
        "運転",
        -9.51360255503346
      ],
      [
        "使われ",
        -9.513695107980809
      ],
      [
        "元気",
        -9.513880559310609
      ],
      [
        "令",
        -9.514324822416754
      ],
      [
        "連絡",
        -9.514516683388969
      ],
      [
        "手術",
        -9.515524888518419
      ],
      [
        "食品",
        -9.515595351916145
      ],
      [
        "言って",
        -9.517359714112144
      ],
      [
        "基礎",
        -9.517447039300462
      ],
      [
        "するため",
        -9.51812887972418
      ],
      [
        "言わ",
        -9.518546643114918
      ],
      [
        "効",
        -9.5186052964461
      ],
      [
        "日常",
        -9.518826642832382
      ],
      [
        "霊",
        -9.5193439309339
      ],
      [
        "段階",
        -9.519836597163119
      ],
      [
        "規",
        -9.520475256656113
      ],
      [
        "疲れ",
        -9.520699404119892
      ],
      [
        "アクセス",
        -9.520969096051585
      ],
      [
        "予想",
        -9.52108273232573
      ],
      [
        "無い",
        -9.521188981858847
      ],
      [
        "相続",
        -9.521538153004254
      ],
      [
        "典",
        -9.521600746237835
      ],
      [
        "スーパー",
        -9.521772104578478
      ],
      [
        "ON",
        -9.522092598559874
      ],
      [
        "なければならない",
        -9.522131687709448
      ],
      [
        "逆",
        -9.522691644342645
      ],
      [
        "is",
        -9.52306234909105
      ],
      [
        "大切な",
        -9.523232508671395
      ],
      [
        "始めた",
        -9.52325060079294
      ],
      [
        "の一つ",
        -9.523255457486536
      ],
      [
        "ませんでした",
        -9.523557372600475
      ],
      [
        "使う",
        -9.52371473645517
      ],
      [
        "すでに",
        -9.523857438532694
      ],
      [
        "過ごし",
        -9.524097321925158
      ],
      [
        "法律",
        -9.524132540361379
      ],
      [
        "即",
        -9.524618767101746
      ],
      [
        "市の",
        -9.524657013560805
      ],
      [
        "トル",
        -9.52475279032895
      ],
      [
        "充実",
        -9.524926657998524
      ],
      [
        "桜",
        -9.525632023964326
      ],
      [
        "lo",
        -9.525922922025748
      ],
      [
        "の一",
        -9.526397452048961
      ],
      [
        "講師",
        -9.52663676618517
      ],
      [
        "出て",
        -9.52710173224979
      ],
      [
        "あるいは",
        -9.527196862677695
      ],
      [
        "に行く",
        -9.527323423685935
      ],
      [
        "舞",
        -9.528266230470667
      ],
      [
        "建物",
        -9.528411381604776
      ],
      [
        "事実",
        -9.528754067323643
      ],
      [
        "費用",
        -9.529166204529945
      ],
      [
        "ショップ",
        -9.529193739243723
      ],
      [
        "々と",
        -9.529226622382705
      ],
      [
        "IC",
        -9.529952783495082
      ],
      [
        "認識",
        -9.53007331539191
      ],
      [
        "交通",
        -9.531316435824328
      ],
      [
        "自身",
        -9.531372847567267
      ],
      [
        "ポリ",
        -9.531767797755307
      ],
      [
        "CO",
        -9.5329195651208
      ],
      [
        "構築",
        -9.53302357568768
      ],
      [
        "エル",
        -9.533340236133578
      ],
      [
        "世代",
        -9.534915147001335
      ],
      [
        "営",
        -9.535988438714488
      ],
      [
        "キング",
        -9.53608413454763
      ],
      [
        "支",
        -9.536561780674365
      ],
      [
        "されていた",
        -9.536752499084649
      ],
      [
        "フランス",
        -9.536939782396693
      ],
      [
        "認定",
        -9.537337989233846
      ],
      [
        "季節",
        -9.537803727437641
      ],
      [
        "すごく",
        -9.539212949348965
      ],
      [
        "お問い合わせ",
        -9.539589265921723
      ],
      [
        "完",
        -9.539685330195741
      ],
      [
        "欠",
        -9.539754792051
      ],
      [
        "人も",
        -9.539801504713322
      ],
      [
        "飛",
        -9.539838801720704
      ],
      [
        "諸",
        -9.540555133402325
      ],
      [
        "しかも",
        -9.540856188045101
      ],
      [
        "■",
        -9.541819368281011
      ],
      [
        "こうした",
        -9.542305361658578
      ],
      [
        "どちら",
        -9.542790077025913
      ],
      [
        "協",
        -9.543019997896524
      ],
      [
        "un",
        -9.543576808819704
      ],
      [
        "読む",
        -9.543597023846983
      ],
      [
        "を変え",
        -9.543695310519619
      ],
      [
        "華",
        -9.544234031076432
      ],
      [
        "地域の",
        -9.544531151882694
      ],
      [
        "ホール",
        -9.546510932044805
      ],
      [
        "救",
        -9.547297135179214
      ],
      [
        "添",
        -9.547424413439481
      ],
      [
        "モノ",
        -9.54750806386234
      ],
      [
        "を作る",
        -9.547702264578367
      ],
      [
        "著",
        -9.548044739362185
      ],
      [
        "すぎ",
        -9.54906157149172
      ],
      [
        "自体",
        -9.549199741337954
      ],
      [
        "es",
        -9.549284665779052
      ],
      [
        "ショ",
        -9.549655591107575
      ],
      [
        "とのこと",
        -9.549967764966715
      ],
      [
        "通信",
        -9.550003393797683
      ],
      [
        "背",
        -9.550141504578875
      ],
      [
        "教授",
        -9.55042445871084
      ],
      [
        "マル",
        -9.551225022482484
      ],
      [
        "リアル",
        -9.551794209660416
      ],
      [
        "境",
        -9.551920694319529
      ],
      [
        "読んで",
        -9.552221244707788
      ],
      [
        "不足",
        -9.55271669646787
      ],
      [
        "ることで",
        -9.55305449688331
      ],
      [
        "の場合",
        -9.553147320853862
      ],
      [
        "知って",
        -9.553451160659131
      ],
      [
        "チン",
        -9.55352225680058
      ],
      [
        "お勧め",
        -9.554371849545248
      ],
      [
        "PC",
        -9.554443837515203
      ],
      [
        ";",
        -9.554602167861658
      ],
      [
        "- ",
        -9.554712829724613
      ],
      [
        "分かり",
        -9.556240628782952
      ],
      [
        "たちの",
        -9.556582346948788
      ],
      [
        "インターネット",
        -9.556844571259692
      ],
      [
        "香り",
        -9.558232322136778
      ],
      [
        "ゅ",
        -9.558319536297905
      ],
      [
        "年前",
        -9.558343633453182
      ],
      [
        "増加",
        -9.558777267205187
      ],
      [
        "止",
        -9.558781645306569
      ],
      [
        "ボー",
        -9.559244701847382
      ],
      [
        "微",
        -9.559251041619268
      ],
      [
        "袋",
        -9.559484053591245
      ],
      [
        "コード",
        -9.559569693784827
      ],
      [
        "にくい",
        -9.559914699860196
      ],
      [
        "el",
        -9.55991733292168
      ],
      [
        "成分",
        -9.560273672578608
      ],
      [
        "たちが",
        -9.56034839099922
      ],
      [
        "ジー",
        -9.560512346599019
      ],
      [
        "建設",
        -9.56071364467015
      ],
      [
        "が良い",
        -9.560747999352271
      ],
      [
        "ユー",
        -9.560870629363242
      ],
      [
        "出会い",
        -9.560934530899415
      ],
      [
        "に対応",
        -9.561039391107354
      ],
      [
        "ドラ",
        -9.561181966582962
      ],
      [
        "有効",
        -9.561359130196571
      ],
      [
        "メッセージ",
        -9.561758770305993
      ],
      [
        "共有",
        -9.561779689408063
      ],
      [
        "取引",
        -9.561783948559116
      ],
      [
        "と一緒に",
        -9.561867570791811
      ],
      [
        "設",
        -9.563083706475513
      ],
      [
        "となっている",
        -9.563229284591955
      ],
      [
        "稼げる",
        -9.56328317619864
      ],
      [
        "ハウス",
        -9.563391876525069
      ],
      [
        "それでも",
        -9.563592465983175
      ],
      [
        "域",
        -9.563609535297328
      ],
      [
        "刻",
        -9.563633174216498
      ],
      [
        "努力",
        -9.56397685060644
      ],
      [
        "ただし",
        -9.564379235276693
      ],
      [
        "ところで",
        -9.564577294863174
      ],
      [
        "七",
        -9.565151280723077
      ],
      [
        "スキル",
        -9.565524165202568
      ],
      [
        "2015",
        -9.566068410561853
      ],
      [
        "の女性",
        -9.566203244310815
      ],
      [
        "入口",
        -9.566257876543727
      ],
      [
        "をしている",
        -9.566281214548386
      ],
      [
        "資料",
        -9.566521127543561
      ],
      [
        "しかった",
        -9.566878654163816
      ],
      [
        "体制",
        -9.567427178754949
      ],
      [
        "廃",
        -9.567486194638011
      ],
      [
        "のない",
        -9.567586989902011
      ],
      [
        "ソー",
        -9.567643615412868
      ],
      [
        "眼",
        -9.567967605522147
      ],
      [
        "楽しく",
        -9.568252783477952
      ],
      [
        "危険",
        -9.568791718681908
      ],
      [
        "あなたの",
        -9.568931345532983
      ],
      [
        "だったり",
        -9.56903017735905
      ],
      [
        "耳",
        -9.569202241753068
      ],
      [
        "RE",
        -9.57041359665972
      ],
      [
        "なって",
        -9.570425379338038
      ],
      [
        "巨",
        -9.57067404673447
      ],
      [
        "トロ",
        -9.572541463786353
      ],
      [
        "AI",
        -9.572668326502352
      ],
      [
        "鮮",
        -9.573184499281268
      ],
      [
        "いただけます",
        -9.573555781707157
      ],
      [
        "併",
        -9.573683253630287
      ],
      [
        "六",
        -9.573978761906588
      ],
      [
        "依頼",
        -9.574283468770304
      ],
      [
        "申し",
        -9.574386622649056
      ],
      [
        "診療",
        -9.575020318767615
      ],
      [
        "職場",
        -9.575102564536254
      ],
      [
        "普通",
        -9.575213974508438
      ],
      [
        "爆",
        -9.575220851141442
      ],
      [
        "闘",
        -9.575333140648123
      ],
      [
        "混",
        -9.57564428606122
      ],
      [
        "/ ",
        -9.57617715306705
      ],
      [
        "てくれる",
        -9.576298540376316
      ],
      [
        "ときは",
        -9.576409246087248
      ],
      [
        "像",
        -9.576488614009323
      ],
      [
        "庭",
        -9.577243978934257
      ],
      [
        "選び",
        -9.577558729907667
      ],
      [
        "y ",
        -9.577929781319458
      ],
      [
        "となっています",
        -9.578067410720651
      ],
      [
        "ウン",
        -9.579216470717977
      ],
      [
        "現在の",
        -9.57943038553773
      ],
      [
        "なぁ",
        -9.579517806145908
      ],
      [
        "沖縄",
        -9.579554561823436
      ],
      [
        "ほしい",
        -9.580372461311322
      ],
      [
        "ce",
        -9.580377605973737
      ],
      [
        "伝統",
        -9.58131416572632
      ],
      [
        "になると",
        -9.581535688986916
      ],
      [
        "レース",
        -9.58168187197559
      ],
      [
        "金融",
        -9.582022184816276
      ],
      [
        "ジョ",
        -9.582671635310804
      ],
      [
        "戦争",
        -9.58388138762009
      ],
      [
        "横浜",
        -9.583953606957193
      ],
      [
        "不動産",
        -9.584040734636915
      ],
      [
        "込まれ",
        -9.584243719931006
      ],
      [
        "浜",
        -9.584322566705298
      ],
      [
        "陽",
        -9.584641801369413
      ],
      [
        "NS",
        -9.585173644273404
      ],
      [
        "ビル",
        -9.585457475165185
      ],
      [
        "瀬",
        -9.585632034476145
      ],
      [
        "推",
        -9.585938693239163
      ],
      [
        "受験",
        -9.586185690099018
      ],
      [
        "強化",
        -9.586223015323853
      ],
      [
        "範囲",
        -9.58629805590886
      ],
      [
        "眠",
        -9.58706260781053
      ],
      [
        "プリ",
        -9.58788389649553
      ],
      [
        "毎年",
        -9.587893883593425
      ],
      [
        "ことから",
        -9.58841350474338
      ],
      [
        "」、「",
        -9.588459587289508
      ],
      [
        "ac",
        -9.588924528307292
      ],
      [
        "感想",
        -9.589492485877804
      ],
      [
        "閉",
        -9.590081677608719
      ],
      [
        "続き",
        -9.59009246491813
      ],
      [
        "進め",
        -9.590598353227968
      ],
      [
        "】 ",
        -9.592163344652562
      ],
      [
        "発信",
        -9.592191157282038
      ],
      [
        "アジア",
        -9.592355371130195
      ],
      [
        "追い",
        -9.592535828952354
      ],
      [
        "ma",
        -9.593070641287014
      ],
      [
        "3.",
        -9.593091715161755
      ],
      [
        "カラ",
        -9.593286039195306
      ],
      [
        "も多い",
        -9.593515284861395
      ],
      [
        "試しに",
        -9.59389534738201
      ],
      [
        "良かった",
        -9.594193655043817
      ],
      [
        "温泉",
        -9.594857109446314
      ],
      [
        "ウェ",
        -9.595422486465912
      ],
      [
        "採",
        -9.596151871924873
      ],
      [
        "の大",
        -9.596852968924564
      ],
      [
        "わけです",
        -9.596948696577943
      ],
      [
        "群",
        -9.597329669264491
      ],
      [
        "しようと",
        -9.597704793651527
      ],
      [
        "盛",
        -9.598613181951675
      ],
      [
        "おか",
        -9.598883807403231
      ],
      [
        "族",
        -9.599241306004657
      ],
      [
        "などに",
        -9.59930826322023
      ],
      [
        "活動を",
        -9.599405907591384
      ],
      [
        "脚",
        -9.599846144355787
      ],
      [
        "材料",
        -9.60027357483742
      ],
      [
        "を目指し",
        -9.600280919262664
      ],
      [
        "連続",
        -9.60109559066962
      ],
      [
        "戦略",
        -9.601343638783051
      ],
      [
        "攻撃",
        -9.60226444248359
      ],
      [
        "悩み",
        -9.602273271943476
      ],
      [
        "チョ",
        -9.602704367931045
      ],
      [
        "続いて",
        -9.602855465446043
      ],
      [
        "に対し",
        -9.602929514964625
      ],
      [
        "府",
        -9.603658597985497
      ],
      [
        "先日",
        -9.603884317879208
      ],
      [
        "ものが",
        -9.604078206255611
      ],
      [
        "AN",
        -9.604277910461377
      ],
      [
        "安心して",
        -9.604301351632728
      ],
      [
        "富",
        -9.604783028169079
      ],
      [
        "工場",
        -9.60634027191035
      ],
      [
        "を開催",
        -9.606389214665263
      ],
      [
        "含",
        -9.606647681632092
      ],
      [
        "なども",
        -9.60720592049954
      ],
      [
        "していない",
        -9.607556721277952
      ],
      [
        "Co",
        -9.607579350389468
      ],
      [
        "浴",
        -9.607634434285224
      ],
      [
        "ディー",
        -9.608311450882274
      ],
      [
        "福岡",
        -9.609296646084067
      ],
      [
        "ミニ",
        -9.609711054755362
      ],
      [
        "お知らせ",
        -9.610335673507077
      ],
      [
        "女の子",
        -9.610497624870472
      ],
      [
        "AR",
        -9.610782761029553
      ],
      [
        "植物",
        -9.610885753911228
      ],
      [
        "始まり",
        -9.610914224981569
      ],
      [
        "笑顔",
        -9.611176899521716
      ],
      [
        "したもの",
        -9.61189596728129
      ],
      [
        "われる",
        -9.611907368754716
      ],
      [
        "出身",
        -9.612196437110537
      ],
      [
        "神経",
        -9.613205867462192
      ],
      [
        "ok",
        -9.613402323562815
      ],
      [
        "然",
        -9.614283027736793
      ],
      [
        "大きい",
        -9.614291430618678
      ],
      [
        "濃",
        -9.61441511883468
      ],
      [
        "全員",
        -9.61442694322431
      ],
      [
        "手に",
        -9.614796523893839
      ],
      [
        "設立",
        -9.614963831829892
      ],
      [
        "ていて",
        -9.615000817537588
      ],
      [
        "うまく",
        -9.615526258792565
      ],
      [
        "かない",
        -9.615995764607336
      ],
      [
        "みる",
        -9.617076170009215
      ],
      [
        "貴",
        -9.617282476793413
      ],
      [
        "以来",
        -9.617338175182836
      ],
      [
        "ぐらい",
        -9.617457396108623
      ],
      [
        "私も",
        -9.617675798425067
      ],
      [
        "やっぱり",
        -9.617911529505601
      ],
      [
        "育成",
        -9.619101327252825
      ],
      [
        "続く",
        -9.619669852210427
      ],
      [
        "暖",
        -9.620190606561824
      ],
      [
        "反応",
        -9.620246792923659
      ],
      [
        "なんか",
        -9.620770753228525
      ],
      [
        "セミナー",
        -9.621492085282005
      ],
      [
        "熟",
        -9.622918190931834
      ],
      [
        "切れ",
        -9.622999335385726
      ],
      [
        "秘",
        -9.623107366517052
      ],
      [
        "通常",
        -9.623251176437895
      ],
      [
        "さんに",
        -9.623371060530237
      ],
      [
        "を持ち",
        -9.6238317305586
      ],
      [
        "占",
        -9.624230153089595
      ],
      [
        "を作り",
        -9.624650332720451
      ],
      [
        "磨",
        -9.624844375197693
      ],
      [
        "選択",
        -9.625349374047504
      ],
      [
        "電気",
        -9.625506912382686
      ],
      [
        "雑",
        -9.625519126648802
      ],
      [
        "致します",
        -9.62578844369142
      ],
      [
        "本人",
        -9.626427484053346
      ],
      [
        "ホームページ",
        -9.626737462170857
      ],
      [
        "インド",
        -9.62674626305978
      ],
      [
        "を実現",
        -9.627228495334483
      ],
      [
        "梅",
        -9.627584700145233
      ],
      [
        "刊",
        -9.627709438973431
      ],
      [
        "気になる",
        -9.628061405497766
      ],
      [
        "輝",
        -9.629644883168156
      ],
      [
        "リンク",
        -9.629898460896836
      ],
      [
        "変わり",
        -9.63001009211696
      ],
      [
        "祝",
        -9.630507680273766
      ],
      [
        "窓",
        -9.631078639994964
      ],
      [
        "すこと",
        -9.631911206461156
      ],
      [
        "嬉しい",
        -9.63293692975369
      ],
      [
        "伊",
        -9.632970536052628
      ],
      [
        "教えて",
        -9.63347848073754
      ],
      [
        "られています",
        -9.633656799748993
      ],
      [
        "被害",
        -9.63388760553286
      ],
      [
        "胸",
        -9.634468547221035
      ],
      [
        "銀行",
        -9.63549102824316
      ],
      [
        "気に",
        -9.635795985237953
      ],
      [
        "場合には",
        -9.636497754572785
      ],
      [
        "ゴール",
        -9.636827974463415
      ],
      [
        "弁護士",
        -9.637172457343
      ],
      [
        "湿",
        -9.63736135809193
      ],
      [
        "写",
        -9.637526148939754
      ],
      [
        "姿勢",
        -9.63752827131419
      ],
      [
        "回目",
        -9.638014284574917
      ],
      [
        "me",
        -9.63861483355797
      ],
      [
        "会話",
        -9.639338486475474
      ],
      [
        "を受けた",
        -9.639813060850187
      ],
      [
        "甲",
        -9.640009948635123
      ],
      [
        "ワイ",
        -9.640539430042628
      ],
      [
        "神社",
        -9.640677511131752
      ],
      [
        "想像",
        -9.640717354338946
      ],
      [
        "途中",
        -9.640913173328618
      ],
      [
        "アナ",
        -9.641006233568515
      ],
      [
        "グル",
        -9.641194774769945
      ],
      [
        "穴",
        -9.64158982762853
      ],
      [
        "ST",
        -9.641690785711717
      ],
      [
        "どのように",
        -9.642248092138463
      ],
      [
        "療法",
        -9.64247408276576
      ],
      [
        "上げる",
        -9.642539355831271
      ],
      [
        "氏は",
        -9.643498792498526
      ],
      [
        "することを",
        -9.643728226040961
      ],
      [
        "もので",
        -9.64392009444345
      ],
      [
        "記憶",
        -9.644143931929213
      ],
      [
        "劇",
        -9.644314182493007
      ],
      [
        "01",
        -9.644335141212114
      ],
      [
        "浦",
        -9.645264788202358
      ],
      [
        "驚",
        -9.645902017313299
      ],
      [
        "学ぶ",
        -9.64714353477953
      ],
      [
        "待ち",
        -9.647282843284653
      ],
      [
        "婦",
        -9.647684329861917
      ],
      [
        "繋",
        -9.647869486312114
      ],
      [
        "少ない",
        -9.64806439599112
      ],
      [
        "運用",
        -9.648681010105033
      ],
      [
        "現状",
        -9.648830827650807
      ],
      [
        "てしまった",
        -9.649227008125916
      ],
      [
        "筋肉",
        -9.649445309052362
      ],
      [
        "を決め",
        -9.649492248246649
      ],
      [
        "制限",
        -9.650408696794246
      ],
      [
        "季",
        -9.650942809380053
      ],
      [
        "最後に",
        -9.651082073852235
      ],
      [
        "撮",
        -9.651100421680393
      ],
      [
        "休み",
        -9.65137358500375
      ],
      [
        "やかな",
        -9.651550674697546
      ],
      [
        "てくる",
        -9.651771080782607
      ],
      [
        "審査",
        -9.652487355363187
      ],
      [
        "こういう",
        -9.653020382588354
      ],
      [
        "キャリア",
        -9.65315557330234
      ],
      [
        "心地",
        -9.65324131561317
      ],
      [
        "を含む",
        -9.653435771971903
      ],
      [
        "寄り",
        -9.65370124954996
      ],
      [
        "災害",
        -9.653869637632376
      ],
      [
        "済",
        -9.654292447196873
      ],
      [
        "集中",
        -9.654578655348848
      ],
      [
        "しゃ",
        -9.654924804208395
      ],
      [
        "学部",
        -9.656308720625056
      ],
      [
        "素晴らしい",
        -9.656371425867206
      ],
      [
        "悲",
        -9.65643559247564
      ],
      [
        "クス",
        -9.65644213984473
      ],
      [
        "するための",
        -9.656906265237177
      ],
      [
        "を受けて",
        -9.657092965467214
      ],
      [
        "を確認",
        -9.657713153379055
      ],
      [
        "響",
        -9.65813053078951
      ],
      [
        "求",
        -9.658708584691885
      ],
      [
        "を使った",
        -9.659365303809862
      ],
      [
        "泉",
        -9.65967942957238
      ],
      [
        "労",
        -9.660545488233293
      ],
      [
        "ペン",
        -9.660693509403227
      ],
      [
        "PO",
        -9.661096539927414
      ],
      [
        "要素",
        -9.661515721953847
      ],
      [
        "楽しめる",
        -9.66178066632369
      ],
      [
        "別の",
        -9.662262383758007
      ],
      [
        "食べる",
        -9.662267334287629
      ],
      [
        "純",
        -9.662499662393744
      ],
      [
        "ようと",
        -9.66254038720508
      ],
      [
        "財",
        -9.662874700617035
      ],
      [
        "担",
        -9.663257265703182
      ],
      [
        "日本語",
        -9.664070226423458
      ],
      [
        "目を",
        -9.664727919547381
      ],
      [
        "料金",
        -9.664802341404947
      ],
      [
        "令和",
        -9.665651103093555
      ],
      [
        "大丈夫",
        -9.66565741212565
      ],
      [
        "寄",
        -9.66567462450487
      ],
      [
        "NA",
        -9.66579680614822
      ],
      [
        "始",
        -9.666691572833706
      ],
      [
        "それら",
        -9.66676607596209
      ],
      [
        "成果",
        -9.666886815462801
      ],
      [
        "画面",
        -9.666910319528089
      ],
      [
        "品質",
        -9.66707083915813
      ],
      [
        "ミー",
        -9.667254818752465
      ],
      [
        "トー",
        -9.667466843979406
      ],
      [
        "イル",
        -9.667658507364017
      ],
      [
        "づけ",
        -9.66782253500368
      ],
      [
        "くなって",
        -9.669016279718049
      ],
      [
        "属",
        -9.669501704013307
      ],
      [
        "アート",
        -9.670155360229664
      ],
      [
        "きっかけ",
        -9.670744087091418
      ],
      [
        "を受ける",
        -9.671753318398236
      ],
      [
        "用の",
        -9.672041598991417
      ],
      [
        "売り",
        -9.672563717470021
      ],
      [
        "施術",
        -9.672756231991283
      ],
      [
        "罪",
        -9.672949418166853
      ],
      [
        "LE",
        -9.673151015437638
      ],
      [
        "さんと",
        -9.673162497409622
      ],
      [
        "を引き",
        -9.673242323998718
      ],
      [
        "地球",
        -9.673269348296266
      ],
      [
        "せず",
        -9.673716131056906
      ],
      [
        "厳",
        -9.674027454652274
      ],
      [
        "ドイツ",
        -9.67457920862773
      ],
      [
        "を見せ",
        -9.674856545308772
      ],
      [
        "達成",
        -9.675694339708485
      ],
      [
        "の方々",
        -9.675939656192272
      ],
      [
        "いや",
        -9.675947117371743
      ],
      [
        "主義",
        -9.675966484378746
      ],
      [
        "必",
        -9.676356730831095
      ],
      [
        "策",
        -9.676360088819585
      ],
      [
        "li",
        -9.676637253199472
      ],
      [
        "乱",
        -9.677055633203105
      ],
      [
        "地区",
        -9.677117902989067
      ],
      [
        "そうだ",
        -9.677328027849033
      ],
      [
        "機器",
        -9.6775393204022
      ],
      [
        "警",
        -9.678265658609684
      ],
      [
        "ようになった",
        -9.678324633144515
      ],
      [
        "リリース",
        -9.678339358846284
      ],
      [
        "以外の",
        -9.678371237985914
      ],
      [
        "のではないでしょうか",
        -9.67859307715383
      ],
      [
        "給料",
        -9.678630521867884
      ],
      [
        "に掲載",
        -9.678781694556626
      ],
      [
        "雄",
        -9.679093014569515
      ],
      [
        "講演",
        -9.679187736034342
      ],
      [
        "章",
        -9.679746523767216
      ],
      [
        "クト",
        -9.679866424568116
      ],
      [
        "様子",
        -9.67991946326191
      ],
      [
        "庁",
        -9.680999028948028
      ],
      [
        "以下の",
        -9.681049761679766
      ],
      [
        "腹",
        -9.681263581005835
      ],
      [
        "詳しく",
        -9.681278051811393
      ],
      [
        "タル",
        -9.681469807119521
      ],
      [
        "パソコン",
        -9.681591777364622
      ],
      [
        "わない",
        -9.681748066175714
      ],
      [
        "降",
        -9.682032525300496
      ],
      [
        "育て",
        -9.682499509422835
      ],
      [
        "レッスン",
        -9.682646194734394
      ],
      [
        "ay",
        -9.683010423449158
      ],
      [
        "> ",
        -9.683345534948229
      ],
      [
        "底",
        -9.68375003236697
      ],
      [
        "当日",
        -9.68477159683642
      ],
      [
        "a ",
        -9.685351226664451
      ],
      [
        "弊社",
        -9.685425826731263
      ],
      [
        "カット",
        -9.685632748314662
      ],
      [
        "サロン",
        -9.686100432781526
      ],
      [
        "腕",
        -9.686209778814224
      ],
      [
        "人を",
        -9.686246452851279
      ],
      [
        "ho",
        -9.686616914498897
      ],
      [
        "ガス",
        -9.68663303230959
      ],
      [
        "^",
        -9.686784096888845
      ],
      [
        "箱",
        -9.687136041740278
      ],
      [
        "は何",
        -9.68713758216211
      ],
      [
        "ることができる",
        -9.68751201583152
      ],
      [
        "優勝",
        -9.688344614137685
      ],
      [
        "来る",
        -9.689062443190613
      ],
      [
        "取り組んで",
        -9.689803353769145
      ],
      [
        "続けて",
        -9.689993714946107
      ],
      [
        "いき",
        -9.690802456621464
      ],
      [
        "喜",
        -9.691040998142842
      ],
      [
        "挙げ",
        -9.691435414513773
      ],
      [
        "徹底",
        -9.691463833554806
      ],
      [
        "なのです",
        -9.69152113832081
      ],
      [
        "In",
        -9.6922956898972
      ],
      [
        "te",
        -9.692500214310236
      ],
      [
        "設備",
        -9.693420965039762
      ],
      [
        "申請",
        -9.693852311188326
      ],
      [
        "教え",
        -9.693891576735835
      ],
      [
        "小学校",
        -9.693943957140267
      ],
      [
        "自信",
        -9.694574580155209
      ],
      [
        "思わ",
        -9.695291813850677
      ],
      [
        "触",
        -9.695393705873188
      ],
      [
        "美味しい",
        -9.69551169248093
      ],
      [
        "させた",
        -9.696303337553536
      ],
      [
        "前回",
        -9.696420050815451
      ],
      [
        "政策",
        -9.696884034920144
      ],
      [
        "手を",
        -9.697138132631864
      ],
      [
        "ことがあります",
        -9.697421201379981
      ],
      [
        "Web",
        -9.697826939797373
      ],
      [
        "お金",
        -9.69814386477982
      ],
      [
        "許",
        -9.698220379785633
      ],
      [
        "コーヒー",
        -9.698851892406893
      ],
      [
        "滅",
        -9.699122201550415
      ],
      [
        "によると",
        -9.699177798444834
      ],
      [
        "時には",
        -9.699227800027252
      ],
      [
        "いずれ",
        -9.699279671869109
      ],
      [
        "終わり",
        -9.699939747952454
      ],
      [
        "のだが",
        -9.70034776312846
      ],
      [
        "言え",
        -9.70043486356883
      ],
      [
        "することができます",
        -9.700896623382725
      ],
      [
        "房",
        -9.70131364427613
      ],
      [
        "まさに",
        -9.702585472433807
      ],
      [
        "舎",
        -9.702611786675963
      ],
      [
        "組み",
        -9.703042235402915
      ],
      [
        "!?",
        -9.703854802454952
      ],
      [
        "傾向",
        -9.703884641601492
      ],
      [
        "之",
        -9.704226480738967
      ],
      [
        "たちは",
        -9.704303302829985
      ],
      [
        "本来",
        -9.704349975196306
      ],
      [
        "肩",
        -9.70577502635687
      ],
      [
        "サッカー",
        -9.705866585943603
      ],
      [
        "だけの",
        -9.705943832043955
      ],
      [
        "専用",
        -9.706127301758537
      ],
      [
        "栄",
        -9.706259816684112
      ],
      [
        "面白い",
        -9.706489198877753
      ],
      [
        "腸",
        -9.707058484248954
      ],
      [
        "探",
        -9.707864167986811
      ],
      [
        "結構",
        -9.708108053958796
      ],
      [
        "っちゃ",
        -9.708569001081008
      ],
      [
        "旨",
        -9.708612748650998
      ],
      [
        "調べ",
        -9.709788427089464
      ],
      [
        "コンテンツ",
        -9.709966553484048
      ],
      [
        "っていく",
        -9.710306740527228
      ],
      [
        "転職",
        -9.710470619481018
      ],
      [
        "最後の",
        -9.71083073402473
      ],
      [
        "備え",
        -9.710942635038977
      ],
      [
        "を集め",
        -9.712216201240523
      ],
      [
        "する事",
        -9.712980079484904
      ],
      [
        "うちに",
        -9.713053598549521
      ],
      [
        "聞く",
        -9.713068567965895
      ],
      [
        "出版",
        -9.71315545223371
      ],
      [
        "考え方",
        -9.713440410165086
      ],
      [
        "かわ",
        -9.713797147130098
      ],
      [
        "間に",
        -9.714196242375522
      ],
      [
        "リーグ",
        -9.714653770154854
      ],
      [
        "振り",
        -9.71470274858272
      ],
      [
        "ション",
        -9.715574170290457
      ],
      [
        "再生",
        -9.715899140938811
      ],
      [
        "de",
        -9.716346900113535
      ],
      [
        "することは",
        -9.716459966238746
      ],
      [
        "があれば",
        -9.717328688097387
      ],
      [
        "していて",
        -9.717556621245725
      ],
      [
        "そもそも",
        -9.718194261470037
      ],
      [
        "承",
        -9.718389720761719
      ],
      [
        "途",
        -9.718772124596901
      ],
      [
        "を考え",
        -9.718784758982983
      ],
      [
        "空気",
        -9.719070053267652
      ],
      [
        "参加者",
        -9.719329965130102
      ],
      [
        "巡",
        -9.719560770413912
      ],
      [
        "ur",
        -9.720297032728435
      ],
      [
        "必要があります",
        -9.72030487669342
      ],
      [
        "妙",
        -9.720586902669375
      ],
      [
        "ッと",
        -9.720892918203045
      ],
      [
        "照",
        -9.72099288206481
      ],
      [
        "と呼ばれる",
        -9.721023901029328
      ],
      [
        "完全",
        -9.721261179084937
      ],
      [
        "尊",
        -9.72181965288493
      ],
      [
        "パワー",
        -9.722686366964917
      ],
      [
        "が行われ",
        -9.722810786063599
      ],
      [
        "ベスト",
        -9.72357841903466
      ],
      [
        "寒",
        -9.7236023050342
      ],
      [
        "招",
        -9.72360297925966
      ],
      [
        "に入って",
        -9.723615100015508
      ],
      [
        "信じ",
        -9.723747842677982
      ],
      [
        "ッツ",
        -9.723832510790013
      ],
      [
        "小説",
        -9.724212838279872
      ],
      [
        "間違い",
        -9.724714019359462
      ],
      [
        "ニーズ",
        -9.72481396677686
      ],
      [
        "平均",
        -9.725210683030458
      ],
      [
        "たくさんの",
        -9.725311326200941
      ],
      [
        "婚",
        -9.72561877378789
      ],
      [
        "キャラクター",
        -9.725716496135034
      ],
      [
        "ところが",
        -9.726158970080965
      ],
      [
        "というもの",
        -9.726370056973767
      ],
      [
        "土地",
        -9.726418130410808
      ],
      [
        "ってしまう",
        -9.726487625137466
      ],
      [
        "いち",
        -9.727410866741481
      ],
      [
        "てしまい",
        -9.728076501625518
      ],
      [
        "排",
        -9.728269506304576
      ],
      [
        "ツール",
        -9.728312609388292
      ],
      [
        "キン",
        -9.729024535820257
      ],
      [
        "万人",
        -9.729270024782156
      ],
      [
        "卵",
        -9.729524434229551
      ],
      [
        "されており",
        -9.72957208551016
      ],
      [
        "護",
        -9.729902461174168
      ],
      [
        "現地",
        -9.729961086046952
      ],
      [
        "隣",
        -9.730353255862104
      ],
      [
        "かも",
        -9.730496228051425
      ],
      [
        "失敗",
        -9.730508774784322
      ],
      [
        "就職",
        -9.73052917228838
      ],
      [
        "いう",
        -9.730824871660264
      ],
      [
        "ベン",
        -9.731487669529828
      ],
      [
        "カジノ",
        -9.731958823298982
      ],
      [
        "35",
        -9.731965701311932
      ],
      [
        "帰り",
        -9.732070856515442
      ],
      [
        "ならない",
        -9.732641288214703
      ],
      [
        "機械",
        -9.733132746594132
      ],
      [
        "組み合わせ",
        -9.733530880478025
      ],
      [
        "させていただきます",
        -9.733635363206709
      ],
      [
        "私たちは",
        -9.734899732008573
      ],
      [
        "臨",
        -9.735335388827856
      ],
      [
        "午後",
        -9.735813358084226
      ],
      [
        "印",
        -9.736192899118294
      ],
      [
        "塾",
        -9.736384692578316
      ],
      [
        "糖",
        -9.737444548544088
      ],
      [
        "タイトル",
        -9.737530488121664
      ],
      [
        "荷",
        -9.737931594726463
      ],
      [
        "何も",
        -9.738089829399582
      ],
      [
        "作用",
        -9.738485554066461
      ],
      [
        "も多く",
        -9.738663664262864
      ],
      [
        "ウォー",
        -9.73918287906574
      ],
      [
        "くん",
        -9.739241380287197
      ],
      [
        "持って",
        -9.739292755294851
      ],
      [
        "会長",
        -9.739463868537102
      ],
      [
        "日間",
        -9.739495461387046
      ],
      [
        "日から",
        -9.740257951772316
      ],
      [
        "国家",
        -9.74088968979337
      ],
      [
        "俺",
        -9.74091463272227
      ],
      [
        "今すぐ",
        -9.741416764913371
      ],
      [
        "生活を",
        -9.741830837240977
      ],
      [
        "彩",
        -9.742660698776794
      ],
      [
        "取れ",
        -9.742776198962389
      ],
      [
        "今は",
        -9.743387982050555
      ],
      [
        "Re",
        -9.743796720084957
      ],
      [
        "言えば",
        -9.743985886767721
      ],
      [
        "ネットワーク",
        -9.744159682549936
      ],
      [
        "始め",
        -9.744289425563112
      ],
      [
        "ta",
        -9.745449898389538
      ],
      [
        "動か",
        -9.745569358430695
      ],
      [
        "ごと",
        -9.745676961194185
      ],
      [
        "行政",
        -9.746075798434479
      ],
      [
        "視点",
        -9.747221646401083
      ],
      [
        "漫画",
        -9.74724575140398
      ],
      [
        "利用者",
        -9.74757710719647
      ],
      [
        "気分",
        -9.748277213932539
      ],
      [
        "05",
        -9.749050583149371
      ],
      [
        "整理",
        -9.749196684320795
      ],
      [
        "ヴァ",
        -9.749414632711604
      ],
      [
        "争",
        -9.749457087597856
      ],
      [
        "みなさん",
        -9.749620309669119
      ],
      [
        "パイ",
        -9.750192881730046
      ],
      [
        "メイ",
        -9.750804646872465
      ],
      [
        "送り",
        -9.750906405590682
      ],
      [
        "指摘",
        -9.751704392058565
      ],
      [
        "竹",
        -9.752506725430322
      ],
      [
        "実績",
        -9.752589864246477
      ],
      [
        "長く",
        -9.75264391935386
      ],
      [
        "診",
        -9.752650200669283
      ],
      [
        "抑え",
        -9.752671516027346
      ],
      [
        "ロック",
        -9.752998319259346
      ],
      [
        "患者さん",
        -9.753316269031252
      ],
      [
        "トラブル",
        -9.753893626260925
      ],
      [
        "パート",
        -9.75392665377018
      ],
      [
        "迷",
        -9.754150891039416
      ],
      [
        "利益",
        -9.754763508592976
      ],
      [
        "っていう",
        -9.755181142120662
      ],
      [
        "炭",
        -9.755337283169428
      ],
      [
        "いただける",
        -9.755359011777253
      ],
      [
        "コスト",
        -9.755578809803891
      ],
      [
        "様の",
        -9.75573699792676
      ],
      [
        "リティ",
        -9.755737490992402
      ],
      [
        "合格",
        -9.755759983896194
      ],
      [
        "衣",
        -9.75596686106336
      ],
      [
        "名古屋",
        -9.756259562478352
      ],
      [
        "se",
        -9.7563197839182
      ],
      [
        "03",
        -9.756369443174092
      ],
      [
        "回復",
        -9.757305871843998
      ],
      [
        "癒",
        -9.757820610682705
      ],
      [
        "ペット",
        -9.758103242395043
      ],
      [
        "グリ",
        -9.75879679862178
      ],
      [
        "核",
        -9.75924242871568
      ],
      [
        "飛び",
        -9.759269717700118
      ],
      [
        "ごとに",
        -9.759365598214789
      ],
      [
        "ちなみに",
        -9.759983400733445
      ],
      [
        "なくなる",
        -9.760129804917758
      ],
      [
        "に合わせて",
        -9.760167117169646
      ],
      [
        "息子",
        -9.760662908699159
      ],
      [
        "シア",
        -9.760721166603865
      ],
      [
        "応募",
        -9.761309973867379
      ],
      [
        "RA",
        -9.7615212321927
      ],
      [
        "ぴ",
        -9.761592857147198
      ],
      [
        "それで",
        -9.761781790241361
      ],
      [
        "困難",
        -9.762028483017632
      ],
      [
        "ツアー",
        -9.762041641125208
      ],
      [
        "倉",
        -9.76233180183885
      ],
      [
        "抱",
        -9.762387907218026
      ],
      [
        "織",
        -9.762511540124237
      ],
      [
        "するという",
        -9.7625434480174
      ],
      [
        "TA",
        -9.76270299074012
      ],
      [
        "トイレ",
        -9.763290555230133
      ],
      [
        "稼",
        -9.763310572997478
      ],
      [
        "故",
        -9.763352359286008
      ],
      [
        "刺",
        -9.763852106985125
      ],
      [
        "保存",
        -9.763875445856062
      ],
      [
        "あい",
        -9.764011328402585
      ],
      [
        "を使う",
        -9.764125273276823
      ],
      [
        "の求人",
        -9.764276026591418
      ],
      [
        "るべき",
        -9.76433941925322
      ],
      [
        "おき",
        -9.764752953047953
      ],
      [
        "由",
        -9.76476292429756
      ],
      [
        "感情",
        -9.764981631198062
      ],
      [
        "積極的に",
        -9.765837419137926
      ],
      [
        "部門",
        -9.766020648207096
      ],
      [
        "―",
        -9.766370432044077
      ],
      [
        "模",
        -9.766475386617653
      ],
      [
        "◆",
        -9.767600814278609
      ],
      [
        "の話",
        -9.767644111740308
      ],
      [
        "背景",
        -9.767911063107025
      ],
      [
        "博",
        -9.76839797929262
      ],
      [
        "せい",
        -9.768501173819901
      ],
      [
        "当て",
        -9.768605216113235
      ],
      [
        "貰",
        -9.768892943240004
      ],
      [
        "もいい",
        -9.769255242421755
      ],
      [
        "主に",
        -9.76929325865092
      ],
      [
        "お届け",
        -9.770080270522902
      ],
      [
        "出場",
        -9.770544783539673
      ],
      [
        "判",
        -9.770814261114698
      ],
      [
        "マーク",
        -9.772750438302037
      ],
      [
        "荒",
        -9.772923610515475
      ],
      [
        "議員",
        -9.773331524067116
      ],
      [
        "広島",
        -9.7734214640587
      ],
      [
        "現在は",
        -9.773437132878291
      ],
      [
        "ブリ",
        -9.775715526696892
      ],
      [
        "ワイン",
        -9.776461918895132
      ],
      [
        "頂き",
        -9.776731716794993
      ],
      [
        "マスク",
        -9.776817718376673
      ],
      [
        "なんと",
        -9.776991652348539
      ],
      [
        "はじめ",
        -9.777240624502014
      ],
      [
        "芸術",
        -9.777399189280851
      ],
      [
        "すぎる",
        -9.777610422835268
      ],
      [
        "将",
        -9.77832336566918
      ],
      [
        "道路",
        -9.778856115791665
      ],
      [
        "狙",
        -9.779435698935956
      ],
      [
        "一方で",
        -9.78012517632633
      ],
      [
        "塚",
        -9.780525181902044
      ],
      [
        "ブルー",
        -9.780548678593158
      ],
      [
        "てきました",
        -9.780795813972972
      ],
      [
        "ニュー",
        -9.780912646547007
      ],
      [
        "るような",
        -9.781258481888967
      ],
      [
        "人物",
        -9.781762873357927
      ],
      [
        ". ",
        -9.781999303039456
      ],
      [
        "CA",
        -9.78217159170834
      ],
      [
        "使って",
        -9.782680401159414
      ],
      [
        "するもの",
        -9.783322448711726
      ],
      [
        "郷",
        -9.783654961003991
      ],
      [
        "助け",
        -9.784354052966984
      ],
      [
        "及",
        -9.784778532011092
      ],
      [
        "みませんか",
        -9.784937951938204
      ],
      [
        "っぱ",
        -9.78495081204661
      ],
      [
        "ひとり",
        -9.785596336688961
      ],
      [
        "医学",
        -9.785597804857414
      ],
      [
        "記載",
        -9.785620244331211
      ],
      [
        "からです",
        -9.78565895943571
      ],
      [
        "ポン",
        -9.786058848685943
      ],
      [
        "刺激",
        -9.787039809983062
      ],
      [
        "ファイ",
        -9.787056241956611
      ],
      [
        "顧客",
        -9.787184729676278
      ],
      [
        "歯科",
        -9.787241419574128
      ],
      [
        "綺麗",
        -9.787526637864158
      ],
      [
        "宇宙",
        -9.787601747561524
      ],
      [
        "咲",
        -9.788184980073723
      ],
      [
        "明らかに",
        -9.78846984194053
      ],
      [
        "建て",
        -9.788483796265549
      ],
      [
        "慣れ",
        -9.789405810217554
      ],
      [
        "45",
        -9.789799382697835
      ],
      [
        "僕は",
        -9.789849235285898
      ],
      [
        "長期",
        -9.790693094105723
      ],
      [
        "月の",
        -9.7909427640242
      ],
      [
        "貸",
        -9.791239183627964
      ],
      [
        "変わって",
        -9.791266068232591
      ],
      [
        "繰り返し",
        -9.79193619537152
      ],
      [
        "09",
        -9.792225294821
      ],
      [
        "明日",
        -9.792252732410013
      ],
      [
        "製作",
        -9.792341073364563
      ],
      [
        "新規",
        -9.792399244468392
      ],
      [
        "ちゃんと",
        -9.793600645261098
      ],
      [
        "替",
        -9.79371408356806
      ],
      [
        "ing",
        -9.793976692752551
      ],
      [
        "始める",
        -9.794547494778003
      ],
      [
        "疾患",
        -9.794891958086579
      ],
      [
        "隠",
        -9.794984983584989
      ],
      [
        "使える",
        -9.795340411683746
      ],
      [
        "標",
        -9.795640180482282
      ],
      [
        "彼の",
        -9.796377273446868
      ],
      [
        "腰",
        -9.796507670500107
      ],
      [
        "溶",
        -9.796716011768694
      ],
      [
        "08",
        -9.796770429214698
      ],
      [
        "2014",
        -9.797403562905586
      ],
      [
        "とにかく",
        -9.797479346442563
      ],
      [
        "あらゆる",
        -9.797676646437424
      ],
      [
        "込んだ",
        -9.797977922522442
      ],
      [
        "犯",
        -9.798205217847034
      ],
      [
        "んだけど",
        -9.79838723736205
      ],
      [
        "聞いた",
        -9.798821687383237
      ],
      [
        "だったので",
        -9.799010929496204
      ],
      [
        "恋",
        -9.799232689492458
      ],
      [
        "の場合は",
        -9.799255047222596
      ],
      [
        "と思いました",
        -9.800623058774587
      ],
      [
        "並",
        -9.800767119337905
      ],
      [
        "想い",
        -9.800950762532104
      ],
      [
        "実行",
        -9.80104141231466
      ],
      [
        "ロシア",
        -9.801206649114514
      ],
      [
        "ことが出来",
        -9.801243519066604
      ],
      [
        "略",
        -9.801361003252227
      ],
      [
        "接種",
        -9.801537968066707
      ],
      [
        "を目指す",
        -9.801715456145308
      ],
      [
        "日 ",
        -9.80211013165998
      ],
      [
        "の皆様",
        -9.803240201128451
      ],
      [
        "菜",
        -9.803444321781905
      ],
      [
        "。\n【",
        -9.804138726482307
      ],
      [
        "を作って",
        -9.804731432772034
      ],
      [
        "怒",
        -9.804799111021387
      ],
      [
        "だし",
        -9.805215539684824
      ],
      [
        "頑張って",
        -9.805326475285225
      ],
      [
        "後半",
        -9.805330142778537
      ],
      [
        "実験",
        -9.80546415215189
      ],
      [
        "彼は",
        -9.805879520437406
      ],
      [
        "齢",
        -9.805993099740878
      ],
      [
        "方針",
        -9.806734852027736
      ],
      [
        "録",
        -9.80794100615666
      ],
      [
        "よかった",
        -9.808053078915282
      ],
      [
        "差し",
        -9.808118875942855
      ],
      [
        "行われ",
        -9.809148793705344
      ],
      [
        "明治",
        -9.809482003667584
      ],
      [
        "企業の",
        -9.809523485013464
      ],
      [
        "いろいろ",
        -9.809900618183283
      ],
      [
        "のうち",
        -9.810385242158514
      ],
      [
        "各種",
        -9.81075871107142
      ],
      [
        "載",
        -9.811074750690967
      ],
      [
        "吸",
        -9.811584516376245
      ],
      [
        "近年",
        -9.812813208391301
      ],
      [
        "避け",
        -9.813031212992621
      ],
      [
        "が必要です",
        -9.813050883504353
      ],
      [
        "デビュー",
        -9.813731404280981
      ],
      [
        "深く",
        -9.814230465018515
      ],
      [
        "結局",
        -9.814254060321966
      ],
      [
        "事例",
        -9.814483040237016
      ],
      [
        "07",
        -9.814691193787578
      ],
      [
        "ころ",
        -9.814864162194725
      ],
      [
        "物件",
        -9.815058128360212
      ],
      [
        "世紀",
        -9.815483190944548
      ],
      [
        "子育て",
        -9.815499241907752
      ],
      [
        "幹",
        -9.815804453242311
      ],
      [
        "事情",
        -9.81607919954592
      ],
      [
        "ができ",
        -9.816615213603232
      ],
      [
        "ファッション",
        -9.816859152836413
      ],
      [
        "借り",
        -9.816953997130904
      ],
      [
        "ファイル",
        -9.817658670272223
      ],
      [
        "映",
        -9.817774749447636
      ],
      [
        "皮膚",
        -9.81784031041043
      ],
      [
        "ローン",
        -9.818407357131607
      ],
      [
        "消費",
        -9.819443768606877
      ],
      [
        "膜",
        -9.819500294590393
      ],
      [
        "住民",
        -9.820402300413281
      ],
      [
        "上がって",
        -9.821214438848008
      ],
      [
        "まあ",
        -9.821379538889781
      ],
      [
        "賛",
        -9.821618218303795
      ],
      [
        "選挙",
        -9.822129671899123
      ],
      [
        "そのような",
        -9.82242422143096
      ],
      [
        "の方は",
        -9.82270044387756
      ],
      [
        "かん",
        -9.822918318000141
      ],
      [
        "クション",
        -9.823118120692424
      ],
      [
        "所属",
        -9.82364622138428
      ],
      [
        "衆",
        -9.823740637140064
      ],
      [
        "立場",
        -9.824052215396643
      ],
      [
        "なのに",
        -9.824236434268757
      ],
      [
        "豊かな",
        -9.82429979421458
      ],
      [
        "を経て",
        -9.824346850206723
      ],
      [
        "わかる",
        -9.824869381127844
      ],
      [
        "拠点",
        -9.82513852986146
      ],
      [
        "心の",
        -9.825258940109018
      ],
      [
        "議論",
        -9.825471452031536
      ],
      [
        "同時に",
        -9.825716824091177
      ],
      [
        "筆",
        -9.825795137025763
      ],
      [
        "ようになりました",
        -9.825875444784735
      ],
      [
[...]
